Ġ t
Ġ a
h e
i n
r e
Ġt he
o n
e r
Ġ s
Ġ w
a t
Ġ o
e n
Ġ c
i t
i s
a n
o r
Ġ b
e s
e d
Ġ f
in g
Ġ p
o u
Ġa n
a l
Ġt o
a r
Ġ m
Ġ in
Ġo f
Ġ h
Ġ d
â Ģ
a s
i c
Ġan d
Ġt h
l e
o m
i on
l l
en t
Ġ n
Ġ l
Ġ re
s t
v e
Ġ e
l y
r o
Ġb e
Ġ g
i d
u t
a c
o t
Ġ T
Ġ I
Ġth at
Ġ on
a y
Ġ S
Ġ is
e t
i m
a m
a d
o w
s e
i g
Ġf or
âĢ Ļ
Ġ A
v er
u r
c t
l d
Ġ C
Ġ u
Ġs t
Ġ y
Ġ it
Ġ he
i r
at ion
it h
Ġw h
Ġ M
c e
t er
o l
Ġw e
i l
Ġw ith
Ġa s
Ġ B
c h
i ll
n d
Ġ P
Ġw as
er s
Ġy ou
k e
Ġ âĢ
Ġc on
Ġd e
Ġ r
he r
i f
at e
a g
Ġa t
Ġh a
Ġ W
Ġs e
Ġ H
o re
Ġp ro
u l
p p
m ent
r i
Ġa re
Ġ D
Ġ 1
u s
es t
is t
Ġc om
an d
Ġ R
o p
a in
ĠT he
Ġ 2
ig h
r om
Ġ (
or t
o d
Ġn e
Ġ F
u m
u n
Ġe x
re s
a b
âĢ Ŀ
Ġn ot
Ġ N
Ġ v
es s
Ġha ve
it y
e m
ou ld
Ġo r
t h
Ġb y
o s
an t
Ġ G
i ve
Ġf rom
Ġa l
e l
' s
o c
ar t
Ġs u
Ġ L
Ġs h
Ġth is
n t
q u
igh t
p e
u st
Ġ le
i es
Ġ E
en d
Ġc h
Ġs a
ou t
Ġa b
T he
al l
i e
ac k
re d
0 0
ĠâĢ ľ
Ġh as
al ly
Ġ J
Ġp l
Ġg o
ar d
i v
Ġh is
om e
a p
o st
g h
e ar
Ġ O
Ġt r
ou r
as t
Ġ j
a k
u d
Ġd o
Ġthe y
Ġb ut
Ġw or
r ou
Ġc an
g e
Ġw ill
Ġsa id
Ġw he
Ġ U
Ġ k
ic h
Ġa ll
o k
Ġ "
id e
Ġwh o
Ġin t
am e
an s
t her
i al
Ġo ut
f f
Ġthe ir
on g
e ct
p l
ic e
u re
p t
on e
Ġm ore
ag e
ion s
ac t
i ke
Ġm e
Ġu p
ou s
in e
Ġa d
Ġab out
at ed
r a
b er
Ġon e
Ġwe re
Ġs o
Ġu s
im e
o g
Ġ K
e p
i a
Ġh ad
a re
u b
c c
Ġw ould
Ġc l
Ġ2 0
Ġ im
Ġwh ich
in d
u e
a ke
Ġcon t
i z
ver y
Ġa g
Ġt e
Ġof f
Ġcom p
Ġu n
Ġbe en
ĠS t
s o
Ġ en
p er
ig n
a u
ĠT h
ar y
ac e
Ġy ear
i p
e w
Ġl ike
e re
v en
o ok
Ġin c
ay s
Ġm an
Ġp e
r y
o se
Ġre s
ab le
it e
Ġp er
as s
or d
Ġs p
i re
ĠI n
Ġo ther
m er
Ġs ome
i le
i b
en ce
op le
Ġ20 1
k s
ation s
Ġo ver
ic al
Ġthe re
res s
Ġd is
ul t
in t
Ġne w
ow n
Ġal so
Ġth an
Ġa r
Ġbe c
r u
Ġthe m
an ce
ou nt
ou gh
Ġa pp
p ort
a il
Ġp art
Ġyou r
Ġwhe n
re e
Ġwh at
or m
on d
Ġpe ople
f ter
Ġs c
ĠC h
a v
as e
Ġ qu
Ġan y
Ġj ust
Ġit s
Ġ Y
ac h
Ġt ime
ĠI t
Ġk n
Ġhe r
Ġ 3
en s
l ic
Ġre c
re at
Ġm y
Ġg et
Ġ if
Ġ V
i an
. âĢĿ
Ġint o
ou nd
Ġwor k
Ġt w
ir st
ve l
ct ion
Ġn o
d u
ing s
or y
ic k
or s
Ġo ur
it ion
id ent
o b
Ġ -
Ġp re
o ve
Ġpl ay
an g
in k
au se
w n
t e
am p
ad e
h ing
at es
ar k
Ġ ro
Ġp ol
Ġs he
ver s
Ġc o
, âĢĿ
Ġa fter
n e
Ġf irst
Ġc ould
Ġh ow
ĠH e
Ġ1 9
i ous
nd er
i ld
Ġa cc
Ġh im
a w
' t
on s
Ġp o
Ġon ly
Ġf e
Ġat t
ic t
he d
Ġp r
Ġtw o
r it
o v
is h
Ġcom m
âĢ ľ
f orm
Ġs pe
Ġa ct
w e
er v
Ġb l
f t
Ġbe t
Ġde c
. "
n ing
Ġb ack
Ġm ost
c es
o od
c k
ĠâĢ ĵ
Ġa m
o y
Ġd id
rou gh
if f
at er
rou nd
Ġag ain
Ġ 4
u al
d ay
is e
Ġu nder
Ġd es
Ġw ant
u ll
se l
Ġcon s
ĠâĢ Ķ
. .
Ġbec ause
Ġn ow
l ud
ent s
Ġyear s
m an
ter n
ub lic
e c
Ġne ed
Ġe ven
Ġ $
is s
Ġin v
Ġkn ow
ĠW e
Ġse e
ment s
c ed
Ġad d
, "
t ing
o ld
Ġin d
Ġse c
f ore
u ch
Ġe very
ur n
Ġ 5
Ġsu pp
Ġm ake
pe ct
ĠU n
Ġe m
Ġthe se
oc k
o ll
Ġwhe re
j ect
I n
ation al
ver n
x t
Ġb u
Ġl ook
T h
ĠA nd
os s
Ġd on
Ġe v
um p
at ing
Ġw ay
Ġbe ing
Ġre m
Ġr ight
i ly
Ġm ay
n g
ro w
le ct
ie w
Ġthe n
Ġman y
Ġ [
Ġd iff
Ġde f
as on
Ġre l
Ġc all
ĠB ut
ĠT r
on t
i ed
l es
as ed
Ġinc lud
Ġth ink
ak ing
Ġre g
) .
mer ic
Ġim p
Ġth rough
at h
it ed
ri b
Ġs y
Ġsh ould
Ġp res
Ġs ay
e ll
Ġf l
ur ing
Ġl ast
Ġth ose
ow er
Ġ very
t y
ot her
Ġm uch
it ies
if ic
Ġst ate
ĠTh is
at ive
Ġsh ow
t le
he n
Ġb r
s s
ar g
Ġwe ll
ot h
Ġp h
ĠW h
Ġc ount
al s
u nd
Ġ2 00
Ġdo es
Ġd own
Ġo wn
ar ly
Ġ end
Ġas s
Ġbe l
Ġu se
ic s
an ge
- -
t s
Ġl ong
ĠA meric
ter s
in ce
Ġbe fore
om et
g r
Ġm on
w ard
Ġgo vern
Ġst art
Ġre port
ib le
Ġ ke
u p
u es
ĠN ew
Ġf in
Ġte am
b le
Ġm ade
if e
ol og
en er
) ,
Ġsu ch
re n
c om
ou n
ers on
e k
i x
Ġs m
âĢ Ķ
l p
il ity
Ġgo ing
is m
f ul
Ġwor ld
u ally
Ġst ud
ist s
Ġgo od
Ġa c
t ain
I t
Ġsu b
Ġe ff
Ġs ur
Ġagain st
it s
Ġg ame
Ġs et
or k
Ġ 6
Ġg u
Ġpo int
Ġ ent
y s
00 0
g an
ar s
l i
st em
Ġpro v
Ġst ill
rou p
Ġwh ile
ill ion
Ġhe lp
Ġle ad
Ġm in
we en
e f
a x
an k
al k
im es
Ġs ays
Ġo b
m s
c y
Ġpro du
Ġg r
Ġin ter
Ġin st
Ġst r
c ess
Ġs im
i o
sel f
Ġcon f
Ġc ol
Ġt ake
u res
ar ch
Ġs ame
Ġth ough
Ġbet ween
oll ow
Ġoff ic
e ver
Ġc r
Ġdiff ere
o ol
us s
ut ion
l and
Ġdis c
a ir
Ġo p
a h
Ġ ed
Ġh igh
re ad
Ġn um
Ġl aw
Ġs ign
w ay
Ġgovern ment
g g
ĠR e
l ed
n er
h ip
at ch
he s
am es
an y
Ġt er
Ġs omet
c ent
vel op
t ed
W e
Ġre f
Ġtr ans
t en
Ġin s
Ġr un
Ġs er
Ġf ound
Ġth ree
iv es
a ve
Ġm em
Ġa round
Ġhe re
at her
Ġm ed
Ġre al
Ġus ed
ou se
Ġ1 0
v ed
Ġex p
a z
ĠA r
ce pt
o ot
Ġsy stem
ĠY ou
c i
Ġre ally
Ġm od
v ing
c on
c er
Ġg roup
Ġsupp ort
Ġ 7
Ġc our
et s
al e
in s
Ġre t
Ġh and
Ġp ublic
Ġspe c
p r
ĠL e
y ing
Ġg reat
Ġc ar
en se
Ġex t
. [
t on
ire ct
Ġc ur
Ġf am
ĠC om
al th
Ġha pp
Ġf act
p h
Ġex per
ĠThe y
ĠTr ump
Ġf r
Ġw om
ĠI s
Ġc ap
Ġb oth
Ġd ay
Ġf ind
ĠA l
ul ar
Ġre ad
in es
o h
ic es
Ġd et
Ġl it
Ġs l
Ġre p
ut h
e red
Ġd uring
ĠS h
ĠA s
Ġ 0
Ġs erv
Ġmon th
m in
t he
is ion
Ġc re
Ġde velop
Ġb ig
Ġ 8
Ġp erson
ak es
Ġf ollow
ĠC l
Ġis s
e x
Ġto ld
Ġs ince
a red
m ed
ic ally
Ġwe ek
ag es
i vers
Ġw ar
Ġf ew
ort h
ord ing
Ġc ent
Ġle g
a j
g et
Ġpol it
v es
as h
Ġex pl
Ġl ot
r ic
ĠS e
Ġbel ie
Ġg ener
Ġto o
Ġ 9
d er
at a
re nt
Ġo pp
W h
Ġre qu
Ġcont in
Ġpro t
i et
b ers
an c
Ġf il
ent ion
n ess
Ġc le
Ġres p
Ġp ut
iz ed
ĠI f
Ġan other
2 0
ch ool
Ġin f
Ġsomet hing
ĠD e
Ġdiffere nt
Ġc or
Ġl oc
ut e
Ġinv est
Ġs oc
Ġp ower
Ġc he
u c
Ġ '
Ġp ass
Ġcomm un
Ġl ife
ĠF r
Ġpl an
od y
Ġre le
i ence
Ġhe ad
Ġth ings
n ed
Ġf ar
Ġar t
Ġp oss
Ġm et
th ing
o x
ere st
Ġc amp
ro ss
ar ge
Ġv ot
i er
Th is
v iew
Ġch ild
ant s
Ġas k
Ġ .
Ġm ight
Ġe ach
iz e
in ess
Ġde p
Ġne ver
Ġne xt
i k
ie ld
Ġsec ond
Ġm ark
t t
Ġqu est
Ġb us
Ġad v
ĠA n
Ġde m
ĠF or
Ġcom e
Ġg ot
ĠâĢ ĺ
Ġop en
Ġb est
i ent
it al
Ġall ow
ĠTh at
r at
Ġse em
Ġp ost
p le
n ce
Ġfe el
ĠP ro
ĠU S
u g
Ġp ri
gr am
Ġper cent
c l
Ġh ome
Ġd ist
Ġd irect
i red
Ġinc re
Ġcont ro
ĠR ep
s on
or n
l ess
os ed
Ġres ult
Ġh ard
Ġc are
ate ly
Ġm illion
ch n
Ġcomp le
Ġpl ace
Ġwith out
Ġin form
Ġinclud ing
Ġim port
Ġa v
con om
Ġh um
Ġ ide
Ġpro ble
Ġbu ild
Ġto p
am a
Ġnum ber
Ġcount ry
g y
one y
a im
ĠB l
re t
r al
ab ly
u ro
Ġst and
Ġg l
Ġe l
ri end
Ġf our
is hed
w ays
Ġpart ic
Ġbet ter
c o
Ġt ri
B ut
Ġrec ent
Ġint erest
Ġm ov
Ġle t
r ation
Ġse ason
Ġl ess
e ad
Ġt urn
Ġlit tle
Ġbe h
Ġm il
Ġapp ro
r act
l ine
Ġb ro
l ing
is ed
Ġcall ed
a pp
1 0
Ġc ase
Ġd r
ĠI nd
Ġre st
Ġle ft
Ġp op
Ġan n
Ġ Z
en cy
od e
Ġm ove
in a
Ġatt ack
ĠThe re
Ġke ep
Ġf ull
er ing
Ġdid n
b e
Ġf un
Ġm ain
aj or
_ _
Ġeff ect
in al
m e
le g
Ġpre v
Ġpro gram
Ġus ing
Ġt est
Ġp ay
t o
at ure
Ġe ar
Ġv al
Ġpol ice
Ġw rit
Ġfor m
Ġe conom
Ġd ata
Ġnew s
Ġp os
Ġw in
ĠAmeric an
Ġle vel
Ġs it
Ġch ar
ain s
iv ing
u ck
Ġsm all
in ed
read y
H e
Ġs chool
Ġl ist
olog y
r ap
m it
id ed
pl oy
' re
g er
Ġe as
Ġpro cess
ir d
Ġch ange
Ġwom en
Ġcur rent
Ġre ce
Ġp rom
Ġh ist
Ġd ri
Ġ =
i ans
re en
Ġpres ident
Ġcomp any
ĠS o
us ed
Ġm at
ru ct
Ġal ready
oh n
ĠUn ited
w it
Ġt y
Ġwh y
Ġb re
Ġu nt
Ġm oney
Ġs ol
Ġal ways
Ġl ater
Ġex pect
Ġte chn
Ġbus iness
ĠH ow
Ġoffic ial
r on
Ġ Q
ĠO b
st and
ivers ity
Ġb o
Ġb ook
ĠP h
a ign
Ġth ing
Ġcl ass
Ġpro ject
as es
Ġcl aim
Ġj ob
Ġinform ation
Ġor gan
a ff
ĠS he
ard s
Ġt alk
ĠB e
Ġdes ign
Ġst ory
Ġch ang
Ġm ajor
Ġab le
Ġpro f
Ġ- -
.. .
le ction
iv en
er tain
Ġre se
Ġhe alth
Ġv is
Ġp ast
ur s
Ġf ree
he re
ou th
ĠA d
Ġo per
pt ion
Ġa way
i or
ĠC an
Ġm ust
Ġc ity
amp le
r ist
s c
ur al
Ġhapp en
uth or
Ġ1 8
Ġimport ant
ac y
ur ity
Ġk ill
Ġs k
Ġ est
u red
Ġo ld
Ġp at
ur y
end ing
Ġdoes n
iss ion
Ġle ast
Ġg row
Ġed it
Ġv ar
ain ed
S t
Ġc ost
ĠG o
ne y
id er
id es
el s
Ġd ays
Ġte ll
Ġh op
Ġst re
Ġcamp aign
s ide
Ġ1 2
Ġm en
Ġc ame
Ġa ff
Ġcon st
res ident
Ġen ough
Ġv iew
cc ess
Ġk ind
ĠM ar
o ad
ĠS p
er n
Ġm aking
Ġl arge
Ġrec ord
5 0
us h
Ġf riend
Ġm ar
Ġfam ily
âĢ ¦
le y
Ġe lect
er al
Ġpol ic
Ġt ax
is ing
b y
pp ed
al ity
at or
if ied
A s
iv ed
are nt
r or
Ġunt il
ion al
Ġpolit ical
Ġv ide
Ġde al
e e
ri es
al f
au gh
Ġ ve
Ġwork ing
u ed
ĠRep ublic
Ġto ok
Ġde b
b s
I f
is ter
Ġl ine
ĠJ ohn
ain ing
Ġa ir
-- --
Ġ es
Ġin tern
Ġf ore
i ol
an e
oc rat
Ġbec ome
Ġact ually
ap s
on y
Ġme an
w ork
Ġf und
ĠS c
w are
1 9
em ber
ĠP l
Ġfor mer
Ġof ten
ĠE uro
ot t
an n
Ġw on
Ġg ive
o int
Ġacc ording
Ġe ver
m ost
en g
y ear
w h
ar ing
Ġg ames
is on
Ġhum an
Ġb as
Ġwor d
iz ation
Ġret urn
Ġt imes
Ġor der
ĠR uss
Ġb it
ĠD em
Ġn ame
1 1
g in
Ġse ver
ĠA ll
Ġde v
ic le
ut ure
f or
it her
i qu
Ġp ar
Ġ19 9
ĠM c
Ġw r
ĠC on
ra ft
Ġs ing
Ġper form
ĠS y
id d
Ġmark et
Ġf ac
Ġchar ac
The re
ĠO r
ĠA t
ĠM ay
Ġr a
Ġdo ing
Ġapp ear
E R
c hed
Ġplay ers
Ġl a
Ġn ight
Ġle ar
ak en
ro p
at s
m ber
Ġto day
Ġe arly
Ġ1 5
Ġse en
/ /
Ġha ving
Ġ ,
Ġp ot
Ġchild ren
Ġev ent
Ġmed ia
Ġsoc ial
Ġc rit
ĠP resident
Ġwhe ther
Ġsever al
Ġcontro l
id ence
Ġme et
s h
Ġmil it
Ġp ress
Ġw ent
art ment
en e
Ġf ive
Ġyou ng
or ies
Ġsu re
Ġpro p
ious ly
Ġe qu
Ġquest ion
Ġo cc
Ġlike ly
ver t
un e
Ġmem bers
b r
and s
Ġc ertain
i um
Ġen g
Ġw ater
ĠY ork
Ġex ample
ot s
ĠC ol
Ġs ide
Ġan t
Ġar g
Ġd one
en n
Ġ vers
Ġinv ol
ĠM r
ĠSt ates
ĠEuro pe
end ed
le t
Ġal ong
Ġsh ort
Ġsu ccess
ent ial
Ġmonth s
b all
Ġh our
Ġ1 1
Ġse x
i ver
i ally
A nd
l f
em pt
Ġwith in
Ġdes c
im ate
Ġcour se
Ġf ight
st er
ur ch
ub l
Ġam ong
Ġact iv
u ff
âĢ ĵ
ag ue
Ġon ce
Ġf uture
Ġinvest ig
ul ation
re w
Ġposs ible
ĠOb ama
Ġch o
n ect
Ġunder stand
it ing
Ġcon cer
ĠO n
Ġ ]
on es
ort un
Ġproble m
ĠB r
Ġpri v
Ġme ans
Ġv iol
ĠC ar
Ġa uthor
it ive
ĠN o
gg est
Ġav ail
oc i
our n
m y
Ġkn own
Ġprodu ct
Ġn on
iv id
Ġthough t
Ġy et
g ress
Ġac ross
Ġprot ect
Ġloc al
al d
l er
Ġh old
ĠT e
Ġf ail
ĠW hen
ĠSt ate
in c
Ġcommun ity
Ġre ason
Ġor ig
Ġsu ggest
Ġ &
1 2
Ġm akes
ver age
n ot
p or
b ack
Ġ201 6
Ġ i
b ook
Ġask ed
ed eral
or ld
Ġreport ed
Y ou
ag ed
ens ive
Ġg iven
Ġstr ong
Ġpro b
Ġm us
Ġother s
Ġbelie ve
Ġvide o
i ber
Ġb en
Ġget ting
ĠH ouse
an ces
Ġann oun
Ġl ight
ore d
o ber
ĠUn iversity
Ġ3 0
ĠC o
it ions
Ġ ident
ir on
Ġs ent
Ġc ut
Ġl im
Ġc a
ĠCh rist
iet y
3 0
ur ther
Ġs our
Ġc reat
Ġcon d
Ġ X
re st
am s
' ve
Ġn et
as hing
Ġb at
am ent
Ġn ational
. ,
Ġcl ose
Ġstart ed
Ġsa f
Ġde ath
as ter
Ġavail able
ar m
Ġh ig
F or
Ġb ased
Ġiss ue
o f
Ġind ust
ĠDem ocrat
ĠM in
Ġl ow
Ġfollow ing
res ent
Ġacc ount
Ġl and
u se
ĠC ent
Ġem ploy
Ġl ove
Ġ201 5
Ġ #
Ġhist ory
Ġag o
ort s
sel ves
Ġm om
Ġpart y
ab ility
Ġser ies
e b
Ġcom es
Ġtr ying
u ly
ut es
ĠA m
Ġal most
get her
u ment
Ġto gether
in ation
A T
ĠAmeric a
p ro
Ġide a
ie f
Ġacc ess
Ġf oc
her s
il ar
ĠF l
re ed
ail s
Ġcomm it
ition al
Ġis n
ĠS en
Ġcle ar
Ġ1 6
ĠO ne
Ġtr ad
th ough
r ing
ĠWh at
Ġpr act
Ġadd ed
Ġimp ro
Ġexper ience
ere nce
Ġfil m
1 5
Ġh alf
ust om
g ed
Ġh it
a f
ĠB ro
wit ter
r ict
Ġan al
int on
og rap
un ch
Ġ201 4
Ġr ul
ivid ual
Ġlook ing
Ġs ix
Ġl ive
Ġany thing
Ġare a
Ġcomple te
er man
min ist
Ġm iss
ra el
ĠE x
ĠCom m
Ġf av
Ġr is
a i
n es
Ġpres ent
ot e
ru g
Ġsay ing
ra w
a id
ĠCan ad
Ġv ict
I N
ci ally
Ġb ad
ow s
u ge
Ġt aken
er t
Ġent ire
ot o
ĠP r
at ors
e v
Ġb ill
Ġcomp et
ĠE ng
Ġm or
Ġbeh ind
i en
Ġa ut
ĠT o
' m
Ġcour t
pl ay
Ġtr y
Ġt re
Ġmilit ary
Ġ z
Ġne ar
os p
Ġm ult
Wh at
Ġf ace
ward s
Ġ1 4
Ġsec urity
Ġ er
ĠP ol
s y
Ġpro per
Ġdisc uss
Ġth reat
Ġto t
Ġstud y
Ġsing le
Ġr ather
Ġind ividual
ĠA f
ĠB rit
ĠW ar
Ġ Â
tt p
Ġqu ick
ĠD on
Ġm ind
ĠS ec
le ment
al es
am ed
at ic
A n
ĠN orth
ap er
Ġp ubl
Ġpolic y
Ġm ess
r is
p ar
Ġbl ack
Ġwant ed
Ġf all
ir c
* *
o ff
Ġf ood
Ġs um
Ġsome one
ll ing
id s
O n
Ġ |
Ġ /
Ġc ult
Ġspec ial
Ġcom b
Ġke y
ĠM an
Ġplay er
Ġre du
ĠG r
Ġbr ing
Ġ1 3
Ġcomp an
Ġ1 7
p ly
ĠD ep
Ġatt empt
ĠN ational
Ġt aking
ĠB ar
W hen
O N
if y
ol ution
Ġ :
v iron
Ġf oot
ĠC al
: //
Ġel se
Ġpre t
Ġb ody
Ġsp ace
el t
ro te
o ver
d d
Ġprob ably
1 6
ic ult
. )
Ġfr ont
Ġc ou
Ġnot hing
Ġs w
ashing ton
ĠI m
Ġcon nect
c hes
ĠW orld
Ġrese arch
1 4
m ing
ĠCl inton
ĠC ity
Ġcom ing
Ġpoint s
ĠIs rael
R E
Ġhow ever
Ġdesc rib
g o
Ġj o
Ġsign ific
Ġsim ilar
y n
re me
c ing
Ġben ef
li er
ĠA ust
Ġdec ision
Ġe ither
ac es
Ġc oun
a ult
S o
Ġm ass
m b
ĠH ar
Ġs us
Ġt arg
ull y
an a
Ġfe at
Th at
Ġim m
Ġcon v
Ġex ist
ir l
Ġen c
Ġ201 3
Ġright s
Ġserv ice
ĠS u
as ing
un g
s w
I S
Ġf ire
Ġd oc
Ġw rote
Ġf urther
Ġh ouse
ro du
Ġf ig
Ġch all
w w
Ġb an
Ġth ird
Ġw a
Ġcre ate
Ġst op
Ġf ield
n ow
Ġp ick
A N
a pe
ive ly
Ġme as
Ġre pl
Ġcom pl
ĠW ith
Ġiss ues
pp ing
Ġbe gin
Ġsu per
am er
Ġst ep
ri ed
ent ly
Ġwho le
Ġrel ations
Ġseem s
Ġ )
Ġcompan ies
pe cially
Ġd ue
Ġex ec
Ġc and
Ġevery thing
Ġf ederal
ĠG u
Ġst ates
Ġe y
Ġro om
a ul
Ġtr a
Ġw atch
o on
ĠG e
Ġc ustom
Ġlead ers
1 3
u ation
ĠHow ever
p ite
ĠJ an
ĠW ashington
C h
l am
Ġse lf
Ġro le
r an
il t
Ġs ound
Ġl ab
at t
he ad
Ġd am
iv il
Ġofficial s
Ġst ri
Ġ201 2
l u
id ay
ib ility
Ġrele ased
ĠIn st
e al
Ġbe gan
ĠD av
ĠA pp
ĠS outh
Ġo pt
ob al
Ġstud ents
Ġt reat
Ġfin al
Ġcharac ter
Ġpos ition
Ġmat ter
Ã ©
end er
Ġen er
l im
Ġout side
er y
se c
ad es
Ġd ou
viron ment
Ġdevelop ment
Ġstate ment
Ġhim self
Ġ201 7
Ġab ove
l ike
Ġst at
Ġin it
Ġbre ak
Ġ1 00
Ġam ount
Ġprov ide
Ġhour s
Ġit self
Ġthem selves
Ġoff ice
Ġrep resent
Ġa ction
ĠP art
Ġd i
Ġbec ame
Ġ19 8
Ġgener al
Ġcontin ue
Ġcount ries
ĠIn tern
Ġne g
i od
Ġadd ress
Ġ2 5
Ġg un
ac ed
as k
Ġtr ue
Ġspec ific
ograp h
um b
ar ter
re g
Ġl arg
Ġsignific ant
l ish
Ġsim ply
ĠA ss
ĠR es
Ġwas n
' ll
Ġinter view
ace book
il i
Ġg round
Ġr ad
o id
og n
Ġdiff icult
Ġrun ning
ĠJ ust
Ġev idence
Ġad minist
B C
Ġc op
1 7
re am
Ġd rug
Ġvers ion
og le
Ġb ar
ĠE d
Ġag ree
e ks
idd le
Ġbuild ing
ĠCh ina
Ġneed s
Ġprof ess
ang u
Ġgroup s
r ight
Ġty p
Ġresp ons
Ġcomm on
Ġshow s
Ġevery one
Ġd om
Ġd est
Ġneed ed
Ġb all
Ġwom an
ĠG erman
Ġl at
Ġbel ow
Ġt em
l ight
ourn al
Ġmus ic
Ġex c
Ġrele ase
if t
Ġin j
Ġpret ty
ĠM ed
ĠA b
A R
rib ut
Ġinclud e
Ġsa w
Ġde ep
Ġa p
b ody
1 8
Ġplay ed
Ġqu ite
Ġindust ry
Ġch arg
Ġm ag
Ġener gy
Ġplay ing
Ġm ot
Ġ5 0
Ġcand id
Ġs ense
Ġph ys
Ġl ate
Ġal leg
Ġwh ite
ĠH is
iv al
Ġfriend s
Ġg en
Ġleg al
at ur
Ġan im
is c
b o
y le
ĠA fter
H ow
A S
w here
Ġab s
le v
Ġinst ead
Ġre d
Ġb illion
Ġl ost
Ġes pecially
Ġval ue
ĠM us
ĠW est
Ġh ost
Ġh om
os ing
or ing
ĠNew s
t ime
ag er
Ġp le
ist ic
Ġwe eks
ep end
ĠN ot
cc ording
om m
Ġfor ward
iqu e
Ġdet er
Ġe lection
Ġrecent ly
Ġj ud
Ġtr ack
Ġsu ff
Ġvot e
ĠT witter
Ġob ject
ir t
l t
med i
Ġper iod
Ġchang es
Ġopp ortun
ĠWh ite
ĠO ct
Ġl o
Ġlong er
ar c
o ke
e ed
Ġe p
Ġp ain
Ġso on
Ġs ite
Ġ {
h od
ri pt
ac hed
Ġac cept
ĠC ong
__ __
Ġsh oot
Ġeconom ic
Ġhop e
ir m
o e
Ġmom ent
Ġdec l
le ge
Ġcons um
ĠW ill
Ġp ie
Ġt it
Ġche ck
op h
Ġpot ential
i j
Ġbl ock
ĠM arch
o le
Ġwr ong
du ct
n ers
ĠSe pt
ĠDep artment
Ġhig her
on se
Ġc red
Ġon line
Ġfoc us
Ġ2 4
Ġcons ider
ke y
Ġed uc
anc ial
ĠM y
n s
id ing
Ġc irc
Ġwor ks
Ġrel ig
Ġsh are
Ġp arent
c ial
Ġhe ld
2 5
Ġp red
ĠD r
Ġw alk
Ġwe bs
Ġl ed
ul arly
= =
Ġre ve
le ar
Ġst ay
ĠThe se
ove red
al t
Ġst ru
ĠRepublic an
Ġris k
Ġword s
ĠA ug
Ġre v
Ġso ld
Ġre view
ic ro
Ġcont ract
Ġresult s
Ġserv ices
Ġlaw s
The y
Ġc ode
c il
ĠM ich
Ġw ind
Ġfun ction
Ġa ud
Ġc e
ĠSy ri
p ut
a ut
Ġtot al
f ect
Ġart icle
Ġa ge
Ġapp lic
Ġmin utes
ur d
ĠM e
Ġperson al
il ities
Ġany one
u ary
i ents
it ution
as ons
ĠJ une
A d
ate g
Ġpr im
ang er
Ġtarg et
ĠSt e
f er
Ġd en
Ġear lier
u le
Ġfav or
Ġexp ress
h aps
Ġde ad
Ġan sw
Ġup d
Ġpop ular
c he
Ġcomp ut
Ġv ol
pr il
Ġne cess
h am
Ġh y
Ġr ate
E S
ag ing
Ġtechn ology
ap an
Ġres pect
ĠP e
v al
Ġen vironment
Ġ201 1
P h
Ġrece ived
Ġexpect ed
ud e
end s
Ġgo al
ĠP ar
Ġcre ated
Ġb ase
Ġsur pr
Ġant i
ĠS m
ĠJ uly
et er
te e
Ġproble ms
u el
Ġw ays
Ġp ort
ip le
act ion
Ġpriv ate
ĠD o
Ġsc ient
Ġincre ase
r ay
re et
Ġannoun ced
Ġcom ment
is l
Ġcan not
Ġeas y
A l
Ġsh ot
ĠCong ress
Ġquest ions
b it
Ġfor ce
ater ial
her n
Ġimp act
n a
Ġe t
ĠM ond
pl es
Ġp ack
Ġ +
ĠF acebook
Ġp ur
Ġl angu
at ives
ĠG od
ĠE n
Ġinvol ved
om b
av ing
ill s
6 0
le x
h ood
on st
ĠAust ral
Ġd iv
ues day
Ġexec ut
ct or
Ġmod el
it iz
Ġs en
Ġspe ak
Ġst aff
Ġex act
Ġc ivil
i res
Ġne arly
Ġty pe
our t
ok es
e es
Ġorig inal
Ġc ases
Ġcont ent
Ġ19 7
Ġrelations hip
Ġter ror
ĠGo ogle
T o
Ġle ave
ĠFr iday
Ġresp onse
Ġcap t
Ġins ide
Ġ <
Ġph ot
ll ed
e ch
Ġf ans
ĠA pril
re m
ĠR ed
Ġintern ational
Ġco ll
c ast
Ġhe art
Ġa verage
Ġbro ad
Ġar rest
Ġus ers
ĠC ount
Ġc al
A t
re l
Ġc ell
Ġw orth
Ġso ft
Ġ ur
Ġl iving
ĠE m
b or
Ġn ation
ip s
k y
Ġkill ed
Ġreport s
Ġ201 0
ã ģ
g ing
Ġbec om
Ġsour ce
ĠMond ay
ĠT uesday
Ġsub ject
Ġwork ed
at ural
est s
Ġest ab
Ġim medi
E N
Ġresp ond
Ġgl obal
Ġass oci
j oy
ell ig
Ġcl ub
op s
ĠAmeric ans
a el
Ġob s
it es
ĠP er
ĠP al
Ġch ance
Ġo il
ĠA ct
Ġab ility
ĠN e
Ġt akes
rough t
Ġwe ap
he l
Ġpr ice
ĠJ apan
olog ical
Ġdirect or
iz ing
Ġwork ers
Ġter ms
Ġro ad
m on
Ġpubl ished
Ġde l
ĠWh ile
Ġt ou
Ġph one
r ain
Ġcol lect
Ġfin ancial
Ġm id
os ition
Ġdec ided
is es
O R
ĠRuss ia
ĠS ome
ĠW ed
Ġm other
Ġs qu
Ġl ack
Ġdef in
ove mber
Ġ4 0
Ġg irl
Ġst ore
Ġg ave
Ġbu y
Ġinf lu
ĠCal if
Ġl og
Ġhappen ed
in o
Ġrequ ire
ĠN ow
Ġe mer
Ġf em
" .
Ġcap ital
cl us
Ġfore ign
Ġcurrent ly
ĠO ff
b ased
ĠS an
Ġgo es
ĠB y
ov ed
ĠGe or
vert ise
Ġsit uation
Ġind ic
Ġoff er
Ġwho se
Ġ @
Ġt al
Ġm aterial
Ġl ives
un t
Ġaff ect
ro wn
ough t
Ġpl ans
nes day
Ġar ri
Ġmem ber
Ġp ict
urs day
ĠF eb
Ġpartic ip
ru ction
Ġrec ogn
Ġturn ed
Ġmet hod
Ġev ents
ĠJan uary
ĠH ill
Ġnet work
O ne
Ġteam s
ĠS und
Ġb ank
Ġmeet ing
4 0
re ct
Ġn orm
Ġint rodu
Ġsim ple
f ully
ĠIs lam
Ġ ill
ĠA g
Ġh uge
ĠSept ember
ou d
Ġreg ard
Ġare as
Ġc y
ord er
ĠC or
es e
ĠT V
Ġcou ple
Ġappro ach
Ġcare er
a ur
ĠAf ric
ĠG l
l oad
" ,
Ġde li
Ġr ace
l in
Ġperform ance
Ġp age
et y
ap t
ĠN ovember
Ġto ol
ĠDav id
Ġf elt
Ġquick ly
Ġm is
Ġnum bers
o or
Ġem ail
Ġ2 1
a ily
Ġor d
ĠE l
ist an
Ġadminist ration
Ġh on
ĠWed nesday
Ġvict im
ĠP aul
Ġv ia
Ġimpro ve
Ġeng ine
ch ie
---- ----
Ġf re
Ġp ull
ĠA ng
Ġr ound
b l
Ġbu ilt
Ġ2 2
Ġp ers
ĠEurope an
Ġd ig
en ed
ĠTh ursday
Ġf ather
orn ia
Ġl oss
av y
Ġth ous
Â Ń
Ġh ttp
ruct ure
Ġprodu ction
Ġb oy
um e
Ġhe ard
d own
S h
Ġeconom y
âĢĿ .
Ġen joy
ĠAug ust
Ġtr ade
ĠS ch
f ace
Ġwebs ite
im ent
Ġsec ret
Ġco ver
Ġreve al
Ġw ide
Ġbo ard
Ġm atch
ĠC ourt
A L
Ġallow ed
Ġhand s
Ġsp ent
Ġtra vel
Ġl ower
Ġre pe
at ory
Ġpo ll
Ġst e
Ġinclud ed
ce mber
ĠOct ober
Ġne igh
Ġleg isl
or ters
us es
Ġbeh av
ict ion
Ġkn ew
Ġte xt
Ġwant s
Ġto wn
ight s
ĠBrit ish
Ġse par
en ces
es tern
Ġvis it
ĠCanad a
an ks
ct ions
W ith
Ġper fect
Ġget s
z e
ess ion
Ġmove ment
is hing
g round
age ment
Ġtri ed
Ġc ause
? âĢĿ
g est
Ġ }
Ġfor ces
ĠSund ay
Ġen s
A fter
for ce
ce ed
Ġatt ention
Ġpartic ular
Ġb i
] [
en ing
Ġve h
Ġb ud
Ġf ear
Ġpop ulation
Ġvar ious
ĠU K
Ġre ach
m a
Ġlook s
Ġ2 3
ĠCalif ornia
Ġb rought
Ġv o
ĠK ore
Ġl ink
ib ly
) ;
ur ning
ar ily
ĠI S
2 00
Ġprev ious
E D
Ġm ention
ĠRuss ian
Ġmor ning
ĠQ u
c le
ide red
e g
' d
Ġf air
Ġgrow th
ak er
ĠS w
und red
9 9
se qu
y ond
Ġpro gress
Ġfe ll
ra z
all ed
Ġs ong
i am
ĠC ont
A C
Ġtr aining
f ield
h old
u k
Ġs ize
ĠBl ack
c ies
ĠDe cember
ident s
Ġcont act
led ge
ĠH er
Ġdem and
Wh ile
Ġim age
Ġh or
Ġr ac
Ġh ot
ific ation
O S
Ġlead er
s et
ec ause
Ġrul es
Ġpre p
Ġl iber
Ġse arch
Ġ ess
ĠP ost
Ġc itiz
Ġup on
Ġstru gg
ĠSt reet
Ġlat est
c ome
Ġind epend
U S
u ments
in ks
ar th
Ġfeat ures
Ġco ach
ond on
ĠP ark
i ant
Ġf ast
T r
o o
sy ch
Ġtalk ing
ĠJ ew
om p
Ġadd ition
g es
Ġst ar
Ġw ond
ĠSen ate
I T
ĠP at
Ġspe ed
Ġex am
Ġcons idered
ra q
ic les
ar ies
Ġre b
b ed
Ġlevel s
et h
ĠT imes
ĠCount y
ellig ence
Ġsl ow
Ġinvestig ation
p s
il le
Ġcon duct
ap h
ĠPart y
2 2
ĠK ing
Ġmed ical
Ġm ach
im ately
v ent
Ġa chie
Ġlangu age
atur day
Ġc ard
Ġs n
un k
Ġs ort
Ġcrit ic
op e
ĠT ex
ĠCent er
Ġp en
Ġu nd
w o
ĠInd ia
Ġp aper
ys is
I C
Ġ200 8
p ir
Ġcons erv
Ġparent s
im in
Ġsex ual
Ġsystem s
Ġpri or
h a
u it
as c
Ġdo ll
Ġwrit ten
u f
Ġb ox
Ġsp okes
ig r
Ġsee k
Ġs ens
he t
Ġdoc ument
id ge
e ared
Ġincre asing
Ġhe ar
an i
at form
Ġd raw
Ġse ven
Ġs on
ĠMus lim
Ġeff ort
ru ary
Ġjob s
ĠI ran
Ġext reme
Ġprev ent
Ġlear n
in ing
Ġser ious
Ġreg ul
r ast
Ġin n
Ġr ange
Ġ ...
ro om
Ġviol ence
Ġe ight
ĠM ark
8 0
our ces
ĠI raq
it ch
O P
Ġsur ve
Ġcomplete ly
Ġcon c
Ġ200 9
Ġmess age
ic o
t r
Ġ â
S he
Ġob v
Ġinterest ing
reed om
Ġsc reen
ab or
Ġopportun ity
e ff
Ġcl imate
2 4
e xt
Ġmajor ity
ĠK e
an ced
Ġpartic ularly
Ġdou b
Ġj ournal
ĠR om
Ġdes pite
Ġclaim s
ĠCh ar
Ġansw er
Ġsoc iety
ĠL ondon
Ġdef ense
Ġcar ry
ent ially
am ing
Ġgu y
Ġext ra
ens ion
m p
ĠDon ald
is ions
Ġattack s
Ġrequ ired
er ve
ren ch
ill ed
Ġbig gest
vertise ment
ĠE ast
Ġexact ly
i ers
Ġp aid
ĠM ore
ib r
Ġexper ien
Ġare n
ly ing
uc lear
ines e
Ġmod ern
Ġrem ain
Ġqu arter
Ġoffic ers
et t
Ġh undred
Ġc ross
Ġex cept
ut ions
ar i
Ġt able
Ġpract ice
Ġn atural
in ally
Ġm iddle
er c
Ġ2 7
Ġcertain ly
Ġd ro
ad d
os es
ĠS aturday
Ġst ories
ĠN et
Ġhist or
Ġg as
Ġproduct s
Ġsur v
Ġlook ed
Ġsomet imes
n ces
Ġst uff
Ġr out
Ġsc ience
Ġfin ally
Ġus er
A M
Ġsum mer
Ġmov ie
Ġbl ood
osp ital
av es
Ġcommun ic
Ġa w
ous ly
Ġl ay
Ġchang ed
Ġon es
Ġlead ing
Ġdescrib ed
ĠS and
Ġim ag
Ġter m
ĠFeb ruary
f l
Ġpr ison
Ġcon vers
n y
Ġdet ails
ic ks
Ġstart ing
ĠS pe
Ġqu ality
Ġocc ur
Ġp an
h ib
Ġshow ed
Ġn amed
Ġg iving
Ġu lt
Ġrem ains
ĠMc C
u ing
Ġreg ion
pp er
Ġprov ided
Ġcost s
ak ers
ĠS oc
ar r
Ġdam age
Ġm ob
Ġd anger
Ġf it
augh t
ĠT H
ĠT ur
Ġch ief
Ġpo or
Ġp ath
ĠM or
id a
Ġeduc ation
Ġmult iple
Ġcontin ued
en ge
ĠI nt
Ġgrow ing
N o
Ġdem onst
ĠC he
Ġ *
Ġpart s
y l
Ġ2 6
Ġwrit ing
Ġcom ments
Ġ2 8
Ġm ent
Ġmain tain
Ġsaf e
Ġass ist
Ġthink ing
ĠD es
in ary
ĠRepublic ans
ĠE ven
Ġpur p
Ġrequ est
Ġwr ite
Ġf ix
Ġit em
Ġp urch
ab les
Ġd ied
ĠDemocrat ic
ĠC oun
F L
ag o
Ġread y
co in
Ġwould n
Ġimp lement
2 3
Ġincre ased
Ġcult ure
f ort
Ġeff orts
Ġvot ers
u x
p re
Ġc amer
Ġm ill
al y
.. ..
op er
Ġread ing
mit ted
im inal
Ġf ile
Ġus ually
Ġcall s
Ġsp ot
Ġeffect s
I m
ĠG ener
z z
Ġper haps
b an
Ġal one
ar ian
il es
ĠF irst
Ġal though
Ġto wards
ĠLe ague
d e
Ġcons ist
ĠB ill
ĠTex as
Ġse lect
Ġgu ys
Ġstand ard
ĠMich ael
Ġsub st
Ġce le
Ġbe yond
Ġdirect ly
Ġpl atform
ĠCh inese
Ġ( @
Ġh ous
us ing
it ute
Ġspe ech
Ġreal ity
ic ated
Ġk ids
ĠJ ames
Ġav oid
Ġthrough out
Ġfoot ball
Ġstud ent
ar a
Ġcould n
row d
B I
Ġun f
f ord
Ġimmedi ately
ou l
Ġro b
Ġinclud es
Ġc at
Ġcon cept
e gr
Ġcent er
Ġcho ice
Ġsc ene
Ġcomple x
an ch
Ġadd itional
s p
ĠM on
Ġchall eng
ĠC ons
Ġw ife
Ġcl os
ur t
Ġt ro
Ġrec omm
Ġrese arc
R e
Ġep is
he st
it or
A ll
Ġ ver
ĠMin ister
Ġs le
Ġcor por
ĠâĢ ¦
Ġdesign ed
ĠS er
ur g
ag on
Ġrem ember
Ġsoft ware
Ġsaf ety
ĠInd ian
w ise
Ġg one
Ġ il
ast ic
port s
Ġc ast
Ġse ll
Ġto ward
Ġag ency
Ġt en
Ġoffic er
ac hes
Ġfig ure
Ġpie ce
Ġbr ain
om en
Ġbat tle
ĠJ ack
m en
Ġcoun ter
Ġdeb ate
air s
ress ion
st on
Ġthous ands
ad em
Ġs we
ru pt
Ġop in
Ġa head
ic ient
N ow
im um
Ġrel ative
ir th
Ġlet ter
Ġrece ive
Ġpress ure
Ġ Ð
ĠB o
Ġbl og
il ies
amp ions
Ġ >
Ġs il
Ġmov ed
Ġla unch
Ġappear s
Ġo ption
ĠPl ay
Ġpass ed
Ġ ut
Ġpre c
Ġst age
ro y
o es
Ġ6 0
Ġcle an
ĠS erv
ol ute
ĠI I
ate ver
ber g
O T
Ġproper ty
2 7
Ġhelp ed
am b
Ġdri ve
ĠApp le
j ust
Ġalleg ed
ĠG reen
Ġtw e
n ew
Ġdis app
Ġt our
Ġmean ing
Ġro ck
Ġdo g
Ġ x
Ġcr is
it ation
ĠAss oci
Ġsus pect
Ġd ate
ĠR ich
augh ter
Ġmov ing
Ġsc ore
ĠDemocrat s
Ġorgan ization
Ġs at
Ġcond itions
Ġtou ch
Ġd ark
Ġcomm and
ĠThe n
Ġ ign
? "
Ġre asons
Ġbud get
Ġp ark
m ore
Ġn uclear
Ġmy self
Ġn om
Ġde g
Ġhapp y
Ġdev ice
Ġdiffere nce
ri ef
ĠS im
Ġmay be
ch an
Ġbegin ning
A D
Ġcop y
Ġn ature
Ġfail ed
w ood
Ġf an
Ġcharac ters
y an
Ġcomput er
Ġenc our
Ġa im
ĠM art
Ġtit le
Ġw all
Ġcomp ared
Ġle ague
ock ed
ĠSu per
iv ity
Ġest im
ĠV al
ĠSt ar
Ġcol lege
Ġey es
Ġsh own
ĠEng lish
Ġcent ury
Ġpower ful
ĠD ay
le ase
our ce
Ġb al
ain t
Ġlim ited
Ġy es
Ġb and
Ġcont ribut
Ġpos itive
Ġfor ced
Ġsc he
Ġnecess ary
Ġref er
Ġcandid ate
Ġst ra
Ġdis p
3 5
ci ent
Ġbook s
Ġtr ust
A P
ĠF rench
Ġlarg est
2 6
Ġar ch
ent y
Ġs al
ĠH ere
Ġconf erence
ĠR ober
a ud
Ġnot e
Ġanal ysis
uf act
Ġsp ending
Ġpresident ial
4 5
ĠO f
Ġcitiz ens
or ks
Ġschool s
ig ration
ĠSyri a
Ġth row
ven ue
ĠB en
Ġa ware
Ġme ant
Ġexecut ive
Ġevent ually
M y
Ġphys ical
Ġfollow ed
Ġfe ature
Ġtreat ment
Ġc rowd
B e
ĠT or
ĠW ind
Ġf irm
Ġstre ng
Ġconf ir
Ġm ix
Ġb ott
er o
Ġcor rect
or ney
Ġ2 9
a res
ĠD is
Ġgr ad
Ġrelig ious
Ġeas ily
Ġaut om
Ġes c
Ġp us
b and
bo ard
I s
Ġco ol
et ro
Ġ19 6
Ġfam ilies
Ġil leg
ress ed
c raft
c ul
r ated
Ġact ions
Ġover all
ĠA ir
ĠM ex
Ġallow s
Ġg ives
Ġfe ed
ĠÂ £
) :
Ġsus p
ub e
Ġyour self
B y
Ġd raft
b um
k en
Ġsm art
Ġapp eared
Ġdet ail
Ġinc ome
ir ing
Ġanal y
ĠB el
Ġsign ed
N ew
en cies
Ġcent ral
Ġide as
Ġan g
ĠGo vern
Ġsen ior
Ad vertisement
Ġfre qu
Ġweap ons
I D
ĠB re
Ġh ar
Ġdis play
Ġprom ot
Ġn ice
Ġcred it
Ġdec ades
Ġp sych
Ġpolit ics
D on
Ġcr ime
O M
E C
Ġus es
in n
Ġdo or
Ġdis e
ut y
ĠIntern ational
Ġun ique
2 8
Ġal tern
Ġl if
A ccording
Ġd rop
Ġs ales
m ar
Ġdevelop ed
A r
res h
Ġcustom ers
E T
Ġbenef its
Ġconf lic
ur ance
Ġrel ated
Ġcris is
ĠS chool
Ġm ist
er ry
i able
Ġpred ict
Ġnot ed
ĠC ap
2 9
ĠAustral ia
ĠE U
Ġtr uth
b ox
p art
Ġgo als
in y
Ġindividual s
Ġch arge
ĠE arth
Ġbe aut
Ġcontin ues
on ents
ĠUn ion
ĠAr ab
Ġobs erv
Ġr ap
Ġchall enge
Ġst o
n own
Ġapp arent
ĠAng el
ite ly
ĠSm ith
Ġl ic
Ġproject s
Ġpe ace
Ġmeas ure
ĠPol ice
ot i
Ġint elligence
ĠChrist ian
Ġprev iously
ĠGerman y
Ġfull y
Ġr ule
Ġman ager
Ġbro ther
Ġr ates
Ġadv ant
U n
ch ange
Ġexp and
Ġcle arly
Ġre form
Ġl ines
n et
Ġsuccess ful
ri age
Ġhigh ly
Ġlarg er
ound s
2 1
Ġtr aff
Ġsp read
i ance
Ġseem ed
ĠCoun cil
Ġstra ight
S ome
Ġcr iminal
ĠCom p
Ġmin or
Ġem b
k i
ĠGeor ge
Ġprogram s
ic ed
at tle
ow ers
ĠFr anc
Ġinc ident
Ġres ources
ĠT om
Ġgreat er
Ġprim ary
I A
in ated
ant ly
Ġknow ledge
P ro
Ġstud ies
wh ile
d om
Ġsa ve
or ter
Ġwe b
ate gy
e an
Ġke pt
Ġatt ract
ĠFl or
ol ic
Ġsp ir
Ġem ot
qu e
Ġcol or
Ġfe et
ĠC r
se y
Ġr are
Ġre ached
ĠA nt
sec ut
Ġar m
ĠH igh
lev ision
ĠIntern et
ĠBro wn
od ay
id ers
os h
Ġfavor ite
Ġpl aces
r s
ĠR ec
Ġreg ular
w ide
ot a
ve re
Ġman ufact
Ġla un
ĠD ef
1 00
Ġs end
Ġpre m
ĠH am
ro ll
lic k
ic it
Ġknow s
Ġshoot ing
Ġactiv ity
Ġp un
Ġsour ces
Ġnorm al
ic ago
b on
ter m
ing ly
on ent
s er
v ille
Ġstat us
Ġfight ing
Ġvo ice
Ġr ise
oc ks
Ġf ine
Ġown ers
Ġca used
Ġclaim ed
ĠM ac
Ġen em
Ġlit er
ĠR ob
ĠU p
ĠGener al
a ith
E O
Ġopt ions
Ġ200 7
Ġint egr
eng th
us ion
Ġsp end
ĠG old
ad o
Ġc ities
m iss
Ġorgan iz
IN G
Ġend ed
il ed
Ġresearc hers
Ġcall ing
Ġsh ut
Ġref lect
ĠL a
m ission
m ark
or g
âĢĿ ,
ol es
7 0
ro id
Ġpr ices
ĠE very
Ġal bum
ĠF rom
if ying
Ġemploy ees
Ġfem ale
ĠEng land
y a
ww w
Ġv irt
Ġha ven
Ġra ised
mit tee
Ġe le
Ġj ump
u ana
3 3
Ġsupp osed
it ness
Ġhapp ens
Ġadd ing
Ġpolic ies
Ġn ames
Ġcharg es
Ġpro s
Ġtr ou
ic a
rib ution
Ġbas ic
iver se
um an
N ot
ĠM ag
Ġconcer ns
Ġtrad itional
Ġwa it
ing er
Ġpl ant
Ġabs olute
Ġac qu
Ġh ospital
Ġfund ing
r am
ĠB ay
Ġpr int
Ġsl ight
Ġcom mer
ro l
Ġpat ients
Ġauthor ities
Ġmin ister
S c
Ġcreat ing
Ġf reedom
ĠA P
Ġme chan
Ġsc en
ĠM o
Ġst yle
Ġsee ing
Ġgr and
. âĢĻ
Ġbe at
Ġl ik
on a
ri an
Ġst ation
ĠSc ott
se e
Ġp ush
ij uana
Ġbehav ior
Ġbe g
Ġle aving
Ġc ry
Ġim pl
Ġb irth
Ġ ir
Ġact ual
E L
Ġens ure
Ġoff ered
p en
Ġagree ment
ĠFlor ida
Ġe th
so ft
ĠHill ary
Ġpost ed
Ġgo ld
ĠS un
Ġweek end
Ġg reen
ĠM ost
ĠB er
ĠRe g
Ġad ult
al se
Ġwe ight
O U
. '
ac ing
Ġdeter min
Ġv ac
H ere
Ġreveal ed
ĠWe ll
Ġapplic ation
Ġmost ly
Ġval ues
Ġprop os
it ude
ĠA lex
ab y
Ġwill ing
ear ch
Ġr ank
Ġad op
ĠA ccording
Ġestab l
Ġey e
Ġrecord s
ect ion
âĢ ¢
5 00
Ġen force
h ttp
Ġpict ure
Ġbelie ved
p ri
Ġm er
u ild
Ġb rief
ĠL et
Ġlear ned
ĠL aw
Ġinst all
Ġstr ategy
Ġapp l
S A
ign ed
Ġcho ose
ist ry
Ġd ire
Ġwond er
Ġqu al
Ġmass ive
Ġdev ices
Ġbenef it
Ġw ild
Ġpart ies
ĠCh icago
Ġlaw y
ĠPe ople
Ġun s
c her
Ġc ars
ĠTr ans
ĠP ort
c ont
ĠPh il
Ġarrest ed
Ġm ount
Ġwh atever
Ġw at
ĠO h
ĠFr ance
Ġstre et
Ġ ;
Ġprov ides
Ġwh om
Ġass ault
9 0
li ament
Ġask ing
Ġinflu ence
t ies
Ġjud ge
Ġl ose
Ġf at
Ġfeel ing
Ġoper ations
Ġprodu ced
Ġtem per
st e
Ġcrit ical
ĠSec ret
ĠL ou
Ġneg oti
p oint
Ġm ission
Ġent er
ĠB ush
E x
Ġim ages
Ð ¾
ĠSt ud
Ġconfir med
Ġshow ing
I L
Ġdist rict
ri ption
Ġrun s
Ġpat tern
g en
Ġt end
ĠM at
Ġb order
Ġres idents
or ial
ra v
Ġdeb t
How ever
Ġ Ã
ak ed
n o
Ġc ru
Ġte ac
m ine
ĠCom mittee
ud d
Ġopp osition
C l
Ġcele br
ĠW all
ĠHe alth
Ġse ction
Ġdef end
Ġet c
est ic
Ġprodu ce
ic ial
ĠComm ission
Ġdr ink
Ġindepend ent
ĠM od
r ont
ce ll
ĠWh y
Ġbr and
ent ed
ag s
u gg
Ġc ore
ĠP ress
Ġt ick
Ġdig ital
ĠB it
Ġhe ro
Ġadv oc
a e
Ġdoll ars
oc r
ri al
Ġeffect ive
Ġsol ution
ĠM al
Ġv ill
Ġinterest ed
ĠS am
ĠKore a
B A
Ġhig hest
ord s
Ġmem ory
Ġopen ing
Ġwor se
Ġlear ning
Ġrespons ible
Ġtri al
Ġd aily
Ġk ick
Ġthe ory
ĠO ther
Ġoff ers
ĠPal est
Ġrepl ace
Ġrest rict
ĠG et
Ġm ur
ĠOff ice
Ġag reed
Ġte levision
ĠFranc is
ci ence
ĠM icro
ĠB ecause
Ġocc as
S T
ill ing
C C
Ġtr ain
Ġinvest ment
Ġv s
Ġtyp es
i ation
ĠW estern
ak s
ic ians
Ġch air
Ġmil es
Ġmill ions
ur ies
Ġche m
ĠJust ice
ĠD el
Ġgener ally
Ġbas is
Ġprop osed
Ġ8 0
ĠM ike
ĠM il
ĠC up
The se
i pe
Ġhe avy
Ġexpl ained
Ġm ap
ĠO ur
A A
r ad
Ġd er
Ġb ur
o ly
Ġpart ners
and er
ĠAd d
Ġopin ion
w in
Ġdef e
Ġon to
Ġprot est
C on
____ ____
G et
Ġassoci ated
Ġl oad
r ig
az ing
ĠN FL
r ate
o om
4 4
ĠF ound
Ġm ale
Ġbecom es
Ġre ject
out hern
== ==
ĠSec urity
v est
Ġco al
Ġob tain
Ġdest roy
Ġadvant age
Ġass um
ĠL iber
Ġcond ition
Ġannoun ce
Ġhundred s
Ġachie ve
Ġopen ed
el ine
Ġunderstand ing
od es
ĠJohn son
com ing
ic ip
Ġsur round
ad ing
ort hern
ber t
we ll
l a
u pp
Ġinit ial
ĠA tt
ĠB ig
Ġsle ep
3 6
Ġsh ip
Ġmar riage
Ġman agement
ĠWind ows
Ġth us
Ġlim it
Ġb orn
3 2
Ġbecom ing
k nown
Ġph oto
Ġeas ier
F C
ĠG reat
Ġr at
Ġlegisl ation
Ġcontro vers
Ġun like
Ġelect ric
ĠM any
Ġcamer a
wit ch
Ġacc used
Ġs pl
Ġneigh bor
Ġdou ble
Ġ ice
Ġspec ies
l ant
Ġsh ared
Ġjo in
Ġilleg al
Ġ3 1
ĠL ab
Ġ200 6
M r
Ġh arm
Ġmach ine
Ġserv ed
ĠJ er
G B
Ġextreme ly
ol f
Ġact ive
Ġ3 5
Ġser ve
Ġdoc uments
ĠIslam ic
Ġfr ame
z a
Ġstri k
le vel
ĠD ist
Ġaud ience
B S
Ġloc ation
ĠA M
Ġscient ists
Ġbott om
Ġvictim s
ĠAr t
or row
Ġwe alth
Ġprofess ional
Ġres ist
i h
Ġredu ce
Ġbelie f
Ġn ine
Ġsol id
Ġwin ning
Ġmar ijuana
ear s
ĠU k
Ġneg ative
7 5
if ul
Ġcommun ities
Ġreturn ed
ortun ately
Ġb ed
Ġinc red
ĠP M
ĠInst itute
m et
te red
Ġch urch
P S
Ġdep artment
ir gin
ĠSand ers
Ġr an
Ġvict ory
re y
Ġpurp ose
Ġ9 0
ĠComm un
Ġam b
land s
Ġveh icle
Ġintern et
Ġleaders hip
i os
ĠH all
ist ics
Ġb omb
Ġmob ile
gh an
Ġinst ance
i pped
3 8
Ġsepar ate
Ġexist ing
Ġnot ice
Ġhe aring
Ġd ie
Ġexpl ain
Ġdoub t
Ġf aith
Ġte ach
h ouse
ĠY our
at ically
Ġepis ode
Ġwatch ing
Ġcom fort
ĠCanad ian
ĠB ank
Ġnot es
Ġrad io
ĠE v
Ġf resh
ĠF in
Ġun c
Ġview s
ĠIn c
Ġput ting
as y
Ġsupp orters
Ġconserv ative
Ġp urs
Ġarg ument
om as
Ġm icro
ar io
ac ity
Ġlaun ched
sc rib
w orks
O L
Ġapp eal
ili ar
Ġitem s
Ġcommit tee
res p
ĠM ad
wh ich
Ġdefin itely
Ġdanger ous
ill er
P A
z en
Ġco verage
Ġdire ction
ĠO ver
Ġcharg ed
Ġfl oor
Ġs un
Ġm ax
ograph y
3 4
E M
ĠCar ol
ĠCh urch
ĠF ox
Ġiss ued
Ġdrug s
Im age
i pp
Ġt ask
Ġback ground
Ġcompet ition
Ġtre nd
Ġst ated
v ention
and om
ad a
Ġtraff ic
ĠF BI
Ġcommer cial
ĠD irect
ur b
it t
N A
Ġsp oke
Ġset t
in ct
Ġtrans fer
Ġsuggest ed
Ġst ructure
Ġsit es
Ġh us
Ġn orth
ĠS ince
ĠL ike
Ġrest aur
ampions hip
Ġlab or
Ġdec ade
Ġrepe ated
ĠG ame
Ġre act
om an
Ġc ards
Ġanim als
go ing
Ġno vel
ct ors
b ut
rib ute
Ġd aughter
ant ed
ĠS l
Ġdri ving
Ġcl osed
Ġwor st
Ġcont ain
Ġentire ly
Ġd ed
ĠBrit ain
ad y
g ency
Ġdri ver
ĠW il
Ġdise ase
Ġtell ing
il ing
Ġsmall er
Ġdisc overed
Ġn or
B l
ak istan
Ġref ere
ĠP ri
A meric
ĠL os
i us
Ġh ack
he m
e qu
! âĢĿ
f erence
ĠQ ue
s pe
Ġf alse
Ġc ash
Ġconcer ned
ul f
Ġpl ays
Ġsur face
se mb
Ġsupport ed
ann el
ul ated
Ġtool s
oy al
Ġcomp ar
Ġtrans port
ĠCh ris
Ġexper iment
Ġfind ing
n ight
Ġc ateg
ã Ĥ
Ġas pect
# #
Ġbusiness es
Ġ7 0
ĠU N
a it
Ġfar m
Ġple ase
Ġold er
az on
h ow
Ġactiv ities
Ġrequ ires
ph one
C H
Ġg ay
ĠJ ones
d o
ibr ary
Ġstreng th
4 8
Ġwe l
and on
Ġins urance
Ġcon sequ
3 7
Ġlarge ly
Ġmur der
N N
ic i
5 5
Ġex erc
Ġc aught
Ġcandid ates
k ins
ĠIsrael i
Ġallow ing
ic y
Ġbl ue
ĠA re
Ġann ual
ĠK en
ĠT re
Ġtest ing
oss ible
Ġstr ateg
ĠS up
Ġra ise
Ġst ock
ar ant
o very
ĠRober t
iz es
Ġdec isions
Ġacc ur
r ick
Ġcont ext
Ġf uel
ĠA c
S P
l or
os ure
ĠUk rain
Ġconcer n
Ġaff ord
Ġbelie ves
Ġconst ruction
Ġtr uly
** **
ĠT y
ĠM iss
Ġg e
Ġjust ice
igr ants
Ġgener ation
Ġhigh light
Ġun it
r im
Ġpres ence
ĠJew ish
ang ing
! !
ĠS il
Ð °
ter y
Ð µ
cept ion
ĠAfric a
Ġgu ess
an cy
Ġw itness
it able
Ġhold ing
ĠG ree
Ġestab lish
Ġl ength
Ġplan ning
b re
av a
ĠAfric an
Ġse qu
ck now
Ġref uge
Ġpl aced
Ġc atch
ĠAf ghan
Ġs an
in ter
ĠAssoci ation
Ġtell s
âĢ ĺ
Ġsc ale
e y
Ġspokes man
Ġt im
n el
Ġr ough
Ġatt end
oll y
ĠV er
Ġcell s
Ġjo ined
ĠP re
Ġmention ed
Ġinterest s
Ġab use
pect ive
ĠJ im
M ore
Ġhas n
ĠP C
L e
Ġinit i
Ġenforce ment
Ġk id
ĠG OP
Ġintrodu ced
Ġdeli ver
Ġconflic t
ĠM er
ĠMicro soft
Ġph il
âĢĶ âĢĶ
Ġupd ate
Ġmiss ing
ro s
Ġprov iding
Ġwa iting
Ġcan cer
3 9
Ġrecomm end
ocr acy
Ġestabl ished
is ation
Ġe at
b our
ĠY es
Ġocc up
ĠFr ank
ĠJ eff
ĠAngel es
Ġrem oved
Ġ200 5
ul a
Ġoff ensive
ĠF ore
ĠInst ead
ic on
Ġinj ury
Ġsp orts
4 7
Ġf ant
Ġdiscuss ion
v ant
Ġoper ation
Ġdown load
Ġuse ful
Ġnews p
Ġconvers ation
Ġhom es
ron ic
Ġs outh
Ġc ook
ĠC EO
Ġass ess
ĠG roup
it z
form ation
l ig
Ġban ks
ont o
Ġsto pped
ĠSt ep
ĠCon st
Ġobv ious
ic ations
Ġmeas ures
Ġmod els
ĠK h
Ġfour th
ĠM P
O ur
se ason
D A
wh at
Ġb ul
and a
Ġ201 8
Ġfil es
Ġgirl s
ĠLou is
Ġst ick
c ks
az ine
m ail
um n
Ġman aged
it er
app ed
ĠPalest in
ot ed
Ġfig ures
om s
ĠT im
ĠLe g
Ġident ified
Ġgr aph
ĠJ ud
ĠS al
Ġfin ished
Ġfund s
P l
ĠP akistan
re al
Ġset ting
Ġconc lud
Ġpre fer
Ġha ir
Ġcommit ted
ĠMex ico
4 9
Ġsk ills
k in
Ġappro pri
Ġspir it
ĠR ock
Ġve ter
Ġfoc used
Ġarri ved
ĠTH E
Ġhous ing
ĠV irgin
Ġkeep ing
Ġthere fore
Ġa cknow
Ġdet ect
ul ate
D es
Ġpart ner
Ġex clus
ig an
ĠAnd roid
ens es
up s
Ġear th
Ġtrans l
out s
pl ace
Ġt ough
ĠJapan ese
Ġ200 0
Ġrelative ly
Ã ¡
ĠSup reme
ow l
w ing
Ġident ity
Ġfeel s
r d
ĠM et
Ġother wise
Ġsurve y
R A
ĠR yan
oc al
ic ation
itution al
Ġprotect ion
ag n
Ġex change
Ġown er
is f
Tr ump
Ġstep s
ĠIn ter
Ġtri p
im b
Ġhus band
ĠM ont
Ġtwe et
Ġconnect ion
ĠAr my
Ġslight ly
ĠPro f
e ah
k a
Ġwe ak
ĠGovern ment
ver se
" :
Ġcirc um
Ġele ments
Ġcl ick
ĠRich ard
Ġstri ke
Ġphot os
g a
Ġme re
Ġdef ensive
dd en
g ar
Ġg ain
Ġf le
Ġdep end
uck y
Ġcol lection
ony m
hen s
Ġkill ing
Ġro ll
igh ter
G o
Ġcor ner
ĠMart in
anc ing
od ies
Ġsuggest s
u ct
Ġag gress
w ith
pro f
Ġgu ard
Ph oto
Ġg ender
m akers
ĠCol lege
Ġcomm ission
ĠAl though
r ange
Ġd at
ĠS ur
4 6
ĠI r
ĠD ec
Ġment al
ic ide
Ġam azing
re es
ĠS ub
h i
Ġplan et
ĠTe am
ren cy
ĠO ut
Ġbig ger
Ġfail ure
y m
ĠJ ose
Ġsupp ly
Wh y
an ia
ĠN or
Ġstart s
g ers
Ġs ides
hed ul
is er
Ġfam iliar
Ġrem ind
Ġsu st
Ġspe ct
il s
u ate
Ġspe aking
an o
Ġtal ks
Ġhappen ing
m as
gy pt
Ġorganiz ations
Ġh ate
Ġwind ow
Ġar my
ĠG ood
ĠJ oe
Ġn one
u ke
Ġtax es
Ġplan ned
ĠP et
Ġthan ks
ĠM ary
Ġst ruct
Ġp it
Ġdec ide
Ġsu dden
Ġw ish
l o
Ġcre w
Ġcar ried
Ġapp oint
ost on
Ġp et
a wn
el ess
ag ues
yn am
Ġreg ist
T C
Ġmult i
id ering
Ġhelp ing
L ast
Ġa ward
Ġstand ards
Ġ3 2
ĠF ire
Ġrev olution
Ġenvironment al
] .
ĠWe b
ars h
ĠTh omas
ol it
Ġsc ript
p m
ol a
Ġsecond s
g n
r un
ĠRes earch
Ġscient ific
ĠB ern
Ġimm igration
Ġstand ing
ĠThe ir
Ġ4 5
st ream
oc ol
Ġqu e
Ġbe er
Ġdom estic
im al
ad ium
Ġp air
ut ers
ĠAl so
ĠSecret ary
ĠU s
Ġac adem
Ġco ld
Ġvar iety
Ġmark ets
Ġs ch
f e
H L
Ġter rit
Ġdro pped
Ġaccount s
! "
ĠAt lant
Ġfil ed
er ous
ack s
ill a
Ġbal ance
Ġimp ossible
ĠT er
a ven
Ġinter act
Ġneighbor hood
Ġdeg ree
R ead
Ġturn s
ore s
it ect
Ġposs ibly
Ġapp re
Ġoper ating
Ġpr inc
Ġaltern ative
Ġun ion
Ġvot es
Ġv ul
ad er
Ġprofess or
Ġt ack
ĠServ ice
Ġincreasing ly
ay er
ru it
Ġapp ly
Ġfell ow
Ġcut s
ste in
Ġhon est
ĠPr ime
Ġun ivers
Ġser ver
v is
Ġdevelop ers
ar ks
ĠSyri an
Ġapparent ly
ab b
are n
Ġl ived
Ġchang ing
Ġwor ry
rast ructure
ĠCarol ina
Ġtest s
Ġun its
Ġr ich
ĠT wo
c ious
ict ed
F rom
ad ed
Ġhum ans
I M
ĠFound ation
ĠM os
Ġag encies
Ġsound s
as hed
Ġtw ice
Ġult imately
ob by
Ġl osing
Ġphil os
Ġauthor ity
Ġsold iers
ã ĥ
Ġanim al
g u
ĠIm ages
Ġset tle
Ġat h
Ġsc hedul
Ġm ut
Ġcol le
Ġcorpor ate
Ġabsolute ly
Ġhealth y
Ġpay ing
o ch
Ġequ ip
i ams
Ġdevelop ing
Ġse a
ĠT ime
Ġclos er
ĠD en
Ġinn ov
rel ated
Ġseek ing
Ġregard ing
c oh
rou d
Ġsk in
Ġexp ensive
ans ion
Ġposs ibility
Ġbeaut iful
Ġrelig ion
Ġap art
ĠCent ral
Ġfund ament
Ġexper ts
Ġsol ar
6 5
Ġy ards
Ġv ast
Ġwrit er
Ġfl ight
ĠDist rict
ĠL ast
Ġde ploy
Ġad just
O f
Ġintern al
Ġt ast
ĠU nder
ĠL at
3 1
ĠP eter
ap ers
Ġimag ine
ĠJ on
I V
Ġapplic ations
i ot
olog ies
Ġv ision
l ook
st ate
os en
ĠFrancis co
ĠTor onto
d en
Ġsit ting
ĠPl an
Ġtr ail
Ġun less
ĠUS A
ĠJ es
ist ed
Ġhe at
Ġ200 4
E ven
Ġrespons ibility
Ġcap acity
I P
at ures
ĠM iddle
Ġer ror
ain e
i as
Ġsy mb
Ġf ol
Ġar ms
Ġp il
Ġg ar
p ire
Ġc overed
idd en
ĠB ur
Ġfam ous
ĠC amp
Ġfor ms
u zz
N D
Ġun iversity
Ġgu arant
Ġt ight
Ġpresent ed
ort ion
ov ing
en ced
ĠS T
ĠE gypt
Ġear n
ĠP ut
Ġconv ention
u nder
J ust
ĠP ublic
Ġsurpr ise
Ġatt orney
Ġelect ions
Ġestim ated
Ġf if
ĠA ri
Ġte en
Ġinst it
Ġveh icles
rib le
ĠAm azon
ro ad
Ġint ended
Ġr id
Ġo dd
Ġhelp s
Ġoccur red
p erson
Ġstre ets
ust er
h and
in i
ĠB oston
ĠS ol
Ġ= >
= "
ĠM ur
Ġsp ort
s en
Ġdeter mine
ress ive
ĠBit coin
Ġexper t
all s
Ġcons ult
ur ation
Ġbro ken
L et
le ts
Ġf ired
Ġt on
Ġfl ow
Ġdom in
ĠG al
por ary
ed er
L E
Ġsh all
Ġres erv
U p
Ġtro ops
I ON
ĠTh ose
Ġhy p
Ġn ar
ter day
Ġpie ces
ĠCh ief
Ġprep ared
ĠM ass
ĠC ath
Ġrap id
g l
or age
ĠJ o
Ġloc ated
ĠSoc ial
Ġb aby
-------- --------
Ġcon clus
Ġbring ing
anc he
ĠPro t
Ġpro ve
Ġspecific ally
ĠAn y
Ġpot entially
Ġse ctor
Ġr andom
Ġj ail
O W
Ġse lling
Ġgovern ments
ĠO nce
Ġsc r
A b
Ġequ al
cl ass
w ar
Ġf aster
Ġhe av
ĠS pr
Ġbo ost
use um
ve y
Ġcl in
Ġpropos al
ot y
Ġfact ors
Ġpl enty
T H
Ġequip ment
Ġcoun cil
Ġer a
Ġinf rastructure
D o
Ġst ress
ph as
Ġst ars
ĠJ ournal
ĠR ub
end ment
ĠVirgin ia
Ġb reat
Ġpro secut
Ġvot ed
Ġoff ering
Ġcar bon
in ent
Ġexpress ed
Ġvul ner
Ġcomb at
ĠPar is
Ġbro ke
( )
ure au
Ġcl ot
our s
Ġrul ing
ĠF ederal
Ġret ail
ĠGu ard
Ġref used
Ġdr am
ĠD an
Ġelect ed
ĠO pen
ĠR iver
E very
Ġsec ure
ce an
Ġse asons
Ġconduct ed
, '
h t
Ġchalleng es
Ġrem ove
is her
ĠS ant
Ġmethod s
Ġweap on
n oon
Ġpoint ed
ĠIs land
Ġm aster
Ġrem ained
ĠAustral ian
Ġpr ime
EN T
Ġtr ig
Ġpos itions
ĠC ru
Ġd in
ĠM el
Ġcritic ism
i pping
F irst
ock ing
ĠMed ic
ĠP lease
ro g
on om
I G
Ġs ale
ol ved
ĠF e
Ġcult ural
th at
Ġwere n
Ġsignificant ly
Ġb row
et ic
Ġorig inally
ri e
ĠD uring
Ġaffect ed
Ġappear ance
Ġc as
Ġt ourn
Ġfac ing
Ġgreat est
Ġfin ish
ĠLe e
Ġst ret
y r
Ġyou th
Ġte le
ĠWh o
ĠC ur
Ġpercent age
ĠPh oto
c ol
Ġdetermin ed
Ġsign s
Ġinvol ve
9 5
ce l
Ð ¸
6 4
Ġthan k
Ġb ought
Ġ5 00
ly n
ĠS ing
stand ing
Ġchem ical
ash ion
Ġsh ape
Ġv ir
Ġreg ime
Ġg rew
p ired
Ġrem aining
ĠSte ve
ly mp
Ġmin imum
ĠS aud
re ens
Ġind eed
Ġd ream
ri er
S ince
Ġm arg
S p
ĠB oth
> >
Ġmod e
Ġher self
Ġvot ing
ĠCol or
Ġobv iously
ĠFor ce
Ġredu ced
ord in
ĠN ov
Ġw ood
ĠR em
Ġrecord ed
Ġarg ued
Ġ199 0
Ġre venue
Ġt act
ĠR o
Ġwe aring
al ing
igh ters
Ġlead s
ed ia
Ġh un
Ġpolit icians
Ġpl us
Ġcont rast
Ġs witch
Ġhand le
Ġpurch ase
Ġth r
Ġsub s
Ġcon cent
Ġpro ced
Ñ Ĥ
Ġag ent
ar p
ĠWill iams
Ġappre ci
Ġexperien ced
Ġh urt
t op
Ġexc ited
Ġvide os
Ġhttp s
coh ol
Ġsupport ing
D P
ĠH aw
m m
ow nt
ĠF ree
Ġsurpr ising
Ġmin ute
od d
Ġexpl os
Ġbel ong
Ġconsum ers
Ġident ify
Ġcons idering
ĠP ac
ĠCons erv
ll er
ap ter
Ġair craft
Ġre nt
Ġa id
C L
Ġpull ed
g ment
Ġbas ically
Ġdiffere nces
og ue
ĠB ook
Ġgl ass
Ġafter noon
Ġsh ift
Ġdis s
ĠR ad
Ġdep art
Ġend s
ess ions
Ġt urning
Ġb ound
Ġfil ms
Ġsp ring
Ġpros pect
ru ption
k et
ĠChar l
h ab
Ġm ort
0 5
l ife
Ġtre ated
Ġacc ident
, [
0 1
Ġmot iv
Ġlist en
Ġse at
ĠP ower
ut s
Ġcomb ined
Ġconst ruct
I nd
Ġser iously
Ġpriv acy
app ing
Ġeven ing
he red
h y
Ġopportun ities
as p
Ġstrugg le
Ġ19 5
Ġpan el
Ġenem y
Ġlot s
Ġcomple ted
ĠD aily
Ġvis ual
H is
Ph one
p et
Ġtalk ed
Ġc art
Ġhop es
or al
Ġpass ing
Ġ id
Ġapp s
os ite
P D
Ġcal cul
An other
Ġwide ly
ens ions
Ġemer gency
ĠH ol
ĠSh ow
Ġsu it
Ġe lement
am m
Ġa st
ang ed
S S
al ed
uc ks
Ġp owers
at o
ĠR el
ĠB BC
ĠO lymp
Ġb urn
T V
Ġdisc l
P e
Ġpl ants
Ġfl at
ĠSp ace
Ġliber al
ra ud
ob e
Ġopp osed
W ell
Ġpro ceed
om pl
Ġcopy right
ok ing
ĠPro ject
Ġadv ance
Ġfact or
Ġdist ance
Ġ200 3
ive red
Ġdis miss
pl om
Ġattempt s
Ġt un
ĠM att
ĠR oad
ab ilities
A m
ribut ed
ĠI N
Ġtrou ble
un ction
Ġh ol
Ġcoll abor
Ġdef ault
st s
id el
ĠB et
Ġz one
ĠJack son
Ġup gr
ra wn
it a
C ont
Ġre action
Ġst orm
Ġrep orters
ĠM em
Ġfr ust
P R
ne ll
m osp
ad ow
Ġwrit es
m ond
ain ts
Ġtyp ically
ĠT oday
l ines
resp ond
U T
Ġp ages
Ġinst ruct
tern al
ed s
Ġref erence
Ġpack age
Ġb odies
z er
Ġmat ters
f ree
4 2
Ġden ied
c are
ed d
A pp
Ġqu ant
Ġdisapp oint
Ġse m
Ġexpl o
ĠN AS
Ġopt im
ac he
Ġqu iet
Ġent ertain
Ġm al
Ġrespond ed
Ġappro ved
ĠTur key
Ġsat isf
ap ed
Ġbroad cast
es ters
Ġinstit utions
Ġad vert
Ġstand s
ĠDirect or
Ġset s
est ival
Ġel imin
is ters
raz y
Ã ¤
R ep
ĠP enn
Ġval id
h ost
Ġre new
ĠOh io
ell y
00 00
Ġspl it
Ġse vere
ĠWill iam
Ġs ac
Ġcap able
Ġ200 1
Ġ //
Ġp itch
ab in
ani el
Ġcapt ion
Ġcl oud
Ġl oved
Ġtechn ical
Ġg iant
p ass
Ġcan n
Ġtrad ition
r ant
Ġprom pt
Ġb ull
Ġconf ident
u ous
Ġconf idence
Ġnum erous
Ġreported ly
ĠM a
Ġfac es
] ,
w rit
Ġwe ather
Ġf ly
Ġtrans ition
r id
Ġ3 6
ĠSy stem
ĠAfghan istan
Ġg ra
ĠS qu
Ġcre ation
D e
Ġpers pective
Ġun able
Ġfor get
ĠLab our
ĠY et
4 3
as tern
em ploy
ok en
ĠMed ia
ang ers
I I
un te
Ġc raft
Ġsubst ant
Ġco oper
Ġviol ent
Ġsuff ered
il it
Ġco ast
Ġm and
amp ion
Ġpict ures
Ġexperien ces
Ġappro x
ab led
Ġrout e
8 8
se x
Ġfl ag
Ġadv ice
ĠAnd rew
us iness
Ġdecl ared
ĠW al
Ġord ered
ĠH uman
raz il
Ġcr imes
Ġco ff
S e
Ġp roud
is hes
Ġreport ing
Ġmess ages
Ġcircum st
Ġfind ings
ĠL in
R es
Ġev al
ul ations
Ġex cell
O ver
Ġdecl ined
Ġexpl ains
Ġdel ay
Ġ \
ĠF ollow
Ġnewsp aper
ound ed
Ġconnect ed
il ty
Ġshould n
ev in
ov es
Ġon going
c an
Ġv an
du le
Ġmov ies
Ġpick ed
ion ally
res ents
7 7
Ġad mitted
Ġdel ivered
D uring
Ġgun s
ĠM L
ĠSc ot
Ġwalk ing
Ġag ents
c alled
Ġpr in
t ion
Ġedit or
Ġthough ts
Ġmar ried
ĠT ra
Ġa uth
Ġem ails
Ġappropri ate
Ġem phas
u ations
Ġed ge
Ġarch itect
ĠGr and
Ġle aves
Ġupd ates
Ġacc ompl
O D
Ġg ather
ĠMuslim s
Ġfor g
ans as
ĠW ood
Ġquarter back
Ġs ession
o oth
4 1
ĠTe chn
Ġpo ol
ĠS cience
c os
Ġinj ured
ar n
Ġpublic ly
ell ow
ĠS ov
Ġstate ments
Ġper man
Ġleg it
ar l
ner gy
M A
Ġconf irm
ĠL ake
Ġour selves
O ther
Ġreal ize
Ġro t
Ġdri vers
ĠA v
ĠD ou
T A
m ates
, âĢĻ
Ġar med
ess or
Ġd ial
c ons
Ġlawy er
our ney
Ġr ail
Ġread ers
re land
Ġs ad
Ġcont ains
Ġarg ue
ĠRe v
Ġtal ent
Ġf illed
ĠS um
Ġalleg ations
Ġactiv ists
ĠChrist mas
Ġd ynam
Ġ198 0
ĠMich igan
d ate
ĠB ack
ĠR on
Ġcr ack
Ġtrans form
T ube
ĠI ll
Ġbuild ings
ĠRe ad
l ong
Ġwe ar
M any
Ġterror ist
Ġs am
Ġt ree
Ġexerc ise
end a
Ġlab el
Ġeffect ively
O h
Ġpract ices
al a
Ġsub sequ
ĠJ ul
ĠS her
ul s
Ġfl o
T S
Ġf ish
et te
ent ure
Ġsh op
Ġexam ples
ĠH y
Ġpat ient
ĠG en
ĠSe attle
Ġobject s
Ġte ch
ĠSe e
Ġsecret ary
as ure
Ġr ain
Ġmiss ed
Ġca uses
ill y
r um
Ġdeb ut
ĠR od
g ia
Ġess entially
6 6
am in
Ġmor al
ord ers
ad or
w ord
ac ter
ĠW ork
d ef
ar ters
ĠUkrain e
Ġcent re
F ollow
ĠV ict
b ur
ĠSt an
ĠI D
ic ing
Ġinj uries
ĠPh ot
Ġmot or
Ġi Phone
Ġart ist
Ġcl ient
Ġb ond
Ġth inks
i at
or se
ou ston
Ġp ure
Ġhe ll
Al though
ĠSaud i
Ġfact s
Ĥ ¬
Ġdes ire
ag ers
az a
Ġs ke
or ry
Ġlink ed
Ã Ń
Ġgovern or
Ġmaterial s
Ġperform ed
S pe
Ġfr anch
es ome
Ġsu c
Ġphilos oph
Ġinit ially
i est
ĠS ign
Ġnecess arily
ĠB at
ĠF er
Ġexp ansion
Ġschedul ed
w ater
ER S
Ġwar ned
Ġdi plom
Ġadv anced
Ġ ing
Ġexpl an
Ġvar i
Ġevery body
Ġj oint
Ġdec re
Ġres olution
Ġincre ases
en ger
Y es
Ġaccept ed
Ġinc or
Ġmy ster
Ġfac ed
Ġb are
ill ance
ĠM ount
Ġannounce ment
Ġfollow s
Ġn ations
Ġplay off
ĠL ife
Ġab andon
ĠSec ond
Ġrad ical
Ġath let
Ġne ither
Ġyes terday
g ent
Ġdat ab
Ġnear by
Ġdist ribution
ot ic
Ġappl ied
ir ty
Ġmag azine
M ost
ath an
r ich
Ġm ir
Ġconsequ ences
Ġdo ctor
Ġlist ed
Ġfor t
u y
ĠCol umb
Ġat mosp
Americ an
Ġsurpr ised
Ġoff ense
Q u
it ors
ĠC NN
ĠR E
Ġsp ons
Ġbeg ins
ĠWe ek
Ġthreat s
semb ly
Ġrep resents
ĠJew s
ĠG M
ĠA ff
Ġen h
Ġmov es
Ġrem ark
ĠT O
Ġp ra
Ġsong s
k ay
Ġch art
Ġbehav i
om in
Ġr ide
Ġadd s
Ġwith d
C an
Ã Ĥ
Ġimpro ved
Ġp hen
ĠBl ue
Ġb ot
Ġwar m
Ġa f
Ġal cohol
ri p
ĠA T
Ġout put
l aw
Ġfl ood
ĠDe velop
ĠH en
w hel
ed y
Ġsh ots
Ġf ill
ĠV ol
Ġal t
Ġst ood
Ġbr ings
Ġpus hed
Ġgu ilty
ĠRom ney
ĠK im
Ġsub scrib
8 5
Ġent ry
ocrat ic
ĠB razil
Ġdem ocracy
Ġboy s
Ġ3 3
Ġro w
ĠSw ed
Ġconf ig
Ġrestaur ant
ĠN BA
Ġlaws uit
ĠDe v
ĠI reland
ac le
Ġmanufact ure
Ġrece iving
Ġre in
ĠBar ack
The n
Ġt rib
Ġtot ally
ĠOn ly
Ġdiscuss ed
Ġs ought
Ġr ising
Ġent ered
ĠIS IS
ĠBo ard
Ġconsist ent
Ġhistor ical
t witter
ide o
Ġst orage
Ġcor respond
Ġplan e
Ġcomb ination
Ġsc ored
Ġin put
Ġ3 00
Ġsymb ol
Ġbr ight
Ġbut ton
ird s
Ġsuc ceed
st ood
Ġcreat ive
Ġinvest ors
Ġsqu are
Ġart icles
Ġ200 2
Ġis land
m es
Ġdeath s
Ġfun ctions
Ġnet works
Ġclass es
Ġunlike ly
al ty
Ġhead s
ic ian
Ġb oss
Ġn ative
ic ious
Ġl ie
Ġsa v
ĠL ib
Ġrough ly
Ġconsum er
ĠSt r
ĠW he
ĠW alk
ĠP rem
f ortunately
ĠM s
Ġstr ing
ĠMay be
Ġheav ily
ĠAn other
Ġfair ly
Ġtemper ature
ard en
Ġk it
Ġexist ence
ĠIt s
ĠAs ia
Ġcont est
A dd
Ġpl ot
iss ions
d is
ĠC ub
Ġres ident
us al
Ġtarg ets
ĠB ob
Ġres c
ĠKore an
ic an
du c
Ġl ock
Ġyoung er
M an
' ,
Ġcolle agues
P U
Ġl ibrary
Ã ¶
Ġr ally
Ġpar liament
Ġprot ests
Ġany where
ok ed
ĠS ports
ĠS ky
Ġb ike
z ona
Ġbre aking
i i
Ġgr ab
Ġsy m
Ġstore s
Ġexpress ion
Ġwas te
Ġch ain
Ġbl ow
Ġwar ning
Ġimport ance
Ġdef ined
Ġbu ying
Ġman age
Ġpro hib
Ġclass ic
Ġc ere
Ġs now
Ġadult s
Ġill ust
ĠE ach
S ee
Ġmarket ing
O b
Ġl inks
Ã ³
iqu es
Ġsh if
b orn
and al
ĠCl ub
Ġto w
ĠH ist
Ġf raud
O C
Ġfac ility
olly wood
ere nces
Ġhard ware
Ġsch ol
Ġalleged ly
Ġ3 7
Ġregul ations
p ret
Ġdo ctors
Ġb on
ĠColor ado
Ġcur rency
Ġhouse hold
Ġrepl aced
ag an
Ġess ential
op y
Ġem pt
on na
ĠR am
Ġsome what
ĠD iv
p ress
8 6
Ġn av
Ġfav our
p ower
Ġprom ise
ĠD C
ĠB oy
Ġl augh
en a
P ol
ĠR ights
Ġhold s
Ġopp osite
ock et
Ñ ģ
Ġmom ents
w est
Ġh at
ter ing
Ġopp onent
Ġbu g
ĠF ar
ch o
Ġcamp us
Ġact s
Ġr um
etro it
Ġvers ions
Ġmot ion
Ġmet al
hip s
Ġev olution
omet imes
Ġv ice
an ish
Ġrele vant
Ġse es
ĠIm age
Ġb ag
Ġindust rial
Ġz ero
I R
Ġs ick
Ġd ownt
om a
Ġclose ly
ĠAn n
het ic
Ġemot ional
c hen
g ame
I F
ĠYou Tube
ĠY ear
v a
Ġfew er
Ġdiv ision
ol ve
Ġad m
Ġhard er
Ġcustom er
Ġhop ing
olog ist
Ġto m
ĠBro ok
Don ald
E n
ĠVal ley
Ġh ur
ĠG ra
Ġmechan ism
it tle
m l
ĠH ouston
ĠE lect
in em
Ġreturn s
N C
ate ll
Ġvol unte
Ġparticip ants
Ġext ent
Ġint ention
p o
al ian
es c
el lect
Ġexcell ent
ĠSov iet
Ġacknow led
Ġsy n
ul ous
om ing
ĠM ot
Ġbat t
ĠG ames
Ġsqu ad
g reg
Ġcircumst ances
p an
Ġf ashion
Ġis ol
Ã ¼
ot al
Ġimmedi ate
ĠE ric
Ġsuff ering
ĠW atch
st r
Ġl ies
Ġt iny
Ġauth ors
Ġ3 8
Ġg rown
ĠG ar
ig er
ef ully
Ġimm igrants
Ã ĥ
pr int
or a
Ġkind s
ut ch
Ġ4 9
ĠD ie
Ġche ap
Ġm ine
Ġdetail ed
ord an
ĠH el
n ame
Ġfeat ured
ĠW ik
ĠE r
ĠS ar
ay ers
Ġme at
Ġun us
ĠA ut
Ġcompet itive
Ġdescrib e
Ġfor med
ĠH ome
ĠI P
f riend
n ic
cer tain
Ġcarry ing
Ġtourn ament
Ġter min
Ġtr ick
Ġrelationship s
Ġfundament al
ke l
Ġw ave
Ġcy cle
ob b
Ġc razy
ĠC y
Ġsign ing
ĠW ay
Ġgu ide
Ġw ins
ĠCath olic
Ġear ned
0 8
Ġdec line
Ġreg ional
n am
ens us
st yle
Ġem br
Ġstr ange
ĠPalestin ian
ĠJes us
ĠL ong
Ġan cient
Ġfrequ ently
0 6
Ġact ing
ĠPut in
Ġman ner
Ġeff icient
rom e
Ġpus hing
ĠC IA
Ġcomfort able
ĠC ard
Ġp ip
O RE
P er
Ġsh aring
Ġw ire
Ġsk ill
ĠE conom
oc key
c hers
Ġinst ru
ĠE ll
Ġown ed
b ar
Ġcommit ment
Ġalong side
ĠO F
u ated
an es
ĠL ord
0 9
ĠDav is
r ison
Ġcontrovers ial
Ġart ists
Ġrefer red
we ight
Ġe gg
Ġm outh
Ġrepeated ly
Ġ4 8
ĠT op
ï ¿
Ġ3 4
F P
aw a
Ġattempt ed
Ġfem in
um ber
Ġupd ated
f oot
Ġc ert
u a
Ġpre gn
ĠO ld
Ġsche dule
v in
x y
ĠP S
am ily
ad el
Ġded icated
Ð ½
ĠA L
Ġsent ence
Ġup coming
ĠR ight
ĠN Y
ĠD own
ĠD i
Ġcol umn
h us
Ġdep th
Ġpl ed
Ġvirt ual
u able
Ġj ourney
Ġstru ck
Ñ Ģ
Ġdes k
Ġstud io
Ġreal ized
ĠE nergy
Des pite
ce ived
% )
ograph ic
k o
u gh
Ġmed ic
D S
Ġserv ing
iam i
Ġwalk ed
ri ve
iven ess
Ġk ing
Ġr ing
Ġrep ut
y ou
Ġur ban
ph y
0 7
ĠC le
ĠChar les
ĠW ild
Ġtarget ed
Ġch annel
Ġass ets
lud ing
Ġt ort
Ġins pired
Ġhot el
ĠAri zona
Ġpost s
Ġnews let
L ike
T wo
ĠSu pp
Ġun iverse
Ġag enda
Ġca using
Ġwat ched
Ġsu icide
Ġstre am
Ġover whel
ĠP y
Ġus ual
Ġsurve illance
ĠM en
Ġint ent
so le
Pe ople
Ġl iqu
Ġs ister
Ġopp onents
Ġchair man
Ġd u
ĠW ars
ĠCru z
Ġmain stream
g or
b el
Ġlat ter
Ġh all
Ġsurround ing
Ġfol ks
Ġknow ing
Ġord ers
ĠIn f
Ġrem ote
Ġ7 5
Ġs and
Ġliter ally
ĠJ ava
Ġobserv ed
ĠAg ain
Ġsubs id
F r
ĠDef ense
Ġinf l
Ġappro val
ac c
ĠV an
im ents
Ġbas ket
ren ce
b urg
Ġteac hers
az i
av or
iz z
Ġwin ter
ici ency
al le
Ġexc iting
az e
i ro
ay lor
ĠT al
Ġform at
b oy
Ġcon gress
Ġprotect ed
at i
Ġnot iced
Ġsim pl
Ġdeal ing
ĠYou ng
r ations
ĠCh ild
Ġprec ise
6 7
x ual
Ġdeep ly
i pl
Ġcommunic ation
Ġg ang
Ġs ending
Ġfor th
ĠJ r
Ġf asc
Ġbat tery
Ġw al
m un
Ġsk y
Ġn arr
Ġfix ed
p ost
ab is
Ġas ide
Ġrequire ments
I nt
Ġproper ties
r ors
Ġal ive
Ġnar row
Ġw ake
all as
Ġpass ion
ĠAr ch
onym ous
Ġe ating
O r
ens ity
Ġmist ake
w oman
Ġexpl ore
Ġcoff ee
ĠP an
Ġ197 0
Ġra pe
Ġvol ume
Ġprom ised
Ġd iet
ack ing
Ġris ks
Ġex hib
ĠPol it
ĠF ort
Ġswe et
M ay
âĢĻ .
ĠEn ter
ĠW at
Ġne ut
Ġinvol ving
Ġw age
Ġse lection
ĠM ax
Ġtest ed
et her
Ġfl u
ult ure
Ġdefe at
Ġn orthern
Ġre ward
Ġwel come
ĠC ast
Ġext ended
Ġput s
Ġterrit ory
Ġphen omen
Ġun employ
Ġrefuge es
Ġs ample
Ġhe ight
Ġapprox imately
ĠK evin
5 9
Ġbl ame
ĠBr ad
Ġany way
um s
ĠD etroit
Ġdestroy ed
ob ile
t a
Ġimp ressive
ĠStep hen
as ks
Ġg od
Ġpro of
Ġg ap
Ġd ry
ï¿ ½
Ġcr ash
Ġun known
Ġloc ations
0 4
ig g
Ġselect ed
ap se
Ġw est
ang es
ger y
st one
ĠF il
Ġattack ed
Ġmax imum
ĠM iller
ĠWil son
ĠT it
Ġprom ote
Ġshe l
as er
Ġmere ly
Ġfranch ise
ar ry
l v
Ġrequ ests
Ġsh o
Ġret ire
Ġsudden ly
Ġslow ly
Ġprot esters
Ġdis ag
d ro
Ġteac her
i xt
Ġtyp ical
og an
ĠW omen
ĠIn s
ing u
Ġcon ver
l ist
Ġch ose
ĠC amer
ĠCl ass
ĠL u
Ġmat ches
Ġpro te
Ġlic ense
Ġproper ly
Ġass ume
or ation
Ġdisc over
0 3
Ġw id
ĠP R
ĠM ic
R el
Ġwor ried
Ġmod er
f ire
Ġab ortion
ow ered
Ġall ies
a o
Ġob lig
Ġterror ism
0 2
Ġsupport s
Ġ Î
uild ing
Ãĥ ÃĤ
ins on
ver ty
Ġarg uments
Ġad apt
Ġthem e
Ġconf ront
Ġfac ilities
Ġsust ain
g ender
Ġe ast
Ġp al
Ġrecogn ize
ig ure
Ġf uck
ÃĥÃĤ ÃĥÃĤ
l ies
Ġequ ival
m o
Ġobtain ed
Ġpo verty
Ġr ub
ĠIt aly
Ġnom ine
Ġde als
Ġfe es
al o
it arian
os is
ĠH ollywood
Ġunder stood
Ġcontro lled
V ER
ĠB est
ĠD am
Ġtop ic
Ġcrit ics
ĠSoc iety
ĠAg ency
ax y
ĠF ord
Ġso le
ĠJer sey
ar ity
Ġvill age
Ġdi agn
ĠAd minist
ra id
6 8
Ġlik es
ce ler
h an
st ers
ĠF our
Ġev il
T e
Ġpun ish
Ġd ress
c ript
Ġp ed
ĠGeor gia
Ġb unch
ĠComp any
Ġjournal ists
J ohn
Ġexp osed
Ġreg ions
red it
oc ation
Ġsche me
Ġcommunic ations
Ġtrans p
Ġst im
Ġlim its
Ġsome how
Ġstrong ly
Ġhon or
Ġdr ag
Ġresist ance
ll s
a ire
au g
Ġch ampion
ĠL abor
Ġconst ant
Ġph ase
ĠNAS A
ast s
ĠCar l
p ool
Ġprof it
Ġtr uck
Ġcond em
Ġesc ape
Ġperson ally
ĠN ight
ĠD un
rim ination
ĠL and
Ġb id
ĠN HL
ĠSt and
Ġvac c
Ġdec k
C A
nes ota
if orm
Ġfall ing
GB T
ĠNet work
Ġsome where
em s
c ers
Ġemploy ee
Ġhar ass
ad s
Ġbe ar
ĠC D
in er
Ġcompar ison
ort ed
ci ples
Ġpoll s
ow a
Ġin qu
ĠL ove
pect ed
Ġs outhern
or ic
Ġdec ent
c ow
ĠSp anish
Ġencour age
Ġem issions
Ġ3 9
ĠK n
ĠV iew
end ers
Ġempt y
ĠM iami
Ġh its
ost er
ĠC am
Ġdefin ition
5 7
Ġp ic
w an
Ġdirect ed
p es
Ġf lex
z ens
ĠO k
Ġmeet ings
ĠE nd
ĠB ell
Ð¾ Ð
Ġcomp rom
Ġwin ner
int end
ick en
Ġgot ten
ĠD aniel
ĠTur k
Ġelectric ity
a un
Ġch osen
Ġoffic ially
Ġben ch
Ġstret ch
Ġdatab ase
C om
ĠDes pite
Ġint ellect
Ġsp in
ig ation
Ġstrong er
Ġde leg
Ġpurp oses
ĠD NA
Ġcut ting
ĠT urn
Ġf old
r ary
Ġext ensive
Ġamount s
Ġdes per
Ġtre es
Ġan x
Ġide al
ĠAs ian
Ġth read
Ġfif th
Ī Ĵ
U R
Ġgood s
Ġcol on
Ġdevelop er
Ġclaim ing
un ning
An y
Ġre tain
Ġs oul
Ġcapt ured
ĠTh ough
Ġfind s
Ġdri ven
Ġpay ments
as ters
ĠJ ordan
r as
C S
Ġt ies
Ġreason able
Ġdog s
â ĸ
Ġsome body
Ġend ing
ĠN ations
Ġcho ices
Ġb le
Ġse ats
ĠServ ices
ĠTh ank
Ġp od
Ġeng age
Ġd rawn
Ġs ight
C E
Ġpar am
ĠD ar
Ġthreat ened
Ġrul ed
ep ing
ĠAtt orney
ĠIr ish
ur a
ĠSe a
Ġtrad ing
ow ed
Ġprim arily
Ġaspect s
Ġf ighters
M L
Ġansw ers
Ġperfect ly
ir ms
ĠAc adem
Ġinc l
Ġr ival
Ġpark ing
Ġreject ed
ĠG all
Ġconst antly
ĠH un
f ast
Ġpay ment
ĠC at
Ġdist inct
Ġf lying
Ġr ig
Ġtechn ologies
ĠRe al
< /
Ġcomp onents
Pol ice
Ġad mit
ĠScot land
Ġelse where
ĠD ark
Ġconst it
Ġt ur
Ġany more
ld er
Ġ icon
Ġfield s
Ġestim ates
E W
se a
Ġsol utions
Ġresult ing
7 8
ĠB ru
Ġaw esome
Ġenc oun
Ġprov ince
m od
Ġworld wide
Ġact or
Ġreg ularly
ĠMo ore
Ġcour ts
Ġnarr ative
ĠU t
O nce
Ġb oot
Ġenem ies
Ġmix ed
reg on
ĠO S
ĠDis ney
s m
ic er
Ġhous es
Ġno body
ĠS k
in ations
Ġcontrol s
ĠW ater
Ġlet ters
e z
ap es
ag ram
ian a
im p
Ġ4 2
Ġm urd
Ġmay or
Ġlo an
Ġout come
ĠM S
Ġcont em
se ll
S ec
v y
s hip
ĠL ight
on ic
is an
Ġap artment
ĠSte ven
Ġcoal ition
Ġcontribut ed
ĠB as
Ġt ank
Ġconclud ed
ĠAd am
Ġex ists
ĠT w
Ġfound er
ĠB rian
ear ing
ĠL ew
Ġatmosp here
Ġprof ile
Ġbre w
ĠI d
Ġsit uations
ĠCh ampionship
ĠA uthor
r ates
Ġincred ible
ĠConst itution
Ġsign al
ot es
ĠR og
Ġaccur ate
3 00
ĠVict or
ot ten
Ġun p
ĠW here
k er
ĠS outhern
." [
Ġemploy ment
Ġcl ients
D r
Ġkeep s
Ġinform ed
Ġcontin uing
in ity
Ġbase ball
Ġgener ate
Ġtick et
Ġcon ven
Al so
ĠCon f
Ġwe ird
Ġt ied
l ock
adel ph
Ġcateg ory
Ġinf ect
il arly
ack ed
Ġang ry
ĠOr gan
Ġrout ine
ar on
Ġk il
Ġra ising
if er
Ġmach ines
Ġregist ered
Ġprov ed
the re
Ġdem ands
Ġg aming
ĠIt alian
Ġincred ibly
Ġcru cial
Ġst uck
ĠC ivil
ĠD allas
c r
Ġter rible
5 6
M P
Ġfeed back
Ġu pper
Ġpl astic
Ġim per
Ġnew ly
ĠJose ph
Ġconsum ption
Ġdo zen
Ġent hus
Ġest ate
al i
r age
Ġinn oc
Ġman ip
ĠT em
Ġcons cious
Ġbill s
ĠC ross
ĠSp ain
ific ations
T oday
Ġwrit ers
Ġex cess
ind ing
Ġaggress ive
Ġrep orter
Ġcomp ens
Ġret urning
Ġst ead
Ġprogram ming
ĠTh anks
Ġrepresent ed
Ġconclus ion
9 8
Ġr us
ĠB owl
ĠA R
M S
Ġorig in
Ġassist ant
adelph ia
Ġro ster
ĠMin nesota
Ġorgan ized
ri a
Ġpen alty
l ers
Ġdrink ing
Ġpain t
Ġs atell
Ġg ro
ĠPro gram
Ġcapt ure
n i
Ġcons pir
Ġinter pret
Ġexplan ation
isc al
5 8
Ġcount y
isc ons
ess ed
m ont
im a
Ġ %
ann y
gor ith
em en
iscons in
Ġassist ance
ĠRom an
Ġcompl aint
Ġr u
Ġn ut
L A
Ġmag ic
Ġt all
ĠO per
Ġgr anted
E d
B ecause
ĠCont in
st ar
O ff
ĠPar liament
Ġcompl icated
Ġaud io
Ġch ances
Ġext ract
ry pt
ĠG i
Ġ199 9
Ġhe l
ĠE duc
er a
Ġsh ares
Ġsuccess fully
es y
.... ....
ĠI T
z y
Ġpil ot
ĠE p
ĠH ot
Ġmy th
Ġrec overy
ĠT est
Ġtechn iques
Ġ iron
ĠC are
ĠZ eal
ĠS C
Ġscen es
ĠF re
Ġveter an
ĠW in
Ġ( $
Ġdeg rees
act ions
k ed
Ġsym pt
the w
Ġlaw makers
Ġw estern
Ġoper ate
Ġad s
r ating
Ġha bit
Ġaim ed
In st
anche ster
Ġph r
re p
re te
Ġtast e
id ency
Ġeng aged
Ġpriv ile
Ġ5 5
==== ====
Ġr ating
Ġteach ing
ĠO s
Ġacadem ic
it ar
Ġthe rap
Ġpass es
Ġdoll ar
he nt
Ġautom atically
ĠPac ific
Ġmon it
Ġbl ocks
ab ama
Ġatt ended
Ġperman ent
Ġsurv ive
u an
Ġant icip
Ġen able
ĠL ook
Ġext rem
ĠFore ign
ch ain
% .
Ġmark ed
it als
Ġh idden
Ġacc omp
Ġtit les
ĠSen ator
ĠN BC
Ġt aught
a ed
ĠLin ux
Ġb om
Ġind ex
ever al
Ġel ite
ib ilities
Ġlawy ers
f rom
Ġdep ending
Ġval uable
Ġinst alled
Ġch ampionship
Ġro ot
Ġcomp re
m al
ĠB ull
Ġdownt own
Ġequival ent
Ġsol ve
r ific
Ġd uty
ĠSpe cial
ĠB usiness
Ġ6 4
Ġp ace
H S
Ġreput ation
Ġun certain
Ġph ones
u ine
Ġover se
b al
ĠT aylor
Ġperson nel
Ġp in
re ams
atur ally
Ġsuff icient
Ġvis ited
Ġwar ming
Ġprin ciples
Ġvulner able
Ġenjoy ed
Ġf ake
ĠN ick
Ġadv is
Ġnegoti ations
ind er
Ġgener ated
Ġexp osure
Ġrec ording
Ġcollect ed
Ġregard less
Ġd ict
E A
Ġbit coin
Ġe lev
ã Ģ
act ive
ĠK elly
ĠAn th
Ġc up
Ġpattern s
Get ty
ĠT ake
) )
ĠA venue
ĠJ osh
b ro
Ġdis aster
Ġc able
Ġ6 5
Ġch at
Ġwork er
Ġmain ly
Ġrac ial
qu arters
ĠCo ast
ĠV iet
mon th
Ġp ounds
Ġ1 50
ĠC all
Ġport ion
Ġaf raid
Ġins pir
ĠA h
Ġdef ence
Ġb es
ĠE astern
d a
ĠT ony
Ġtrack s
Ġbus y
Ġgr ant
Ġsh it
Ġint ense
ĠSer ies
ĠL GBT
or ne
ĠSt ill
ath y
Ġfun ny
Ġap olog
Ġsur gery
ĠMos cow
man n
ĠC oll
Ġposs ession
Ġprom inent
ĠM ars
Ġcom ic
ĠG er
as hes
9 7
ul es
ĠR ay
Ġth in
Ġengine ering
Ġtrou b
ĠK urd
th is
Ġprocess es
ĠN ation
f all
ĠK ent
ĠC ome
Ġent it
Ġ âĢĻ
Ġunus ual
rap h
et ary
Ġdescrib es
C ol
w orld
9 6
Ġresult ed
Ġemer ged
Ġtax p
Ġg all
il er
Ġd im
Ġprop ag
ĠI owa
ĠO regon
Ġco ordin
Ġcor ruption
Ġst ations
ĠIn vest
Ġf ought
ĠA D
Ġbr ut
Ġext ension
re f
Ġbl ind
Ġadop ted
pr ise
y e
Ġcompet e
Ġrec ru
ĠZeal and
Ġhad n
P r
Ġ4 00
Ġm ail
Ġevery where
ĠB alt
Ġcry pt
ĠH om
b a
R ec
M ean
he rent
ic ate
ĠA li
Ġcontract s
f ront
Ġne uro
ĠL o
ĠDe ad
ĠR ick
Ġfeel ings
Ġf irms
idel ines
âĢĻ ,
Ġminor ity
Ġsp r
c les
H A
Ġadvert ising
t es
Ġrare ly
Ġdisc ipl
m aking
ĠN orthern
Ġsan ctions
g un
ĠV eg
sc ape
ĠPhil adelphia
up id
Ġcamer as
Ġexpl icit
Ġstr ict
v iously
l og
Ġen orm
Ġfin ance
Ġc ited
if ies
ĠBe fore
Ġshort ly
U L
ĠPol icy
ol t
Ġexpect ations
Ġimplement ation
og en
Ġrec ip
cl ing
ĠGree k
Ġth ick
Ġthous and
ant ic
ĠM u
Ġl oud
ist ent
Ġaff ili
ur rent
or ough
ĠN avy
Ġin ev
re ll
c us
Ġphot ograph
Ġmed ium
az z
ĠW isconsin
Ġscen ario
ĠF ood
ĠL ive
Ġsu p
il ton
Ġpl ug
Ġve get
Ġh o
Ġvis ible
L C
Ġlight s
Ġcreat es
Ġprior ity
Ġv en
Ġbr idge
el and
ink ing
Ġob st
Ġag ric
AT E
Ġper mission
ĠF oot
Ġal gorith
iz on
C o
e lect
Ġparticip ate
ask a
Ġw ing
wh o
as ion
Ġbrow ser
ĠGl obal
Ġt ag
ĠO l
ĠH as
Ġm el
Ġac celer
Ġdo zens
ĠKing dom
Ġhistor ic
Ġcomput ers
Ġla id
Ġbasket ball
Ġloss es
te xt
ĠS af
ĠAs h
7 6
og ether
Ġun w
: :
Ġt or
ĠAm endment
M ar
Ġstrik es
Ġprinc iple
ĠDevelop ment
Ġform al
E P
ig en
5 4
Ġsc oring
ob s
at hered
Ġ4 4
Ġcoun sel
f ound
+ +
Ġsh ock
Ġwonder ful
ĠS P
Ġbeh alf
ab s
Ġun com
prof it
5 2
ent h
Ġinter face
Ġestablish ment
Ġto ler
ĠHen ry
ĠG reg
am ber
c ar
ĠM ajor
ĠTh us
U s
Ġg ained
Ġfe e
le te
s he
Ġfound ed
et ime
Ġfound ation
j o
5 1
ĠE SP
ili pp
Ġclub s
Ġcann abis
Ġj u
Ġair port
ĠKe y
y stem
Ġb orrow
ol is
we et
B O
Ġmanufact uring
Ġre ly
ĠH it
a us
ĠP ay
ĠAl abama
Ġgen uine
ĠR oyal
rat ors
Be fore
u er
Ġcomp onent
Ġrid ic
ose xual
Ġwhe el
r ative
ĠO ak
Ġjournal ist
Ġrel ief
ĠS n
Ġsa ved
Ġh ole
Ġy ield
Ġhead ed
Ġcy ber
N e
ĠM oh
epend ent
Ġg ift
b ell
Ġf ault
Ġwithd raw
Ġindic ate
Ġdraw ing
Ġun iform
um er
ĠR and
ĠV is
ar lier
Ġst able
Ġsh ips
Ġ- >
Ġban ned
Ġmag n
ĠM id
Ġfoot age
Mean while
rou s
Ġdo ors
l an
Ġrecogn ized
Ġ19 60
Ġcont aining
p read
ĠF C
Ġr iver
am i
Ġstrugg ling
S ub
Ġsp ark
ĠAcadem y
Ġwall s
Ġachie ved
op her
oun ced
Ġneigh b
an ing
Ġpl ate
Ġed ition
ĠH T
port ion
m ate
Ġmove ments
Ġdeli ber
u ce
te en
P ost
Ġsh arp
ĠA S
ĠS now
ul ating
ĠTh ree
Ġepis odes
Ġneut ral
ĠPrem ier
ĠR et
ĠF und
Ġexcept ion
et ts
Ġprodu cer
________ ________
ĠF red
Ġdest ruction
Ġ199 8
ou red
Ġbelief s
Ġ4 7
ĠRe view
Ġleg end
Ġp ump
ĠMc G
Ġback ed
um in
Ġlik ed
Ġh ired
ides pread
c ription
Ġro les
Ġlangu ages
Ġprofess ion
Ġent ering
os a
ĠV R
Ġinterview s
Ġh ang
is p
ĠK ir
em an
Ġto x
Ġphilosoph y
ĠAdminist ration
Ġar range
o en
int erest
Ġfl aw
Th ose
ĠN ob
sy lv
im ore
Ġst adium
ĠAtlant a
ĠJ ac
Ġredu ction
Ġdin ner
c a
j a
Ġb ath
ĠRep ort
i el
u per
ĠTurk ish
4 00
Ġa ver
Ġf inger
ĠN ote
ĠCon ference
Ġtack le
Ġch a
bur gh
Ġg onna
ĠDie go
ĠP oint
Ġc rop
ĠCent re
Ġfarm ers
ĠM anchester
Ġnomine e
Ġ4 1
5 3
ach ing
ĠJ ason
Ġbare ly
AT O
Ġstruct ures
Ġcont ained
Ġsy nt
ĠO tt
Ġdeli very
Ġconv in
% ,
Ġprocess ing
Ġdisc rimination
Ġinc ent
ri ers
ĠF air
erv ed
R S
ĠD ata
t hen
ĠAr m
abin et
Ġintellect ual
ĠRad io
ams ung
Ġ4 6
ĠB ry
ĠO K
ĠF ield
M e
ĠD id
Ġup set
ĠPer haps
ĠM ir
ĠEduc ation
sylv ania
aw ay
P resident
Ġchalleng ing
Ġpro ven
Ġrestrict ions
ri k
Ġfore ver
h o
http s
ol en
Ġelect ronic
Ġhit ting
ĠH ay
Ġe uro
Ġun ex
Ġreview s
ĠF ed
ĠChrist ians
Ġ4 3
ĠN C
Ġconv icted
St ar
Ġill ness
Ġsm ooth
p age
D av
ĠH or
Ġret ired
Ġindic ated
us ive
Ġprodu cing
ĠAb out
ĠHar ry
Ġrapid ly
Ġro se
Ġh ide
f r
Ġcorpor ations
Ġo cean
i y
ĠR us
ay ing
ow ing
Ġlist ening
ĠRe uters
ĠU FC
ĠS at
Ġtechn ique
Ġm o
y ard
sel s
Ġl oyal
ĠN ic
less ly
Ġrob ot
Ġcl imb
Ġnot ion
Ġbeg un
8 7
Ġut il
Ġrecogn ition
Ġre n
ou ver
eng ers
Ġper pet
Ġassoci ation
Ġmil k
in f
Ġas ks
Ġwebs ites
Ġdesc ription
ĠP ack
Ġtick ets
ĠP en
ach us
Ġfl ash
Ġb ra
Ġsuggest ing
enn y
ĠJud ge
Ġexclus ive
Ġreach ing
Ġprep are
it i
ĠK ansas
Wh o
ion e
Ġb ail
Ġfr ag
Ġprogress ive
Ġb urd
Ġex ceed
Ġequ ally
ĠH ard
Ġhard ly
Ġw idespread
ĠA BC
Ġcampaign s
ĠMay or
Ġcont ribute
ud es
olog ists
Ġbr anch
L ook
ĠR ose
Ġgr ass
Ġiniti ative
ĠMark et
Ġeth nic
Ġex ternal
ik es
ĠC irc
um a
ri ent
Ġsens itive
Ġpract ical
ust ed
el f
Ġunc lear
Ġnorm ally
R ef
Ġrepresent ative
p at
l s
8 9
th on
Ġwe lf
ĠF ull
Ġredu cing
app y
Ġfriend ly
b ec
Ġcare fully
ĠArab ia
ĠR ef
l ad
es ter
ĠL y
P M
ĠL uc
Ġrac ist
Ġinv ent
r ical
ou ch
P G
ĠC O
ĠNe xt
Ġrespect ively
sen al
rat or
Ġt ail
im m
ĠMcC ain
ĠBern ie
anc ouver
Ġoverwhel ming
Ġview ers
ĠBe ach
st ract
Ġwelf are
arr ass
ĠF urther
Ġconvin ced
U N
Ġsm oke
um es
Ġcoll apse
Ġinvolve ment
ĠL ind
Ġth rown
pl oad
Ġconnect ions
he ast
Ġterror ists
ĠB attle
Ġstrateg ic
Ġh ook
Ġ 00
ĠLat in
Ġrec over
omet hing
igr ant
ĠO nt
Ġw ine
M c
ino is
ĠMus ic
ro lled
Ġmind s
Ġv ital
Ġsettle ment
Ġstat istics
Ġl ists
Ġv ary
ĠS ir
Ġfeat uring
ĠESP N
ec ut
ĠD ig
achus etts
Ġbehavi our
Ġindepend ence
w orth
Ġfant asy
Ġdev ast
ned y
c ore
ut ies
Ġinv ited
Ġcompl aints
Ġjo ining
Ġscore s
d em
Ġf iscal
Ġdeep er
ab il
ĠPenn sylvania
if est
Ġst eal
Ġan ger
Ġdep uty
Ġel ig
Ġw ars
ĠSqu are
ĠT enn
Ġinvestig ate
ĠT own
Ġsu gar
Ġconst itutional
ĠII I
Ġschol ars
ĠP it
Ġi OS
Ġany body
Ġsubject s
ĠA ND
Ġar ray
Ġal ien
F A
ĠU lt
ĠG ov
Ġl obby
Ġowners hip
Ġframe work
Ġunemploy ment
ĠDiv ision
Ġtrans gender
b n
Ġimprove ments
ĠS S
Ġmen u
Ġpe ak
B ack
Ġsc reens
ih ad
Ġin ject
Ġl uck
ivers ary
Ġdef ine
Ġt asks
ĠX box
Ġdem ocratic
Ġsc andal
ick ing
Ġj ury
ac on
ĠAnt on
C he
ĠMin istry
Ġc os
ĠE s
Ġcompre hens
os it
ĠK at
Ġrem em
Ġdisc overy
un ior
Ġreg ister
Ġcas ual
Ġcitiz en
R I
Ġf ab
U nder
e en
Ġroad s
Ġdisag ree
Ġfail ing
ĠN ever
ĠL ittle
ĠJ ay
Ġdynam ic
Ġserv es
ĠCamer on
ĠBro ther
ĠM ah
Ġtest im
Ġg athered
ĠSt one
ĠIn formation
S m
Ġs oph
od ing
Ġimplement ed
Ġcontrovers y
Ġcollect ive
Ġtr ained
ann a
ĠN SA
Ġneigh bour
Ġfear s
level and
Ġsam ples
Ġf iction
Ġpro sec
ag g
Ġest imate
ĠCommun ity
6 9
ĠI ce
ĠMed ical
Ġ199 7
ĠPh ilipp
Ġrefer ring
Ġt ip
Ġcap tain
W ill
Ġ199 6
Ġsp aces
c ific
ĠWalk er
Ġvers us
Ġleg s
ĠSant a
' .
Ġtem porary
P C
Ġno ise
ĠH D
Ġover t
Ġincor por
Ġt one
Ġvisit ors
Ġre ven
Ġcivil ians
Ġw ages
Ġhyp ot
Ġs in
Ġrem arks
Ġaware ness
ĠO N
ĠSpr ing
Ġrecomm ended
Ġst upid
ĠAll en
Ġhead ing
Ġhand ful
Ġreg ulation
ick et
ĠA ction
ĠC ore
Ġplatform s
Ġacc us
ĠAnth ony
Ġaff airs
Ġtouch down
Ġr ural
Ġattack ing
g ener
Ġext end
Ġult imate
Ġatt ached
ĠVeg as
Ġdiscuss ions
ĠR en
Ġhor se
ĠB rew
m ad
Ġrep rodu
Ġgen etic
Ġexpand ed
Ġattempt ing
ph ones
ĠMat thew
Ġr aces
inc luding
ir y
ĠQue en
Ġr aw
Ġign ore
ĠColumb ia
s erv
ĠP ent
ĠGuard ian
h our
ĠC ook
Ġi P
ition ally
Ġg ear
Ġsympt oms
ĠPat rick
Ġsuff er
Ġsett ings
ĠM ake
âĢĶâĢĶ âĢĶâĢĶ
all ing
Ġsal ary
c ase
Ġlic ens
m ary
G O
Ġtweet ed
ang el
Ġpublic ation
Ġbr ill
Ġfact ory
Ġsuspect ed
Ġpurch ased
are t
Ġinter vention
Ġeas tern
Ġhol iday
ty pe
20 14
Ġthe at
es h
Ab out
Ġdis pl
Ġrank ed
ĠB udd
Ġne ck
ĠAust in
ĠConserv ative
ĠM useum
ect ive
ĠR oy
" )
Ġc ro
Ġenorm ous
S en
## ##
intend o
Ġc ogn
Ġlog ic
ult ural
ict ions
Ġimprove ment
ĠAP I
Ġview ed
Ġing red
Ġentertain ment
A ss
Ġlegit imate
ĠProf essor
omm od
Ġpres um
ĠAl bert
ĠMass achusetts
ĠB all
Ġ201 9
Ġw ww
New s
Ġact ors
Ġsubstant ial
Ġhuman ity
Ġinvol ves
Ġres ource
ar ms
Ġbrother s
Ġliqu id
Ġr ational
Ġseem ingly
Ġs orry
Ġlay er
Ġlo ans
Ġro ok
Ġinvestig ating
Ġabs ence
Ġprov iders
Ġtom orrow
Ġfall en
Ġb ureau
Ġground s
Ġco aches
Ġst ake
Ġres ign
Ġout s
re c
Ġadvoc ates
Ġâ Ĥ¬
R C
Ġinvestig ators
Ġconspir acy
W here
Ġmedic ine
Ġdram atic
Ġf ulf
Ġmon itor
ĠCh air
ES T
re pre
Ġover s
Ġch apter
ĠSe ason
Ġc oc
ov al
G E
l ah
ĠH o
. -
Ġactiv ist
ple te
p ed
Ġbo at
ĠChe ck
ak a
ĠCont rol
Ġj ur
Ġsusp ended
Ġp apers
Sc ript
ĠGree ce
Ġopin ions
ĠS uch
ĠR oss
Ġmiss ile
ĠGold en
Ġcele b
ĠRev olution
20 16
Ġstay ed
Ġco vers
ĠR a
ĠHe ad
iver pool
Ġd iversity
oty pe
Ġb ars
P art
Ġg am
R uss
Ġemb arrass
x it
Ġoffic es
ĠA cc
re ts
our se
cl aim
ĠP ot
h ot
ĠIran ian
am med
Ġdis rupt
co ver
ĠW W
Ġpre ced
Ġpo ly
Ġfore st
we red
Ġcare ful
m at
repre ne
v ard
Ġam id
ĠHist ory
7 9
ĠH ospital
ist ing
ĠA le
Ġaut hent
qu est
ĠIll inois
ĠC BS
ĠS ony
u ction
Ġh am
ge on
Rel ated
d it
ĠA p
7 4
7 2
r ine
Ġtransport ation
ĠV ancouver
ĠG aza
Ġhand ed
Ġprot ocol
Ġconsist ently
Ġmount ain
Ġ5 2
Ġread s
ĠSt at
Ġpre f
Ġclot hes
Ġatt itude
i ability
ĠSh are
ĠKen nedy
Ġp orn
Ġprinc ip
ĠF reedom
Ġdep ends
Ġmin ing
Ġpet ition
Ġnot ing
Ġwar rant
d es
Ġcon ce
Ġcol ors
Ġlow est
ĠAnd erson
ĠT ri
Ġaddress ed
ĠF amily
b i
un es
Ġent r
S te
ĠSt adium
x x
Ġthrow ing
Ġj e
Ġf ruit
Ġvirt ually
! )
Ġst one
Ġf oss
ĠMe an
Ġguarant ee
Ġrefere nd
B oth
? ?
Ġspeak s
ĠBalt imore
in ch
Ġste el
Ġcl osing
Ġread er
d ri
F F
Ġbu ff
Ġperson ality
Ġappreci ate
ĠC re
ĠIraq i
Ġsur f
ĠEn vironment
Ġn erv
ien ces
m aker
Ġk m
ke ep
Ġhand ling
Ġprof its
ord on
Ġg rav
Ġmar ks
l ow
Ġtri es
ĠBro ad
Ġcontribut ions
ĠEng ine
rop ri
z ed
Ġspirit ual
Ġconvers ations
Ġfant astic
ĠT ro
Ġl ands
Ġcon sole
il a
Ġhor ror
pp ers
" .[
ic ity
Ġg ains
Ġcover ing
Ġte a
iv als
ĠHar ris
H er
Ġh int
Ġast ron
av al
Ġshould er
sc ale
Ġw rest
Ġgu est
ĠE xt
Ġacc ommod
ut ed
u its
Ġdep ression
ĠC A
Ġ _
ĠLew is
Ġl ucky
ĠB ang
Ġencour aged
fl ix
am ac
Ġjud ges
Ġinc idents
ĠC leveland
Ġd rew
Ġsubsequ ent
ir a
Ġsp oken
ĠHow ard
ann els
ĠB ad
Ġbro wn
Ġb acter
P lease
ix ed
Ġr het
Ġr anks
ĠGet ty
Ġphot ograp
Ġinfl ation
Ġin ner
ĠInt elligence
ĠP o
it ting
ĠB a
Ġm aps
ab eth
ĠPat ri
port ed
ij ing
pl ate
Ġdiv ided
Ġ199 5
ĠN ATO
**** ****
Ġpar alle
Ġdr ama
ĠMex ican
Ġdist ributed
Ġg al
Ġinnov ation
Ġsw ing
un icip
Ġc ust
ĠUn fortunately
Ġprem ium
Ġvot er
Ġper mit
Ġre vel
ĠK ong
Ġtre m
Ġd ance
Ġcl im
pl ed
ĠL as
Ġeff iciency
Ġprom ises
ĠInd eed
N ote
ed ing
ĠC H
ĠWh ich
Ġball ot
Ġ5 1
p ie
ĠAd v
Ġtemper atures
ĠS amsung
Ġport ray
Ġspokes person
Ġl ocked
Ġl ying
Ġimpro ving
Ġth rew
Ġj oy
Ġd ump
Ar t
Ġmus ical
P P
Ġmist akes
d ated
Ġsh out
ĠSt art
Ġhom eless
con f
Ġreplace ment
er ies
Ġcom edy
Ġche cks
ĠWith out
ĠM oon
Ġinstru ment
oun ce
ĠCon nect
Ġacknowled ged
Ġbar rel
Ġrespons es
Ġprotect ing
back s
ĠD et
Â Ĵ
Ġsil ver
Ġcop ies
he im
Ġl es
ĠA C
Ġd ad
Ġbreak s
ĠPl us
ĠB uff
Ġcommon ly
Ġle ts
Ġleg acy
it age
Ġprote in
Ġmat hem
Ġjo ke
amac are
er ted
h op
ar re
Ġpass engers
20 15
Ġy ellow
ĠMar vel
Ġn aturally
Y our
ĠS cient
Ġnom ination
S ource
Ġmeas ured
ap ing
od ed
al ia
ĠU se
Ġabandon ed
Ġm ad
ĠPr ince
Ġstud ied
8 00
ĠFoot ball
hel sea
Ġd iverse
arg o
Ġacqu ired
iet ies
ĠL yn
C ons
est y
Ġso il
ĠM arsh
Ġdemonst rated
Ġbl ast
Ġre ar
Ġfund ed
Ġhead quarters
hes is
y o
Ġst olen
Ġsc an
Ġcount s
Ġt ape
Ġpartners hip
Ġmid field
ĠN OT
Ġ( âĢľ
Ġupgr ade
ĠC ost
ĠAtlant ic
y er
Ġm arch
Ġord inary
ĠA ud
ĠN ev
Ġr om
aw are
Ġliter ature
Ġpl ain
Ġst ages
ĠâĢ ¢
Ġass ert
Ġ199 4
h igh
ĠA I
Ġhelp ful
Ġarri ve
Ġex it
Ġsc ope
Ġfall s
6 3
d og
Ġign ored
B M
Ġtw enty
et ers
ĠM aster
Ġcl ock
Ġcom pe
in ction
Ġvir us
ĠT rib
Ġreferend um
Ġin equ
Ġun ions
ĠDo es
ass ador
ĠG un
Ġconserv atives
Ġr if
Ġgr id
Ġsy mp
Ġf estival
Ġf ro
Ġsho pping
Ġwat ers
ĠP op
Ġcap abilities
ĠB ron
Ġa x
lah oma
Ġus age
ĠH ind
i ate
z ing
ĠEm pire
aed a
ĠAb b
ing ton
ĠIndian a
ile y
Ġtrans actions
er g
Ġhop ed
Ġdist ract
ĠA st
Ġgu itar
V E
ĠE ag
Ġst y
Ġr amp
Ġassess ment
ct ic
Ġunivers ities
ĠD ave
Ġm oon
Ġmonit oring
orm al
ack et
br idge
Ġrepresent ing
F acebook
Ġrat io
ĠDe ath
en cing
ugh t
6 2
ĠPro v
Ġconvention al
com es
US T
or ge
Ġtr ave
ĠS et
Ġtrack ing
d oor
nt il
ĠS ometimes
6 1
on ly
sh ire
Ġh ung
ĠS us
Ġrel iable
Ġt ie
Ġpropos als
Ġske pt
ĠHe ll
Ġrepl ied
ĠR os
f und
u h
Ġcritic ized
Ġappear ances
r imin
ĠH a
ecut ive
el a
Ġrac ism
Ġins isted
or gan
Ġintrodu ction
Ġ20 20
Ġappoint ed
d ney
ĠB ureau
ol ph
ag ic
ĠP ass
c ut
K e
ĠL ine
Ġbeaut y
Ġconc rete
Ġrece iver
Ġsupp lies
Ġperform ing
m ade
j i
Ġb ub
Ġex ch
r ite
Ġvis iting
ĠTechn ology
ĠDen ver
oc ument
E E
om es
ĠC apt
the less
R L
Ġlet ting
AN D
Ġdef icit
Ġclass ified
ĠGal axy
Ġaut o
H T
Ġre nder
Ġabs or
ĠOr ig
Ġsw im
Ġaccompl ish
Ġprogram me
Ġpres idency
c rib
Ġblock ed
ĠSwed en
arch y
Ġd ust
ĠUt ah
Ġdro ve
Ġland scape
Ġcan ce
ĠPort land
pl us
Ġdismiss ed
ĠL A
Ġhy per
Ġab road
Ġbon us
ĠJ am
ĠT our
h ar
Ġsequ ence
Ġpredict ed
Ġsen ator
Â °
ĠA ge
Ġdom ain
ĠC ode
Ġe c
Ġm useum
Ġwar n
ĠAssoci ated
ac co
Ġpers ons
N S
Ġd ub
ian o
ag a
Ġrequest ed
Ġtrig ger
ĠOnt ario
Ġh ockey
ĠCor por
Ġart ific
Ġd ates
Ġtestim ony
Ġcent ers
Ð »
Ġrock et
ir ts
Ġv es
Ġtrans it
Ġcongress ional
Ġentit led
ult ane
Ġspokes woman
ĠFr ont
ĠN intendo
ĠAlex ander
Ġresc ue
ĠCo oper
m ony
Ġass ign
ĠB on
Ġequ ality
Ġp atch
Ġur ged
Ġb read
ĠOlymp ic
Ġdocument ary
Ġveter ans
Ġcl ar
f ol
9 3
a is
k ing
ĠâĢ Ŀ
pt on
Ġrec all
Ġpop ulations
9 4
ĠL ow
Ġbreat h
St ill
9 2
room s
Ġwhen ever
Ġviol ation
Ġtact ics
Ġw ider
7 1
ound ing
ĠK ar
Ġtarget ing
Y et
th rough
Ġpurs ue
Ġs alt
" >
A re
iz abeth
Ġf iring
d on
ĠM ill
Ġac id
Ġm ole
in ating
Ġrestaur ants
Ġcomp are
7 3
f are
C omp
or ous
enn is
Ġw edd
Ġemploy ed
ĠRober ts
Ġcont rad
ĠB ible
Ġpolit ically
Ġphr ase
Ġsatell ite
ĠC ro
Ġsurv ival
Ġretire ment
Ġbank ing
ĠF orm
Ġbrill iant
is ons
ĠG irl
at ar
Ġch annels
Ġser vers
ĠBe ijing
Ġsoc cer
tr ans
a ver
ĠM ach
the y
Ġintrodu ce
ĠJust in
Ġexper iments
ene z
Ġprison ers
ra pped
Ġc ig
ĠW H
af e
j ud
Ġf ighter
6 00
Ġscient ist
O K
ĠY OU
usal em
ĠL ist
Ġsub mit
Ġappro ached
ĠA ward
Ġmonth ly
ĠL iverpool
Ġdesign s
Ġrepresent atives
Ġtit led
ord inary
Ġqu ote
Ġpopular ity
ol ves
Ġab ilities
oen ix
Ġc ul
ĠP D
Ġmembers hip
Ġinvestig ations
Ġfocus ing
m ans
Ġh osp
Ġb ab
ĠBr idge
Th ough
ĠMary land
Ġsa ving
p a
Ġr ush
ĠGovern or
Ġsh adow
ou ri
b ow
ĠH ur
ĠB ase
Ġobject ive
ber ry
ĠT ed
em ed
er ts
eder ation
Ġm it
Ġpre par
Ġt ips
ĠW as
Ġpip eline
Dav id
Ġchild hood
ik a
Ġrat ings
Ġth orough
Ġent reprene
ent er
ĠV ill
ĠD utch
w as
bre ak
Ġact ively
ĠHar vard
Ġp ig
ĠS om
Ġdemand ing
Ġlo ose
ast y
ĠB ra
Ġunex pected
C O
Ġsm oking
Ġsm ell
Ġden y
Ġunivers al
Ġfore cast
Ġarg ues
Ġphenomen on
Ġoverse as
m ers
old s
Ġsett led
w alk
ĠBe ck
Ġgener ations
Ġweek ly
Ġch icken
Ġprep aring
Ġ9 5
Ġsmart phone
Ġprodu cers
Ġbut t
ĠP A
Ġlegisl ative
Ġanx iety
Ġdist urb
ĠH ave
Ġinnoc ent
min ute
ĠC lick
Ġmort g
Ġcelebr ate
D em
ĠU r
ik i
Ġprov ision
ĠD O
Ġke ys
d ed
Ġsh ame
Ġarg uing
ĠDes ign
he ld
Ġquestion ed
Ġfor cing
ĠC ow
ĠH op
omp son
ag h
â Ķ
Ġbroad er
Ġencoun ter
S L
Ġfl ags
Ġf ool
Ġm ac
Ġ5 3
Ġdead ly
Ġf ur
8 4
Ġre verse
o z
Ġwe igh
ĠEd ward
ĠAm ong
Ġt ens
Ġ ~
Ġm os
Ġwealth y
ĠOb amacare
Ġun pre
Ġmaintain ed
Ġsure ly
Ġsh ield
ĠPro p
ocol ate
ore t
Ġsecond ary
is a
av ed
S im
Ġsav ings
ir lf
Ġro of
Ġst ability
Ġcivil ian
Ġt ab
el son
Ä ĥ
ĠCar ter
Ġreve als
m ind
Ġmin i
Ġal arm
Ġann iversary
Ġs orts
o is
ĠA k
vern ment
E l
Ġton ight
Ġrele ases
ĠH on
Ġroom s
irlf riend
is k
ĠG ulf
Ġout rage
Ġprosecut ors
ĠLe ft
Ġdis order
in als
Ġex ha
or ious
Ġsh r
Ġrel ax
Ġwind ows
Ġthreat ening
Ġdifferent ly
Ġharass ment
Ġqu oted
Ġhealth care
Ġsub mitted
Ġar bit
Ġl unch
st ep
it ter
ĠR un
Ġreform s
Ġtort ure
re ction
Ġf ate
Ġst ored
Ġo kay
ĠBel g
Ġpropag anda
Ġsp ots
Ġinstruct ions
ĠViet nam
Ġse vent
Ġround s
Ġodd s
Ġ199 2
a a
Ġa er
ht ml
ten ance
Ġer rors
est ed
ĠOk lahoma
Ġhy dro
ic ism
G A
Ġde lic
ail ed
ĠLiber al
Ġsil ence
ĠGra ham
act s
ĠWar ren
Ġgrad uate
ĠS ab
Ġafford able
Ġcirc le
se ct
ĠBl oom
Ġcooper ation
Ġp icks
Ġse ar
it ary
ĠSar ah
ĠF all
ors hip
ĠEx pl
Ġstrik ing
Ġp uzz
Ġpers u
Ġstre aming
Ġcomprehens ive
r ace
Ġimportant ly
Ġc ow
Ġposs ess
W atch
Ġf ing
Ġexec ution
ĠRub y
l ined
row s
Ġint im
Ġstrugg led
ĠP erson
Ġass ass
ĠSil ver
ĠLe ader
ut en
ah u
Ġg ent
T y
ĠPr ice
Re uters
ish op
Ġdes erve
ĠJer usalem
Ġland ing
Ġcal m
Ġal ter
Ġcere mony
Ġassum ed
Ġdemonst rate
Ġdifficult y
8 3
Ġag es
Ġpr on
Ġd ying
Ġh al
Ġdist ingu
as ury
Ġste pped
et he
Ġb orders
Ġche st
ĠW olf
ĠL t
Ġadv enture
Ġpoint ing
ov a
Ġw aves
Ġkil omet
es see
ier ce
ĠNet flix
ater n
Ġaut onom
e als
Ġprecise ly
Ġarchitect ure
Ġgreat ly
ĠDe b
Ġprom ising
Ġcons ent
b ury
Ġconsider ation
ĠT en
Ġdri ves
Ġdial ogue
ĠM ain
Ġtrem end
ĠB ud
as ant
Ġnewslet ter
Ġrook ie
Ġaward ed
ĠMean while
a fter
Ġrepe at
ĠSt ory
Ġcont ribution
ĠTe le
Ġb urning
ie v
part y
Ġsim ultane
ĠScott ish
ĠV ice
Ġdon ations
ĠInd ust
ak h
Ġinter f
it ol
ĠMag ic
Ġvo ices
Ġanaly st
ĠBru ce
ĠTe ch
cept ions
Ġg if
Ġfrequ ency
ĠComm on
Ġproced ure
Ġwant ing
ĠP res
Ġexecut ives
Ġplayoff s
le e
o ice
Ġstay ing
ap olis
Ġb irds
Ġbi as
V D
ĠH ong
ĠA z
iz er
Ġinc hes
Ġtr illion
om y
hold ers
Ġhighlight s
Ġsem i
Ġremark able
Ġwhere as
E X
rib utes
ĠPalestin ians
Ġkn ee
op en
ĠJon athan
Ġan s
ra ig
Ġimpl ications
scrib e
Ġform ation
Ġsuper ior
Ġstrateg ies
it ual
ĠBer lin
St ep
ĠL ink
st al
d iv
ĠSy dney
ĠM ORE
Ġcateg ories
ĠAr k
Ġf et
Ġfollow ers
Ġcre am
St ory
port ation
F O
Ġcontact ed
M s
Ġjud gment
ann on
Ġsm ile
Ġinf o
Ġemer ging
ig ious
r if
j s
ond er
om ed
y es
b ered
v ision
ĠE ff
vertise ments
iff s
h att
Ġaccess ible
Ġcr imin
T P
Ġphys ically
Ġass igned
Ġ5 4
ĠAnd re
Ġgu idelines
Ġdefe ated
Ġw ounded
Ġtri als
Ġst em
Ġman aging
Ġspe ll
Ġmin istry
Ġgr ade
Ġco inc
Ġr iding
Ġindic ates
Ġcent uries
Ch rist
c est
ĠAff airs
Ġop ens
ak i
Ġph arm
ll a
- >
Ġmeaning ful
Ġt iss
ere nt
ĠMr s
Ġe ase
ch ild
Ġmarg in
ĠSt ore
Ġclot hing
Ġâ ĪĴ
ĠT es
ĠS ix
ĠCap ital
Ġparticip ation
ced ented
M us
Ġre vers
ar ia
Ġpo ison
ĠBre xit
Ġ1 20
ĠY emen
Ġl apt
Ġcompet ing
Ġmem ories
ĠC S
Ġthe ories
Ġrec ipe
Ġg ross
um ble
a uthor
h ard
9 1
Ġpass age
s l
Ġag ed
ĠC redit
Ġb in
Ġdr one
Ġbl ank
Ġdisp ute
Ġdam aged
Ġ199 3
v an
ĠHam ilton
b ase
Ġsubst ance
Ġhost ed
T ER
Go ogle
ĠC helsea
ĠL am
Ġpromot ing
Ġfac ilit
Ġopen ly
ĠInst agram
Ġ19 50
ĠV ik
V iew
ĠChild ren
ĠCr ime
Ġclin ical
O ut
Ġn ic
ere my
ĠH old
b its
Ġinvest ments
Ġcons ensus
e ven
ig ate
ĠLe on
s es
ĠF al
Ġeduc ational
it o
con st
Ġdis h
Ġman ifest
Ġcust ody
we ek
8 2
Ġelig ible
ĠHaw ai
Ġleg ally
Ġmiss ions
Ġend orse
Ġg ate
er ia
Ġmem o
ĠG T
Ġt ables
ĠP ict
Ġn in
Ġstud ying
H z
Ġ ?
Ġchar ity
ar ation
ad i
Ġaddress es
Ġins pect
Ġdisc ount
ri x
le ft
Ġbatt les
AL L
ĠD er
Ġ2 50
ĠAs sembly
Ġathlet es
P re
ĠTr ade
Ġfoss il
Ġenthus i
ĠMan agement
i ac
Ġsuspect s
Ġt ired
Ġhe lic
A ct
Ġcounter part
Ġn a
ac hel
Ġd ating
ĠE th
Ġspect rum
ĠM etro
ater al
ĠSt ation
ĠB al
Ġpresent ation
Ġl ux
ge red
art s
Ġbot tle
Ġt ap
ri ors
Ġv ig
Ġfund ra
Ġenh ance
ass y
ĠSe an
Ġtherap y
ĠW ales
ĠEx per
Ġper ceived
mark et
ĠT ok
Ġdomin ant
D ef
m ath
Ġback ing
ĠF estival
Ġunder lying
Ġdef ending
ĠTh rough
Ġrac ing
Ġdiscuss ing
Ġburd en
Ġexpand ing
Ġmus cle
Ġstop s
u z
Ġbe ings
ĠMar x
ĠE qu
Ġtrans action
ĠU ber
Ġ9 9
C al
Ġrec ruit
it udes
ac her
ĠG ary
Ġm ood
Ġpick ing
8 1
land o
yl um
play er
Ġman agers
or able
Ġgather ing
Ġhop efully
ang le
ĠS on
al ysis
ĠV ideo
se ction
Ġcr us
ĠLib ya
Ġimp ression
Ġh ip
ol ar
Ã ¢
Ġscr ut
Ġro y
ĠT ai
igen ous
Ġinst itution
ĠBat man
} }
Ġst ere
Ġproced ures
Ã ±
Ġp ocket
Ġcreat ures
ĠB oe
Ġcomp at
Ġarri val
pt ions
s a
w atch
Ġe ager
Ġpoll ution
it ure
Ġkit chen
Ġfood s
oc ial
Ġrec re
Ġsurv iv
ro ph
Ġorgan ic
ĠPent agon
ĠMor gan
Ġsh ipping
Ġcapital ism
Ġins ult
Ġtim ing
s ub
od ox
Ġrequire ment
Ġunf air
ad ers
Ġ5 6
Ġm ice
ĠAss ad
R em
ĠRep resent
ĠM ess
ĠML S
b ing
ative ly
ĠEl izabeth
ĠO p
Ġdise ases
M od
Ġindust ries
ĠOak land
d y
Ġb owl
ol n
ĠMur ray
ĠC reat
Ġs ed
Ġhelic op
Ġdiv or
ag ger
Ġbe ach
Ġpunish ment
ab et
Ġshe ll
** *
Ġfl ed
Ġhosp itals
miss ions
Ġt ons
A F
ĠK ick
Ġse ed
og y
ĠCome y
opy right
Ġstat ist
Ġengine ers
Ġob sc
Ġh ire
S C
Ġmod ule
A Y
am ous
Ġcoach ing
oc a
Ġans wered
r ac
R eg
T R
Ġgraph ics
Ġregul atory
Ġso vere
Ġst ance
alt ies
Ġb ow
ĠKe ep
C lick
Ġexpl aining
Ġrhet oric
Ġbe ating
ĠF riend
Ġt ut
ĠEm ail
ri or
ĠY eah
em ic
Ġacknow ledge
ĠMic hel
Ġprincip al
ĠM it
