{
  "Ā": 0,
  "ā": 1,
  "Ă": 2,
  "ă": 3,
  "Ą": 4,
  "ą": 5,
  "Ć": 6,
  "ć": 7,
  "Ĉ": 8,
  "ĉ": 9,
  "Ċ": 10,
  "ċ": 11,
  "Č": 12,
  "č": 13,
  "Ď": 14,
  "ď": 15,
  "Đ": 16,
  "đ": 17,
  "Ē": 18,
  "ē": 19,
  "Ĕ": 20,
  "ĕ": 21,
  "Ė": 22,
  "ė": 23,
  "Ę": 24,
  "ę": 25,
  "Ě": 26,
  "ě": 27,
  "Ĝ": 28,
  "ĝ": 29,
  "Ğ": 30,
  "ğ": 31,
  "Ġ": 32,
  "!": 33,
  "\"": 34,
  "#": 35,
  "$": 36,
  "%": 37,
  "&": 38,
  "'": 39,
  "(": 40,
  ")": 41,
  "*": 42,
  "+": 43,
  ",": 44,
  "-": 45,
  ".": 46,
  "/": 47,
  "0": 48,
  "1": 49,
  "2": 50,
  "3": 51,
  "4": 52,
  "5": 53,
  "6": 54,
  "7": 55,
  "8": 56,
  "9": 57,
  ":": 58,
  ";": 59,
  "<": 60,
  "=": 61,
  ">": 62,
  "?": 63,
  "@": 64,
  "A": 65,
  "B": 66,
  "C": 67,
  "D": 68,
  "E": 69,
  "F": 70,
  "G": 71,
  "H": 72,
  "I": 73,
  "J": 74,
  "K": 75,
  "L": 76,
  "M": 77,
  "N": 78,
  "O": 79,
  "P": 80,
  "Q": 81,
  "R": 82,
  "S": 83,
  "T": 84,
  "U": 85,
  "V": 86,
  "W": 87,
  "X": 88,
  "Y": 89,
  "Z": 90,
  "[": 91,
  "\\": 92,
  "]": 93,
  "^": 94,
  "_": 95,
  "`": 96,
  "a": 97,
  "b": 98,
  "c": 99,
  "d": 100,
  "e": 101,
  "f": 102,
  "g": 103,
  "h": 104,
  "i": 105,
  "j": 106,
  "k": 107,
  "l": 108,
  "m": 109,
  "n": 110,
  "o": 111,
  "p": 112,
  "q": 113,
  "r": 114,
  "s": 115,
  "t": 116,
  "u": 117,
  "v": 118,
  "w": 119,
  "x": 120,
  "y": 121,
  "z": 122,
  "{": 123,
  "|": 124,
  "}": 125,
  "~": 126,
  "ġ": 127,
  "Ģ": 128,
  "ģ": 129,
  "Ĥ": 130,
  "ĥ": 131,
  "Ħ": 132,
  "ħ": 133,
  "Ĩ": 134,
  "ĩ": 135,
  "Ī": 136,
  "ī": 137,
  "Ĭ": 138,
  "ĭ": 139,
  "Į": 140,
  "į": 141,
  "İ": 142,
  "ı": 143,
  "Ĳ": 144,
  "ĳ": 145,
  "Ĵ": 146,
  "ĵ": 147,
  "Ķ": 148,
  "ķ": 149,
  "ĸ": 150,
  "Ĺ": 151,
  "ĺ": 152,
  "Ļ": 153,
  "ļ": 154,
  "Ľ": 155,
  "ľ": 156,
  "Ŀ": 157,
  "ŀ": 158,
  "Ł": 159,
  "ł": 160,
  "¡": 161,
  "¢": 162,
  "£": 163,
  "¤": 164,
  "¥": 165,
  "¦": 166,
  "§": 167,
  "¨": 168,
  "©": 169,
  "ª": 170,
  "«": 171,
  "¬": 172,
  "Ń": 173,
  "®": 174,
  "¯": 175,
  "°": 176,
  "±": 177,
  "²": 178,
  "³": 179,
  "´": 180,
  "µ": 181,
  "¶": 182,
  "·": 183,
  "¸": 184,
  "¹": 185,
  "º": 186,
  "»": 187,
  "¼": 188,
  "½": 189,
  "¾": 190,
  "¿": 191,
  "À": 192,
  "Á": 193,
  "Â": 194,
  "Ã": 195,
  "Ä": 196,
  "Å": 197,
  "Æ": 198,
  "Ç": 199,
  "È": 200,
  "É": 201,
  "Ê": 202,
  "Ë": 203,
  "Ì": 204,
  "Í": 205,
  "Î": 206,
  "Ï": 207,
  "Ð": 208,
  "Ñ": 209,
  "Ò": 210,
  "Ó": 211,
  "Ô": 212,
  "Õ": 213,
  "Ö": 214,
  "×": 215,
  "Ø": 216,
  "Ù": 217,
  "Ú": 218,
  "Û": 219,
  "Ü": 220,
  "Ý": 221,
  "Þ": 222,
  "ß": 223,
  "à": 224,
  "á": 225,
  "â": 226,
  "ã": 227,
  "ä": 228,
  "å": 229,
  "æ": 230,
  "ç": 231,
  "è": 232,
  "é": 233,
  "ê": 234,
  "ë": 235,
  "ì": 236,
  "í": 237,
  "î": 238,
  "ï": 239,
  "ð": 240,
  "ñ": 241,
  "ò": 242,
  "ó": 243,
  "ô": 244,
  "õ": 245,
  "ö": 246,
  "÷": 247,
  "ø": 248,
  "ù": 249,
  "ú": 250,
  "û": 251,
  "ü": 252,
  "ý": 253,
  "þ": 254,
  "ÿ": 255,
  "<|endoftext|>": 256,
  "Ġt": 257,
  "he": 258,
  "Ġa": 259,
  "Ġs": 260,
  "Ġw": 261,
  "Ġthe": 262,
  "nd": 263,
  "ed": 264,
  "Ġb": 265,
  "Ġto": 266,
  "Ġand": 267,
  "Ġh": 268,
  "Ġf": 269,
  "in": 270,
  "ĠT": 271,
  "Ġwa": 272,
  "re": 273,
  "it": 274,
  "ou": 275,
  "Ġl": 276,
  "Ġd": 277,
  "Ġc": 278,
  "Ġp": 279,
  "ay": 280,
  "Ġm": 281,
  "er": 282,
  "Ġwas": 283,
  "om": 284,
  "ĠThe": 285,
  "Ġhe": 286,
  "is": 287,
  "ar": 288,
  "Ġn": 289,
  "im": 290,
  "on": 291,
  "Ġsa": 292,
  "id": 293,
  "ll": 294,
  "Ġha": 295,
  "Ġg": 296,
  "at": 297,
  "ĠS": 298,
  "ing": 299,
  "ot": 300,
  "en": 301,
  "an": 302,
  "le": 303,
  "or": 304,
  "ir": 305,
  "am": 306,
  "et": 307,
  "ĠH": 308,
  "Ġit": 309,
  "Ġth": 310,
  "ig": 311,
  "ĠThey": 312,
  "Ġin": 313,
  "il": 314,
  "ĠHe": 315,
  "Ġpl": 316,
  "Ġ\"": 317,
  "ow": 318,
  "ver": 319,
  "ri": 320,
  "ut": 321,
  "Ġbe": 322,
  "Ġu": 323,
  "Ġsaid": 324,
  "Ġplay": 325,
  "ith": 326,
  "Ġday": 327,
  "Ġwith": 328,
  "pp": 329,
  "Ġo": 330,
  "On": 331,
  "Ġy": 332,
  "oo": 333,
  "ked": 334,
  "Ġr": 335,
  "Ġher": 336,
  "ce": 337,
  "ĠI": 338,
  "ĠShe": 339,
  "ld": 340,
  "Ġhis": 341,
  "ĠTim": 342,
  "Ġst": 343,
  "ke": 344,
  "Ġe": 345,
  "Ġbig": 346,
  "nt": 347,
  "ck": 348,
  "Ġyou": 349,
  "very": 350,
  "st": 351,
  "ve": 352,
  "end": 353,
  "Ġon": 354,
  "Ġhapp": 355,
  "un": 356,
  "riend": 357,
  "Ġfriend": 358,
  "all": 359,
  "ily": 360,
  "Ġthey": 361,
  "ĠL": 362,
  "Ġwe": 363,
  "Ġhad": 364,
  "Ġnot": 365,
  "Ġli": 366,
  "Ġup": 367,
  "Ġwant": 368,
  "her": 369,
  "Ġof": 370,
  "ad": 371,
  "itt": 372,
  "se": 373,
  "ĠB": 374,
  "Ġdo": 375,
  "Ġhappy": 376,
  "ent": 377,
  "Ġvery": 378,
  "es": 379,
  "ĠM": 380,
  "Ġthat": 381,
  "Ġsaw": 382,
  "One": 383,
  "'s": 384,
  "ould": 385,
  "Ġfor": 386,
  "Ġmom": 387,
  "Ġsh": 388,
  "ittle": 389,
  "Ġso": 390,
  "Ġlittle": 391,
  "Ġshe": 392,
  "ch": 393,
  "ime": 394,
  "Ġne": 395,
  ".\"": 396,
  "Ġnam": 397,
  "Ġtime": 398,
  "Ġk": 399,
  "ound": 400,
  "Ġthere": 401,
  "Ġnamed": 402,
  "Ġsm": 403,
  "Ġbo": 404,
  "Ġwere": 405,
  "ĠLily": 406,
  "Ġwanted": 407,
  "out": 408,
  "Ġbut": 409,
  "The": 410,
  "Ġfriends": 411,
  "ht": 412,
  "!\"": 413,
  "ved": 414,
  "ĠTom": 415,
  "ird": 416,
  "el": 417,
  "Ġan": 418,
  "al": 419,
  "Ġbird": 420,
  "ake": 421,
  "Ġtoo": 422,
  "ĠIt": 423,
  "ome": 424,
  "ug": 425,
  "ide": 426,
  "Ġwent": 427,
  "Ġwh": 428,
  "Ġhel": 429,
  "Ġis": 430,
  "Once": 431,
  "Ġall": 432,
  "Ġhelp": 433,
  "ue": 434,
  "Ġloo": 435,
  "Ġlo": 436,
  "ter": 437,
  "ĠA": 438,
  "ry": 439,
  "Ġupon": 440,
  "ore": 441,
  "ind": 442,
  "Ġfun": 443,
  "ill": 444,
  "Ġtoy": 445,
  "get": 446,
  "ame": 447,
  "Ġas": 448,
  "Ġat": 449,
  "ra": 450,
  "Ġj": 451,
  "Ġdid": 452,
  "gether": 453,
  "Ġre": 454,
  "ur": 455,
  "Ġse": 456,
  "Ġtogether": 457,
  "ack": 458,
  "ly": 459,
  "Ġcat": 460,
  "Ġtre": 461,
  "ood": 462,
  "ic": 463,
  "ted": 464,
  "Ġdog": 465,
  "Ġcould": 466,
  "Ġcan": 467,
  "Ġtheir": 468,
  "ard": 469,
  "ec": 470,
  "ark": 471,
  "Ġgir": 472,
  "Ġhim": 473,
  "Ġball": 474,
  "?\"": 475,
  "Ġplayed": 476,
  "Ġgirl": 477,
  "way": 478,
  "Ġgo": 479,
  "Ġro": 480,
  "hed": 481,
  "Ġare": 482,
  "my": 483,
  "Ġout": 484,
  "Ġle": 485,
  "Ġfr": 486,
  "ain": 487,
  "Ġthem": 488,
  "Ġkn": 489,
  "hen": 490,
  "'t": 491,
  "um": 492,
  "Ġsad": 493,
  "ax": 494,
  "ul": 495,
  "Ġboy": 496,
  "Ġtree": 497,
  "Ġhave": 498,
  "other": 499,
  "Ġman": 500,
  "Ġcl": 501,
  "Ġloved": 502,
  "Ġlooked": 503,
  "oug": 504,
  "Ġfound": 505,
  "Ġsp": 506,
  "Ġstar": 507,
  "ĠSue": 508,
  "one": 509,
  "hing": 510,
  "Ġsc": 511,
  "Ġback": 512,
  "own": 513,
  "ĠMax": 514,
  "are": 515,
  "Ġlike": 516,
  "ful": 517,
  "side": 518,
  "Ġme": 519,
  "Ġbec": 520,
  "ight": 521,
  "Ġcar": 522,
  "Ġpark": 523,
  "ong": 524,
  "op": 525,
  "elt": 526,
  "ĠOne": 527,
  "Ġwould": 528,
  "Ġliked": 529,
  "Ġla": 530,
  "round": 531,
  "Ġmake": 532,
  "Ġfa": 533,
  "You": 534,
  "Ġfelt": 535,
  "ell": 536,
  "Ġsee": 537,
  "ĠW": 538,
  "ĠBut": 539,
  "omet": 540,
  "Ġasked": 541,
  "ag": 542,
  "Ġnew": 543,
  "Ġno": 544,
  "ice": 545,
  "ĠBen": 546,
  "ouse": 547,
  "ĠSam": 548,
  "ared": 549,
  "Ġstarted": 550,
  "Ġcame": 551,
  "Ġal": 552,
  "Ġother": 553,
  "ought": 554,
  "iled": 555,
  "Ġag": 556,
  "Ġsomet": 557,
  "Ġgood": 558,
  "Ġsmall": 559,
  "ss": 560,
  "Ġbr": 561,
  "Ġsay": 562,
  "ried": 563,
  "Ġsmiled": 564,
  "ade": 565,
  "ings": 566,
  "ob": 567,
  "pot": 568,
  "Ġwor": 569,
  "Ġex": 570,
  "Ġfind": 571,
  "Ġč": 572,
  "Ġaway": 573,
  "ia": 574,
  "Ġwhat": 575,
  "ty": 576,
  "Ġco": 577,
  "Ġput": 578,
  "Ġfrom": 579,
  "Ġsomething": 580,
  "Ġmade": 581,
  "Ġthought": 582,
  "ened": 583,
  "Ġhome": 584,
  "Ġplaying": 585,
  "ook": 586,
  "Ġevery": 587,
  "Ġwal": 588,
  "Ġmu": 589,
  "uc": 590,
  "ach": 591,
  "arn": 592,
  "Ġran": 593,
  "ĠSpot": 594,
  "ile": 595,
  "ie": 596,
  "ĠF": 597,
  "ĠJ": 598,
  "ave": 599,
  "Ġagain": 600,
  "Ġsome": 601,
  "dd": 602,
  "Ġlaug": 603,
  "Ġhouse": 604,
  "Ġfl": 605,
  "Ġdown": 606,
  "king": 607,
  "Ġscared": 608,
  "Ġtook": 609,
  "Ġpr": 610,
  "Ġtoys": 611,
  "Ġlearn": 612,
  "ny": 613,
  "ure": 614,
  "ĠYou": 615,
  "Ġwill": 616,
  "if": 617,
  "ick": 618,
  "Ġbox": 619,
  "ab": 620,
  "ret": 621,
  "ep": 622,
  "Ġmy": 623,
  "Ġaround": 624,
  "Ġthings": 625,
  "Ġyour": 626,
  "oud": 627,
  "Ġbl": 628,
  "uck": 629,
  "Ġwhen": 630,
  "ish": 631,
  "Ġfe": 632,
  "Ġlived": 633,
  "Ġthen": 634,
  "Ġsun": 635,
  ",\"": 636,
  "Ġsw": 637,
  "as": 638,
  "Ġch": 639,
  "us": 640,
  "pped": 641,
  "Ġab": 642,
  "ĠMia": 643,
  "ank": 644,
  "Ġget": 645,
  "Tim": 646,
  "ist": 647,
  "ucy": 648,
  "ump": 649,
  "Th": 650,
  "Ġlot": 651,
  "oth": 652,
  "Ġsays": 653,
  "Ġtried": 654,
  "ap": 655,
  "Ġknow": 656,
  "Ġgot": 657,
  "ited": 658,
  "ust": 659,
  "Ġkne": 660,
  "Ġwho": 661,
  "Ġmany": 662,
  "nder": 663,
  "Ġabout": 664,
  "Ġint": 665,
  "Lily": 666,
  "Ġpret": 667,
  "ĠD": 668,
  "Ġdec": 669,
  "Ġany": 670,
  "Ġred": 671,
  "ive": 672,
  "Ġknew": 673,
  "ace": 674,
  "Ġmore": 675,
  "ous": 676,
  "ise": 677,
  "Ġcare": 678,
  "ally": 679,
  "qu": 680,
  "Ġpic": 681,
  "Ġwater": 682,
  "au": 683,
  "Ġhug": 684,
  "ĠLucy": 685,
  "Ġlearned": 686,
  "fter": 687,
  "Ġpo": 688,
  "Ġbest": 689,
  "Ġv": 690,
  "Ġbecame": 691,
  "Ġop": 692,
  "ause": 693,
  "Ġexc": 694,
  "Ġgre": 695,
  "ways": 696,
  "Ġlaughed": 697,
  "Ġoutside": 698,
  "urp": 699,
  "Ġlook": 700,
  "Ġalways": 701,
  "ant": 702,
  "âĢ": 703,
  "Ġdecid": 704,
  "Ġho": 705,
  "Ġroom": 706,
  "Ġshow": 707,
  "Ġun": 708,
  "ĠBob": 709,
  "Ġbecause": 710,
  "fe": 711,
  "Ġdecided": 712,
  "ĠSo": 713,
  "Ġeat": 714,
  "Ġinto": 715,
  "ite": 716,
  "Ġpe": 717,
  "Ġboth": 718,
  "ĠAnd": 719,
  "Ġjump": 720,
  "ers": 721,
  "Ġdad": 722,
  "They": 723,
  "ĠMom": 724,
  "udd": 725,
  "Ġke": 726,
  "Ġone": 727,
  "nn": 728,
  "Ġexcited": 729,
  "ĠE": 730,
  "Ġfast": 731,
  "Ġthis": 732,
  "Ġfeel": 733,
  "Tom": 734,
  "Ġnice": 735,
  "Ġrun": 736,
  "Yes": 737,
  "Ġlong": 738,
  "Ġam": 739,
  "Ġtold": 740,
  "Ġsk": 741,
  "our": 742,
  "ull": 743,
  "urpr": 744,
  "Ġtr": 745,
  "Ġinside": 746,
  "Ġmo": 747,
  "Ġsurpr": 748,
  "ink": 749,
  "Ġpretty": 750,
  "iny": 751,
  "Ġsor": 752,
  "Ġtake": 753,
  "Wh": 754,
  "og": 755,
  "Ġsl": 756,
  "nna": 757,
  "Ġgave": 758,
  "Ġmuch": 759,
  "Ġeach": 760,
  "Ġgra": 761,
  "lew": 762,
  "Ġstr": 763,
  "imal": 764,
  "Ġhow": 765,
  "ara": 766,
  "Ġanimal": 767,
  "Ġrock": 768,
  "ged": 769,
  "Ġthan": 770,
  "But": 771,
  "Ġneed": 772,
  "ven": 773,
  "Ġtow": 774,
  "etter": 775,
  "ĠC": 776,
  "Ġunder": 777,
  "Ġor": 778,
  "Ġold": 779,
  "ess": 780,
  "Ġsorry": 781,
  "ge": 782,
  "ro": 783,
  "ised": 784,
  "urt": 785,
  "Ġfish": 786,
  "Ġcle": 787,
  "and": 788,
  "Ġbear": 789,
  "Ġwalked": 790,
  "Ġclo": 791,
  "ft": 792,
  "ase": 793,
  "Ġhand": 794,
  "ast": 795,
  "urn": 796,
  "ĠWe": 797,
  "Ġkind": 798,
  "here": 799,
  "ĠHis": 800,
  "Ġlist": 801,
  "Ġte": 802,
  "Ġfood": 803,
  "Ġflow": 804,
  "Ġjust": 805,
  "Ġhappened": 806,
  "Ġhig": 807,
  "pl": 808,
  "Ġanimals": 809,
  "Ġtry": 810,
  "Ġdidn": 811,
  "Ġwat": 812,
  "Ġfi": 813,
  "ched": 814,
  "Ġnear": 815,
  "ine": 816,
  "Ġsky": 817,
  "Ġide": 818,
  "Ġsn": 819,
  "rom": 820,
  "ving": 821,
  "Ġus": 822,
  "Ġbug": 823,
  "Ġbetter": 824,
  "gry": 825,
  "Ġidea": 826,
  "ĠAmy": 827,
  "Ġheard": 828,
  "Ġits": 829,
  "Ġtw": 830,
  "ate": 831,
  "Ġlet": 832,
  "pec": 833,
  "able": 834,
  "Ġen": 835,
  "Ġcareful": 836,
  "Ġshare": 837,
  "ff": 838,
  "Mom": 839,
  "Thank": 840,
  "Ġif": 841,
  "ex": 842,
  "Ġstor": 843,
  "ial": 844,
  "Ġfly": 845,
  "more": 846,
  "Ġanymore": 847,
  "Ġflew": 848,
  "ĠTh": 849,
  "ion": 850,
  "Ġcom": 851,
  "Ġspec": 852,
  "Ġspecial": 853,
  "Ġby": 854,
  "Ġnever": 855,
  "lf": 856,
  "Ġlots": 857,
  "Ġdan": 858,
  "ream": 859,
  "Ġwind": 860,
  "Ġbu": 861,
  "Ġdon": 862,
  "Ġfo": 863,
  "Ġtal": 864,
  "ort": 865,
  "Ġclean": 866,
  "ople": 867,
  "Ġgr": 868,
  "rm": 869,
  "Ġend": 870,
  "Ġlove": 871,
  "Ġeven": 872,
  "ĠThen": 873,
  "Ġmag": 874,
  "ber": 875,
  "Ġhard": 876,
  "Ġover": 877,
  "udden": 878,
  "Ġfore": 879,
  "Ġshiny": 880,
  "Ġcake": 881,
  "ak": 882,
  "Ġcol": 883,
  "Ġbook": 884,
  "Ġturn": 885,
  "Ġafter": 886,
  "Ġpeople": 887,
  "ady": 888,
  "Ġsafe": 889,
  "ĠAnna": 890,
  "uddenly": 891,
  "Ġbad": 892,
  "ĠEvery": 893,
  "Ġfam": 894,
  "Ġproud": 895,
  "Let": 896,
  "Ġhigh": 897,
  "Ġcu": 898,
  "Ġsurprised": 899,
  "Ġhurt": 900,
  "Ġloud": 901,
  "pected": 902,
  "Ġdoor": 903,
  "imb": 904,
  "Ġcome": 905,
  "arden": 906,
  "Ġgarden": 907,
  "Ġopened": 908,
  "Ġground": 909,
  "Ġche": 910,
  "Ġclimb": 911,
  "Ġpicked": 912,
  "bb": 913,
  "Ġgl": 914,
  "Ġim": 915,
  "expected": 916,
  "Ġunexpected": 917,
  "As": 918,
  "ild": 919,
  "Ġgive": 920,
  "Ġstill": 921,
  "Ġcolor": 922,
  "Ġway": 923,
  "Ġthanked": 924,
  "Ġever": 925,
  "Ġblue": 926,
  "ail": 927,
  "'m": 928,
  "Ġfar": 929,
  "Ġhugged": 930,
  "Ġcall": 931,
  "ĠFrom": 932,
  "ip": 933,
  "No": 934,
  "ĠHer": 935,
  "Ġmagic": 936,
  "Ġoff": 937,
  "ĠSara": 938,
  "ĠWhen": 939,
  "ĠK": 940,
  "ough": 941,
  "ummy": 942,
  "age": 943,
  "iz": 944,
  "Ġjumped": 945,
  "Ġpar": 946,
  "Ġshould": 947,
  "ool": 948,
  "Ġkid": 949,
  "Ġsmile": 950,
  "Ġfamily": 951,
  "Ġplace": 952,
  "hes": 953,
  "kay": 954,
  "Ġnow": 955,
  "ĠIn": 956,
  "ct": 957,
  "Ġqu": 958,
  "uff": 959,
  "Ġwalk": 960,
  "em": 961,
  "Ġgreat": 962,
  "Ġunt": 963,
  "ture": 964,
  "aut": 965,
  "Ġstay": 966,
  "Ġsto": 967,
  "Ġstrong": 968,
  "Ġforest": 969,
  "les": 970,
  "ane": 971,
  "itty": 972,
  "Ġbro": 973,
  "Ġbra": 974,
  "ĠP": 975,
  "Ġuntil": 976,
  "Ġbeaut": 977,
  "dy": 978,
  "Ġfrog": 979,
  "oon": 980,
  "Ġsqu": 981,
  "lease": 982,
  "Ġstick": 983,
  "xt": 984,
  "Ġnext": 985,
  "Ġboat": 986,
  "Ġlisten": 987,
  "ning": 988,
  "Ġhappily": 989,
  "th": 990,
  "iful": 991,
  "Ġbeautiful": 992,
  "aking": 993,
  "ies": 994,
  "Ġkids": 995,
  "be": 996,
  "Ġtra": 997,
  "Ġapp": 998,
  "Ġhelped": 999,
  "Ġimp": 1000,
  "Ġclos": 1001,
  "Ġstory": 1002,
  "rel": 1003,
  "Ġshowed": 1004,
  "oy": 1005,
  "Ġwhile": 1006,
  "unny": 1007,
  "Ġdra": 1008,
  "pt": 1009,
  "Ġtown": 1010,
  "ress": 1011,
  "Ġpicture": 1012,
  "It": 1013,
  "Ġrain": 1014,
  "Ġbeing": 1015,
  "Ġeveryone": 1016,
  "Ġrem": 1017,
  "Ġmor": 1018,
  "Ġhat": 1019,
  "ree": 1020,
  "Ġcalled": 1021,
  "ary": 1022,
  "Ġstopped": 1023,
  "Ġad": 1024,
  "Ġmet": 1025,
  "Ġgame": 1026,
  "He": 1027,
  "Now": 1028,
  "ger": 1029,
  "Can": 1030,
  "Ġangry": 1031,
  "Ġopen": 1032,
  "Ġtruck": 1033,
  "Ġwo": 1034,
  "Ġkeep": 1035,
  "When": 1036,
  "Ġsoft": 1037,
  "Ġbed": 1038,
  "Ġcry": 1039,
  "ĠLet": 1040,
  "Ġyummy": 1041,
  "uffy": 1042,
  "Ġwarm": 1043,
  "vent": 1044,
  "Ġlost": 1045,
  "Ġmouse": 1046,
  "by": 1047,
  "Ġate": 1048,
  "ĠSally": 1049,
  "ĠKitty": 1050,
  "Ġbrave": 1051,
  "ished": 1052,
  "Ġde": 1053,
  "so": 1054,
  "ĠWh": 1055,
  "fore": 1056,
  "Ġwatch": 1057,
  "Ġcouldn": 1058,
  "Ġdoll": 1059,
  "Ġalso": 1060,
  "dded": 1061,
  "Ġleave": 1062,
  "Ġgreen": 1063,
  "Ġtwo": 1064,
  "Ġfell": 1065,
  "Ġface": 1066,
  "irst": 1067,
  "iss": 1068,
  "bit": 1069,
  "Ġflowers": 1070,
  "abbit": 1071,
  "Ġnoise": 1072,
  "gan": 1073,
  "What": 1074,
  "ble": 1075,
  "az": 1076,
  "ĠR": 1077,
  "owl": 1078,
  "Ġwhere": 1079,
  "ock": 1080,
  "Ġsoon": 1081,
  "Ġhole": 1082,
  "self": 1083,
  "Ġrabbit": 1084,
  "Ġslide": 1085,
  "irrel": 1086,
  "Ġhear": 1087,
  "Ġbefore": 1088,
  "Ġsat": 1089,
  "ired": 1090,
  "Ġkept": 1091,
  "illy": 1092,
  "Ġuse": 1093,
  "Ġpus": 1094,
  "Ġsquirrel": 1095,
  "ear": 1096,
  "Ġpa": 1097,
  "luffy": 1098,
  "Then": 1099,
  "Ġnodded": 1100,
  "ma": 1101,
  "Ġcook": 1102,
  "That": 1103,
  "Hi": 1104,
  "Ġexpl": 1105,
  "Ġhands": 1106,
  "âĢĿ": 1107,
  "Look": 1108,
  "Ġbirds": 1109,
  "âĢľ": 1110,
  "Ġpain": 1111,
  "Ġstore": 1112,
  "Ġgoing": 1113,
  "Ġfunny": 1114,
  "uch": 1115,
  "day": 1116,
  "aybe": 1117,
  "Ġsing": 1118,
  "Ġey": 1119,
  "aug": 1120,
  "Ġhaving": 1121,
  "aught": 1122,
  "Ġthink": 1123,
  "Ġyell": 1124,
  "ĠCan": 1125,
  "Ġcatch": 1126,
  "leep": 1127,
  "Ġfin": 1128,
  "Ben": 1129,
  "uit": 1130,
  "Ġcra": 1131,
  "Ġfix": 1132,
  "Ġbre": 1133,
  "Ġbus": 1134,
  "Ġtired": 1135,
  "Ġbunny": 1136,
  "ange": 1137,
  "Ġlooking": 1138,
  "ĠFluffy": 1139,
  "Ġwork": 1140,
  "Ġused": 1141,
  "air": 1142,
  "Ġpull": 1143,
  "We": 1144,
  "Ġwait": 1145,
  "Ġwr": 1146,
  "Ġkit": 1147,
  "Ġour": 1148,
  "Ġthr": 1149,
  "Ġsound": 1150,
  "ĠG": 1151,
  "thing": 1152,
  "ĠNow": 1153,
  "Ġjo": 1154,
  "Ġhas": 1155,
  "Ġbeh": 1156,
  "Ġmean": 1157,
  "Ġask": 1158,
  "Ġsunny": 1159,
  "led": 1160,
  "ting": 1161,
  "Ġpond": 1162,
  "ember": 1163,
  "Ġdr": 1164,
  "Ġothers": 1165,
  "ng": 1166,
  "Ġtalk": 1167,
  "chen": 1168,
  "Ġkitchen": 1169,
  "rew": 1170,
  "Ġpie": 1171,
  "Ġfirst": 1172,
  "Ġhead": 1173,
  "Ġflo": 1174,
  "ĠJo": 1175,
  "ath": 1176,
  "Ġdif": 1177,
  "Ġeyes": 1178,
  "Ġimport": 1179,
  "Ġz": 1180,
  "ello": 1181,
  "Hello": 1182,
  "Ġreal": 1183,
  "Ġtri": 1184,
  "Ġfav": 1185,
  "Ġright": 1186,
  "Ġcold": 1187,
  "eet": 1188,
  "Ġmess": 1189,
  "joy": 1190,
  "Ġflower": 1191,
  "orn": 1192,
  "Ġcon": 1193,
  "Ġvo": 1194,
  "Ġremember": 1195,
  "ious": 1196,
  "Ġmommy": 1197,
  "Ġsand": 1198,
  "Ġparty": 1199,
  "ĠDo": 1200,
  "Ġimportant": 1201,
  "ac": 1202,
  "Ġmoral": 1203,
  "ount": 1204,
  "Ġcuri": 1205,
  "imes": 1206,
  "Ġshared": 1207,
  "Ġrace": 1208,
  "Ġokay": 1209,
  "Ġown": 1210,
  "Ġadvent": 1211,
  "Ġbright": 1212,
  "Ġdress": 1213,
  "ĠâĢľ": 1214,
  "llow": 1215,
  "Ġworked": 1216,
  "At": 1217,
  "Ġduck": 1218,
  "Ġice": 1219,
  "Ġenjoy": 1220,
  "Ġmaking": 1221,
  "zy": 1222,
  "Ġcurious": 1223,
  "Ġtall": 1224,
  "Ġhid": 1225,
  "Ġhop": 1226,
  "hn": 1227,
  "ĠJack": 1228,
  "Ġdis": 1229,
  "Ġdir": 1230,
  "reed": 1231,
  "Wow": 1232,
  "Ġsleep": 1233,
  "Ġhill": 1234,
  "Don": 1235,
  "Ġbegan": 1236,
  "Ġri": 1237,
  "Ġfavor": 1238,
  "Ġrest": 1239,
  "Ġfavorite": 1240,
  "Ġthing": 1241,
  "Ġdraw": 1242,
  "Ġbag": 1243,
  "Ġyard": 1244,
  "Ġhere": 1245,
  "Ġtell": 1246,
  "Ġmon": 1247,
  "ster": 1248,
  "ĠFin": 1249,
  "Ġcla": 1250,
  "Ġbel": 1251,
  "Ġfollow": 1252,
  "Ġmove": 1253,
  "Ġwatched": 1254,
  "Ġnight": 1255,
  "ect": 1256,
  "que": 1257,
  "Ġhun": 1258,
  "lly": 1259,
  "Ġagreed": 1260,
  "co": 1261,
  "Ġblock": 1262,
  "Ġstop": 1263,
  "Ġpick": 1264,
  "Ġbehind": 1265,
  "Ġhot": 1266,
  "ĠThis": 1267,
  "After": 1268,
  "Ġcut": 1269,
  "aper": 1270,
  "ied": 1271,
  "Ġtable": 1272,
  "Ġsho": 1273,
  "Ġsurprise": 1274,
  "Ġgrass": 1275,
  "Ġwalking": 1276,
  "Ġvoice": 1277,
  "Ġtrees": 1278,
  "ĠDad": 1279,
  "Ġworry": 1280,
  "Ġfarm": 1281,
  "Ġplease": 1282,
  "Ġsweet": 1283,
  "Ġdark": 1284,
  "Ġlion": 1285,
  "fere": 1286,
  "Ġtop": 1287,
  "Ġru": 1288,
  "Ġsong": 1289,
  "Ġdiffere": 1290,
  "Ġshout": 1291,
  "Ġlady": 1292,
  "Ġtail": 1293,
  "isy": 1294,
  "Ġbutter": 1295,
  "Max": 1296,
  "Ġfloor": 1297,
  "Ġread": 1298,
  "Ġforg": 1299,
  "Ġcolors": 1300,
  "Ġcloser": 1301,
  "Ġleaves": 1302,
  "Ġturned": 1303,
  "Ġcried": 1304,
  "Ġwood": 1305,
  "ign": 1306,
  "aring": 1307,
  "Why": 1308,
  "Ġdel": 1309,
  "Ġfire": 1310,
  "Ġneeded": 1311,
  "Ġtast": 1312,
  "Ġlaugh": 1313,
  "Ġpiece": 1314,
  "Ġdifferent": 1315,
  "Ġcars": 1316,
  "ike": 1317,
  "Ġhungry": 1318,
  "Ġdoes": 1319,
  "Ġadventure": 1320,
  "Ġcr": 1321,
  "Ġroll": 1322,
  "Ġprin": 1323,
  "ĠSuddenly": 1324,
  "Anna": 1325,
  "ered": 1326,
  "Ġfeeling": 1327,
  "Ġfull": 1328,
  "Sue": 1329,
  "âĢĻ": 1330,
  "Ġhair": 1331,
  "Ġyellow": 1332,
  "Ġtouch": 1333,
  "Sam": 1334,
  "ĠAs": 1335,
  "bo": 1336,
  "ĠMr": 1337,
  "Ġpaper": 1338,
  "Ġper": 1339,
  "ken": 1340,
  "oom": 1341,
  "Ġwet": 1342,
  "cked": 1343,
  "Ġfriendly": 1344,
  "ached": 1345,
  "Ġbroken": 1346,
  "ient": 1347,
  "Ġlight": 1348,
  "Ġfruit": 1349,
  "Ġswing": 1350,
  "ĠBobo": 1351,
  "Ġready": 1352,
  "bye": 1353,
  "where": 1354,
  "Ġpretend": 1355,
  "Ġanother": 1356,
  "ppy": 1357,
  "Ġlistened": 1358,
  "Ġprom": 1359,
  "Ġclimbed": 1360,
  "ĠThat": 1361,
  "Ġswim": 1362,
  "Ġdanc": 1363,
  "Ġdance": 1364,
  "ater": 1365,
  "Ġonly": 1366,
  "Ġrunning": 1367,
  "Ġgone": 1368,
  "bbed": 1369,
  "Suddenly": 1370,
  "Ġplan": 1371,
  "ndma": 1372,
  "Ġclose": 1373,
  "ila": 1374,
  "av": 1375,
  "sh": 1376,
  "She": 1377,
  "ĠJane": 1378,
  "aby": 1379,
  "Ġhold": 1380,
  "So": 1381,
  "Ġamaz": 1382,
  "Ġtrain": 1383,
  "Sara": 1384,
  "Ġsees": 1385,
  "Ġsmell": 1386,
  "Ġwall": 1387,
  "Ġblocks": 1388,
  "Ġwonder": 1389,
  "Ġrepl": 1390,
  "Ġreached": 1391,
  "ĠAll": 1392,
  "Ġac": 1393,
  "oney": 1394,
  "Ġhelping": 1395,
  "Ġslow": 1396,
  "red": 1397,
  "ĠTimmy": 1398,
  "Ġant": 1399,
  "Ġfight": 1400,
  "Ġbutterf": 1401,
  "af": 1402,
  "Ġless": 1403,
  "Ġdri": 1404,
  "Ġglad": 1405,
  "Ġgoodbye": 1406,
  "ather": 1407,
  "Ġpu": 1408,
  "Ġbeen": 1409,
  "Ġcool": 1410,
  "Mia": 1411,
  "Ġfair": 1412,
  "iced": 1413,
  "Ġpushed": 1414,
  "ĠO": 1415,
  "Ġhide": 1416,
  "Ġcream": 1417,
  "Ġwindow": 1418,
  "Ġmust": 1419,
  "Ġmoment": 1420,
  "Ġwished": 1421,
  "Ġste": 1422,
  "Ġsit": 1423,
  "Ġwag": 1424,
  "Ġbaby": 1425,
  "Ġballoon": 1426,
  "ĠEveryone": 1427,
  "Ġmight": 1428,
  "Ġexplore": 1429,
  "icy": 1430,
  "Ġstuck": 1431,
  "Ġperf": 1432,
  "Ġsnow": 1433,
  "Ġname": 1434,
  "Ġdone": 1435,
  "Ġar": 1436,
  "Ġchild": 1437,
  "Ġlooks": 1438,
  "Ġthank": 1439,
  "Ġquick": 1440,
  "Ġbuy": 1441,
  "Ġapple": 1442,
  "Ġbar": 1443,
  "Ġcoming": 1444,
  "Ġtrying": 1445,
  "aisy": 1446,
  "Ġfall": 1447,
  "ash": 1448,
  "Ġbuild": 1449,
  "ized": 1450,
  "Ġunderst": 1451,
  "Ġdream": 1452,
  "Ġbit": 1453,
  "Ġscary": 1454,
  "Ġheld": 1455,
  "Ġcount": 1456,
  "Ġdoing": 1457,
  "Ġdirty": 1458,
  "Ġmar": 1459,
  "Ġwin": 1460,
  "In": 1461,
  "Ġleft": 1462,
  "ames": 1463,
  "Ġdin": 1464,
  "Ġshouted": 1465,
  "Ġland": 1466,
  "Ġbooks": 1467,
  "avy": 1468,
  "Ġreplied": 1469,
  "ott": 1470,
  "Ġair": 1471,
  "Ġtiny": 1472,
  "Ġreach": 1473,
  "Ġdro": 1474,
  "Ġthrough": 1475,
  "andy": 1476,
  "Ġwise": 1477,
  "Ġwhy": 1478,
  "Ġbran": 1479,
  "Ġpulled": 1480,
  "Ġgrow": 1481,
  "Ġthree": 1482,
  "'re": 1483,
  "Ġbutterfly": 1484,
  "Ġseen": 1485,
  "Ġspl": 1486,
  "Ġwoods": 1487,
  "Ġfill": 1488,
  "Ġtreat": 1489,
  "Ġcup": 1490,
  "Ġsure": 1491,
  "Ġcolorful": 1492,
  "Ġpink": 1493,
  "key": 1494,
  "outh": 1495,
  "ely": 1496,
  "Ġswam": 1497,
  "Ġchair": 1498,
  "ask": 1499,
  "Ġowl": 1500,
  "ins": 1501,
  "Ġmouth": 1502,
  "ph": 1503,
  "Ġmat": 1504,
  "Ġbrother": 1505,
  "pe": 1506,
  "Ġjob": 1507,
  "Ġcloud": 1508,
  "Ġplant": 1509,
  "Ġsometimes": 1510,
  "ix": 1511,
  "Ġclapped": 1512,
  "Ġcre": 1513,
  "Ġbigger": 1514,
  "Ġnest": 1515,
  "Ġlesson": 1516,
  "uddy": 1517,
  "Ġremembered": 1518,
  "Ġwaved": 1519,
  "ĠThere": 1520,
  "Ġjoin": 1521,
  "ield": 1522,
  "ower": 1523,
  "room": 1524,
  "Ġstayed": 1525,
  "Oh": 1526,
  "Ġclot": 1527,
  "This": 1528,
  "art": 1529,
  "Ġclothes": 1530,
  "Ġgrabbed": 1531,
  "Okay": 1532,
  "Ġcont": 1533,
  "oup": 1534,
  "Ġpaint": 1535,
  "Ġve": 1536,
  "Ġquickly": 1537,
  "cle": 1538,
  "Ġword": 1539,
  "Ġwaited": 1540,
  "ĠAfter": 1541,
  "Ġcast": 1542,
  "Ġbroke": 1543,
  "Ġblew": 1544,
  "ĠMommy": 1545,
  "Ġset": 1546,
  "ries": 1547,
  "Ġnoticed": 1548,
  "Ġgames": 1549,
  "Jo": 1550,
  "ucky": 1551,
  "Ġgent": 1552,
  "Ġworld": 1553,
  "Ġalone": 1554,
  "Ġenjoyed": 1555,
  "Ġlikes": 1556,
  "ation": 1557,
  "Ġgif": 1558,
  "de": 1559,
  "Ġmiss": 1560,
  "Ġheavy": 1561,
  "Ġsea": 1562,
  "ton": 1563,
  "Ġpictures": 1564,
  "Ġpot": 1565,
  "Ġhopped": 1566,
  "Ġanything": 1567,
  "Ġspot": 1568,
  "asure": 1569,
  "Ġturns": 1570,
  "Ġmus": 1571,
  "lc": 1572,
  "Ġyear": 1573,
  "Ġpen": 1574,
  "Ġbott": 1575,
  "Ġbike": 1576,
  "orm": 1577,
  "Her": 1578,
  "Ġpat": 1579,
  "der": 1580,
  "Ġtight": 1581,
  "Ġtower": 1582,
  "Ġeverywhere": 1583,
  "Ġarm": 1584,
  "Ġride": 1585,
  "Ġhimself": 1586,
  "Ġwon": 1587,
  "ĠBuddy": 1588,
  "ape": 1589,
  "Ġmix": 1590,
  "Ġthrew": 1591,
  "Lucy": 1592,
  "Ġju": 1593,
  "less": 1594,
  "Ġfollowed": 1595,
  "Ġcomp": 1596,
  "ĠDaisy": 1597,
  "man": 1598,
  "Ġkey": 1599,
  "row": 1600,
  "ctor": 1601,
  "Bob": 1602,
  "amp": 1603,
  "Ġje": 1604,
  "olly": 1605,
  "\".": 1606,
  "thy": 1607,
  "Ġdeep": 1608,
  "ee": 1609,
  "Ġmakes": 1610,
  "arent": 1611,
  "Ġwhite": 1612,
  "Ġbreak": 1613,
  "Ġwrong": 1614,
  "ĠWhat": 1615,
  "Ġdelic": 1616,
  "Ġpol": 1617,
  "ued": 1618,
  "Ġblack": 1619,
  "ner": 1620,
  "ves": 1621,
  "Ġem": 1622,
  "Ġparent": 1623,
  "Ġcastle": 1624,
  "Ġforgot": 1625,
  "Ġmusic": 1626,
  "Spot": 1627,
  "cess": 1628,
  "Ġwear": 1629,
  "oun": 1630,
  "iet": 1631,
  "Ġbee": 1632,
  "Ġquiet": 1633,
  "Do": 1634,
  "Ġwants": 1635,
  "up": 1636,
  "Ġhit": 1637,
  "ister": 1638,
  "ully": 1639,
  "Ġround": 1640,
  "ance": 1641,
  "rot": 1642,
  "Ġmonster": 1643,
  "Ġdanced": 1644,
  "Ġvis": 1645,
  "Ġcookies": 1646,
  "Ġunderstand": 1647,
  "ĠJohn": 1648,
  "Ġleaf": 1649,
  "Ġbor": 1650,
  "Ġdry": 1651,
  "Ġtalked": 1652,
  "Ġbowl": 1653,
  "Ġnap": 1654,
  "Ġfaster": 1655,
  "fully": 1656,
  "ren": 1657,
  "os": 1658,
  "Ġbrought": 1659,
  "Ġleg": 1660,
  "Ġmum": 1661,
  "ross": 1662,
  "ang": 1663,
  "ts": 1664,
  "zz": 1665,
  "From": 1666,
  "ĠInside": 1667,
  "Ġside": 1668,
  "Ġsec": 1669,
  "Ġsmart": 1670,
  "His": 1671,
  "itten": 1672,
  "Ġpoin": 1673,
  "Ġhappen": 1674,
  "eddy": 1675,
  "Ġking": 1676,
  "Ġele": 1677,
  "Ġsomeone": 1678,
  "Ġsharing": 1679,
  "ards": 1680,
  "Ġsign": 1681,
  "Ġfinished": 1682,
  "Ġwell": 1683,
  "Ġrocks": 1684,
  "Ġfox": 1685,
  "Ġbranch": 1686,
  "cy": 1687,
  "ence": 1688,
  "Ġrel": 1689,
  "Ġreally": 1690,
  "Ġres": 1691,
  "ĠLila": 1692,
  "Ġworried": 1693,
  "Ġsister": 1694,
  "Ġdinner": 1695,
  "Ġcontin": 1696,
  "Ġsecret": 1697,
  "Ġbutton": 1698,
  "Ġbeach": 1699,
  "Ġvisit": 1700,
  "Ġel": 1701,
  "ĠTo": 1702,
  "ipp": 1703,
  "John": 1704,
  "Ġtoday": 1705,
  "ĠMaybe": 1706,
  "Ġperfect": 1707,
  "Ġque": 1708,
  "Ġdanger": 1709,
  "Ġflying": 1710,
  "Ġpudd": 1711,
  "ĠSarah": 1712,
  "Ġeverything": 1713,
  "Ġsilly": 1714,
  "gy": 1715,
  "Ġfilled": 1716,
  "Ġriver": 1717,
  "Ġshin": 1718,
  "Ġgu": 1719,
  "Ġwish": 1720,
  "Ġelse": 1721,
  "ĠEm": 1722,
  "ĠAt": 1723,
  "Ġsmiles": 1724,
  "Ġgi": 1725,
  "Ġwelc": 1726,
  "ĠSoon": 1727,
  "ĠJoe": 1728,
  "Ġsang": 1729,
  "Ġchildren": 1730,
  "Ġbite": 1731,
  "Ġfur": 1732,
  "Ġparents": 1733,
  "Ġfree": 1734,
  "Ġpromised": 1735,
  "Ġpieces": 1736,
  "While": 1737,
  "Ġsnack": 1738,
  "Ġfield": 1739,
  "Ġspr": 1740,
  "Ġcontinued": 1741,
  "Ġrealized": 1742,
  "ated": 1743,
  "Ġeating": 1744,
  "Ġcarefully": 1745,
  "Ġear": 1746,
  "Ġjar": 1747,
  "ze": 1748,
  "Maybe": 1749,
  "Just": 1750,
  "Ġpig": 1751,
  "itting": 1752,
  "ead": 1753,
  "ord": 1754,
  "cket": 1755,
  "Amy": 1756,
  "Ġblank": 1757,
  "Ġmud": 1758,
  "Ġsnake": 1759,
  "stead": 1760,
  "Ġenough": 1761,
  "Ġcow": 1762,
  "Ġsail": 1763,
  "Ġboun": 1764,
  "Ġblanket": 1765,
  "Ġorange": 1766,
  "Ġcrying": 1767,
  "ĠZ": 1768,
  "Ġrolled": 1769,
  "Ġfairy": 1770,
  "Ġyes": 1771,
  "Ġsoup": 1772,
  "Ġcrab": 1773,
  "ire": 1774,
  "Ġthrow": 1775,
  "Ġamazing": 1776,
  "ses": 1777,
  "ich": 1778,
  "Ġdrink": 1779,
  "Ġpurp": 1780,
  "Ġlaughing": 1781,
  "Ġwords": 1782,
  "Ġcandy": 1783,
  "Ġbath": 1784,
  "ons": 1785,
  "ĠGra": 1786,
  "Ġbottle": 1787,
  "iver": 1788,
  "Ġwithout": 1789,
  "used": 1790,
  "ĠBilly": 1791,
  "imi": 1792,
  "Ġgrandma": 1793,
  "Ġdrag": 1794,
  "Ġgift": 1795,
  "Ġpet": 1796,
  "Ġdoctor": 1797,
  "Ġwagged": 1798,
  "ale": 1799,
  "Fin": 1800,
  "Ġasks": 1801,
  "Ġmoney": 1802,
  "fort": 1803,
  "chool": 1804,
  "unch": 1805,
  "Ġpurple": 1806,
  "Ġowner": 1807,
  "Ġbrown": 1808,
  "Ġmoved": 1809,
  "Ġbarked": 1810,
  "Ġgetting": 1811,
  "Ġwhe": 1812,
  "Ġwelcome": 1813,
  "ises": 1814,
  "Ġclosed": 1815,
  "Ġdangerous": 1816,
  "Ġschool": 1817,
  "Ġatt": 1818,
  "Ġpast": 1819,
  "Ġmorning": 1820,
  "Ġsmo": 1821,
  "Ġsitting": 1822,
  "Ġmother": 1823,
  "gg": 1824,
  "Ġhigher": 1825,
  "Ġlon": 1826,
  "Ġlake": 1827,
  "Ġmail": 1828,
  "Ġlonely": 1829,
  "Ġtreasure": 1830,
  "Ġshining": 1831,
  "Ġcreat": 1832,
  "Ġmonkey": 1833,
  "Ġroad": 1834,
  "Ġra": 1835,
  "Ġstrange": 1836,
  "ey": 1837,
  "ased": 1838,
  "Ġchee": 1839,
  "Ġbuck": 1840,
  "Ġliving": 1841,
  "Ġruns": 1842,
  "althy": 1843,
  ".âĢĿ": 1844,
  "Ġ-": 1845,
  "ĠCh": 1846,
  "Ġshop": 1847,
  "Ġshoes": 1848,
  "Ġtalking": 1849,
  "Ġpaw": 1850,
  "ĠTommy": 1851,
  "Ġpre": 1852,
  "Ġcaught": 1853,
  "una": 1854,
  "ere": 1855,
  "ush": 1856,
  "ol": 1857,
  "Ġstre": 1858,
  "!âĢĿ": 1859,
  "Ġapples": 1860,
  "Ġpuddle": 1861,
  "ible": 1862,
  "me": 1863,
  "vel": 1864,
  "Ġpass": 1865,
  "Ġegg": 1866,
  "Ġmad": 1867,
  "Mommy": 1868,
  "Ġteddy": 1869,
  "Ġthinks": 1870,
  "Ġstone": 1871,
  "ass": 1872,
  "Ġfan": 1873,
  "asket": 1874,
  "Ġbasket": 1875,
  "Ġdelicious": 1876,
  "ub": 1877,
  "Ġwhist": 1878,
  "app": 1879,
  "phant": 1880,
  "set": 1881,
  "board": 1882,
  "Ġyears": 1883,
  "cks": 1884,
  "Ġletter": 1885,
  "ĠBl": 1886,
  "Ġmine": 1887,
  "Ġwings": 1888,
  "Ġfarmer": 1889,
  "Ġcoat": 1890,
  "fish": 1891,
  "Ġsame": 1892,
  "Ġstand": 1893,
  "Ġbelie": 1894,
  "Ġfit": 1895,
  "Ġstart": 1896,
  "igh": 1897,
  "Ġsear": 1898,
  "ubb": 1899,
  "itch": 1900,
  "Ġfinally": 1901,
  "Ġcray": 1902,
  "Ġtom": 1903,
  "Ġpill": 1904,
  "Ġdays": 1905,
  "Ġnose": 1906,
  "ches": 1907,
  "Ġkite": 1908,
  "ĠMimi": 1909,
  "Ġgentle": 1910,
  "Ġscream": 1911,
  "igg": 1912,
  "Ġtasty": 1913,
  "Ġhoped": 1914,
  "Ġelephant": 1915,
  "Ġcho": 1916,
  "Ġbring": 1917,
  "Ġhor": 1918,
  "Ġvill": 1919,
  "Ġsinging": 1920,
  "Ġwore": 1921,
  "Ġswings": 1922,
  "Ġbat": 1923,
  "isk": 1924,
  "ella": 1925,
  "ined": 1926,
  "ier": 1927,
  "Please": 1928,
  "Ġben": 1929,
  "Ġdragon": 1930,
  "sw": 1931,
  "sc": 1932,
  "sy": 1933,
  "arm": 1934,
  "Ġshell": 1935,
  "Ġcarrot": 1936,
  "Ġtrou": 1937,
  "Ġansw": 1938,
  "Ġbelong": 1939,
  "Ġherself": 1940,
  "Ġcoll": 1941,
  "Ġbush": 1942,
  "Ġph": 1943,
  "bow": 1944,
  "Ġteach": 1945,
  "Ġshap": 1946,
  "Ġpush": 1947,
  "Ġsack": 1948,
  "Ġcour": 1949,
  "Ġarri": 1950,
  "Ġhiding": 1951,
  "aughty": 1952,
  "emy": 1953,
  "Ġdropped": 1954,
  "Ġnaughty": 1955,
  "ract": 1956,
  "'ll": 1957,
  "llie": 1958,
  "Ġteac": 1959,
  "erry": 1960,
  "Ġwoke": 1961,
  "Ġseem": 1962,
  "Ġpile": 1963,
  "Ġtouc": 1964,
  "Ġcourse": 1965,
  "iskers": 1966,
  "Ġmin": 1967,
  "Ġlunch": 1968,
  "Ġcheese": 1969,
  "Ġjuice": 1970,
  "Ġgrew": 1971,
  "Ġshapes": 1972,
  "fused": 1973,
  "isa": 1974,
  "ama": 1975,
  "irth": 1976,
  "irthday": 1977,
  "ĠJen": 1978,
  "Ġpuppy": 1979,
  "Ġtwins": 1980,
  "Ġrainbow": 1981,
  "idge": 1982,
  "ipped": 1983,
  "Ġbow": 1984,
  "OK": 1985,
  "Ġpers": 1986,
  "Ġcheered": 1987,
  "ball": 1988,
  "Ġrope": 1989,
  "Ġvillage": 1990,
  "Ġfence": 1991,
  "ĠFred": 1992,
  "Ġshook": 1993,
  "Jack": 1994,
  "Ġsounds": 1995,
  "Ġrob": 1996,
  "Ġcorn": 1997,
  "Ġspoon": 1998,
  "Ġbench": 1999,
  "Ġpower": 2000,
  "Ġstreet": 2001,
  "Ġcarry": 2002,
  "Ġtouched": 2003,
  "Ġspin": 2004,
  "Ġbell": 2005,
  "Ġprob": 2006,
  "Ġwra": 2007,
  "col": 2008,
  "Ġwar": 2009,
  "Ġeas": 2010,
  "Ġjoy": 2011,
  "ĠBlue": 2012,
  "Ġfew": 2013,
  "Ġdes": 2014,
  "eb": 2015,
  "Ġspo": 2016,
  "Ġplane": 2017,
  "Ġbirthday": 2018,
  "Ġable": 2019,
  "Ġseed": 2020,
  "Ġcute": 2021,
  "Ġmost": 2022,
  "Ġforever": 2023,
  "umb": 2024,
  "Ġarrived": 2025,
  "Good": 2026,
  "lla": 2027,
  "lem": 2028,
  "Ġwonderful": 2029,
  "Ġfeels": 2030,
  "Ġnut": 2031,
  "Ġteacher": 2032,
  "Ġproblem": 2033,
  "Ġinc": 2034,
  "ilk": 2035,
  "Ġneck": 2036,
  "Ġkiss": 2037,
  "Ġbusy": 2038,
  "ĠEmma": 2039,
  "Ġbugs": 2040,
  "ĠWhiskers": 2041,
  "Finally": 2042,
  "br": 2043,
  "Ġdolls": 2044,
  "Ġmilk": 2045,
  "Ġshake": 2046,
  "Ġrobot": 2047,
  "Ġpocket": 2048,
  "ian": 2049,
  "eter": 2050,
  "Ġshy": 2051,
  "ĠThank": 2052,
  "Ġheart": 2053,
  "Ġpromise": 2054,
  "Ġcave": 2055,
  "ato": 2056,
  "Ġbread": 2057,
  "Ġhelpful": 2058,
  "gly": 2059,
  "Ġob": 2060,
  "Ġrec": 2061,
  "Ġstorm": 2062,
  "eared": 2063,
  "ountain": 2064,
  "Ġband": 2065,
  "Ġshr": 2066,
  "Ġpop": 2067,
  "Ġslowly": 2068,
  "irt": 2069,
  "irp": 2070,
  "Ġbelieve": 2071,
  "Ġtowards": 2072,
  "arp": 2073,
  "Ġugly": 2074,
  "Ġcover": 2075,
  "Ġpatient": 2076,
  "Ġlive": 2077,
  "urtle": 2078,
  "Ġbucket": 2079,
  "Ġholding": 2080,
  "Ġhoney": 2081,
  "Ġupset": 2082,
  "Ġdisapp": 2083,
  "umpy": 2084,
  "Ġcir": 2085,
  "Ġsharp": 2086,
  "ĠRemy": 2087,
  "read": 2088,
  "Ġdirt": 2089,
  "Ġsuc": 2090,
  "Ġnoises": 2091,
  "ove": 2092,
  "Ġseat": 2093,
  "Ġspark": 2094,
  "adow": 2095,
  "ĠBella": 2096,
  "Ġglow": 2097,
  "ĠLe": 2098,
  "Ġstories": 2099,
  "Ġgray": 2100,
  "Ġtreats": 2101,
  "Ġlate": 2102,
  "oggy": 2103,
  "Ġamazed": 2104,
  "Ġturtle": 2105,
  "ost": 2106,
  "Ġdist": 2107,
  "Ġseek": 2108,
  "Ġzoom": 2109,
  "ourn": 2110,
  "Ġmagical": 2111,
  "Ġmeet": 2112,
  "Ġyoung": 2113,
  "Ġdriver": 2114,
  "Ġballs": 2115,
  "Ġjourn": 2116,
  "Ġkitten": 2117,
  "Ġlem": 2118,
  "ator": 2119,
  "Ġmark": 2120,
  "Ġmist": 2121,
  "alm": 2122,
  "Ġsandw": 2123,
  "Ġpart": 2124,
  "Ġhorse": 2125,
  "unt": 2126,
  "fortable": 2127,
  "Ġcookie": 2128,
  "Ġsplas": 2129,
  "Ġwheel": 2130,
  "Ġtrip": 2131,
  "ling": 2132,
  "ens": 2133,
  "Ġhugs": 2134,
  "pping": 2135,
  "iling": 2136,
  "umber": 2137,
  "Sure": 2138,
  "Ġhuge": 2139,
  "Ġmach": 2140,
  "Ġspid": 2141,
  "Ġsug": 2142,
  "Ġprincess": 2143,
  "Ġdrove": 2144,
  "Ġtaking": 2145,
  "Ġstring": 2146,
  "Ġfold": 2147,
  "Be": 2148,
  "ĠLisa": 2149,
  "Ġwild": 2150,
  "Ġwhistle": 2151,
  "Ġstars": 2152,
  "Ġbubb": 2153,
  "Ġfighting": 2154,
  "Ġnet": 2155,
  "epend": 2156,
  "Ġpuzz": 2157,
  "Of": 2158,
  "Ġinstead": 2159,
  "Ġcloth": 2160,
  "Ġspicy": 2161,
  "Hey": 2162,
  "ung": 2163,
  "Ġlucky": 2164,
  "Ġdi": 2165,
  "Ġcou": 2166,
  "ĠGrandma": 2167,
  "not": 2168,
  "Ġcraw": 2169,
  "Ġpath": 2170,
  "Ġsal": 2171,
  "ĠJim": 2172,
  "Ġrude": 2173,
  "Ġbone": 2174,
  "Ġorgan": 2175,
  "Ġforget": 2176,
  "ĠMark": 2177,
  "Ġcoin": 2178,
  "Ġcannot": 2179,
  "Ġinv": 2180,
  "ĠFinally": 2181,
  "Ġca": 2182,
  "Ġgiant": 2183,
  "Ġsick": 2184,
  "Ġpillow": 2185,
  "oose": 2186,
  "Ġcard": 2187,
  "oop": 2188,
  "ular": 2189,
  "ors": 2190,
  "pper": 2191,
  "Lila": 2192,
  "Ġwide": 2193,
  "est": 2194,
  "ĠJust": 2195,
  "Ġlife": 2196,
  "Ġfixed": 2197,
  "Ġjoke": 2198,
  "ert": 2199,
  "Ġnod": 2200,
  "Ġwave": 2201,
  "aur": 2202,
  "Later": 2203,
  "Ġpeace": 2204,
  "ĠAnn": 2205,
  "Ġfoot": 2206,
  "Ġgrab": 2207,
  "ize": 2208,
  "Ġsnowman": 2209,
  "Ġlast": 2210,
  "Ġcomes": 2211,
  "ery": 2212,
  "Ġthin": 2213,
  "rill": 2214,
  "Ġsongs": 2215,
  "Ġboss": 2216,
  "Ġchange": 2217,
  "Ġash": 2218,
  "lower": 2219,
  "Ġwasn": 2220,
  "den": 2221,
  "Ġspider": 2222,
  "Ġmachine": 2223,
  "oph": 2224,
  "Ġdrive": 2225,
  "Ġmoon": 2226,
  "ĠOn": 2227,
  "Ġdaddy": 2228,
  "Ġconfused": 2229,
  "ĠCome": 2230,
  "Ġban": 2231,
  "ĠLeo": 2232,
  "Ġser": 2233,
  "Ġchased": 2234,
  "Ġlanded": 2235,
  "Ġhidden": 2236,
  "Ġworm": 2237,
  "Ġwrite": 2238,
  "ope": 2239,
  "Ġsour": 2240,
  "Ġgrumpy": 2241,
  "ity": 2242,
  "Ġsmooth": 2243,
  "Ġtakes": 2244,
  "Ġval": 2245,
  "Ġsuddenly": 2246,
  "Ġmyster": 2247,
  "Ġtaste": 2248,
  "Ġsel": 2249,
  "Ġrad": 2250,
  "Ġmessy": 2251,
  "Ġadventures": 2252,
  "Ġring": 2253,
  "Ġoven": 2254,
  "Ġstepped": 2255,
  "ĠN": 2256,
  "Ġacross": 2257,
  "erest": 2258,
  "Ġshelf": 2259,
  "Ġbark": 2260,
  "Ġcart": 2261,
  "Ġtea": 2262,
  "Ġent": 2263,
  "Ġinterest": 2264,
  "Ġmissed": 2265,
  "Ġexp": 2266,
  "Ġdrew": 2267,
  "Ġfil": 2268,
  "Ġfle": 2269,
  "Ġce": 2270,
  "eth": 2271,
  "Ġsticks": 2272,
  "Ġjog": 2273,
  "To": 2274,
  "Ġselfish": 2275,
  "Ġlater": 2276,
  "St": 2277,
  "ĠMolly": 2278,
  "to": 2279,
  "Ġfruits": 2280,
  "kin": 2281,
  "Ġgrate": 2282,
  "Ġtie": 2283,
  "elly": 2284,
  "ever": 2285,
  "Ġbanan": 2286,
  "Ġstep": 2287,
  "Ġzoo": 2288,
  "Ġsheep": 2289,
  "Ġpour": 2290,
  "Ġemp": 2291,
  "Ġpan": 2292,
  "Ġempty": 2293,
  "Ġlay": 2294,
  "Ġbought": 2295,
  "pect": 2296,
  "Ġwash": 2297,
  "amed": 2298,
  "Ġhope": 2299,
  "Ġducks": 2300,
  "Ġgrateful": 2301,
  "Ġwolf": 2302,
  "Ġbeak": 2303,
  "Ġfeather": 2304,
  "ĠLuna": 2305,
  "box": 2306,
  "Ġchick": 2307,
  "Ġsave": 2308,
  "?âĢĿ": 2309,
  "Ġlegs": 2310,
  "Ġspe": 2311,
  "ĠJill": 2312,
  "ars": 2313,
  "Ġdrum": 2314,
  "ĠCat": 2315,
  "yard": 2316,
  "ugg": 2317,
  "Ġlemon": 2318,
  "Ġsplash": 2319,
  "ife": 2320,
  "Soon": 2321,
  "ions": 2322,
  "Ġimag": 2323,
  "Ġba": 2324,
  "Ġslid": 2325,
  "Ġclever": 2326,
  "irpy": 2327,
  "Ġbackyard": 2328,
  "ose": 2329,
  "Ġsmelly": 2330,
  "Ġsleepy": 2331,
  "Come": 2332,
  "Ġcalm": 2333,
  "Ġtid": 2334,
  "mer": 2335,
  "Ġseemed": 2336,
  "Ġship": 2337,
  "Ġplate": 2338,
  "Ġfaces": 2339,
  "dge": 2340,
  "Ġphone": 2341,
  "Ġwatching": 2342,
  "Ġclouds": 2343,
  "Ġlift": 2344,
  "Ġign": 2345,
  "Ġinteresting": 2346,
  "Ġspray": 2347,
  "Ġfing": 2348,
  "Ġhealthy": 2349,
  "let": 2350,
  "Ġthough": 2351,
  "Ġprot": 2352,
  "Ġsu": 2353,
  "Ġact": 2354,
  "izzy": 2355,
  "Ġeasy": 2356,
  "Ġcrayons": 2357,
  "Ġmot": 2358,
  "Ġexplain": 2359,
  "Ġline": 2360,
  "ĠDaddy": 2361,
  "Ġscar": 2362,
  "erly": 2363,
  "ward": 2364,
  "Ġwhole": 2365,
  "Ġquest": 2366,
  "Ġmaybe": 2367,
  "izz": 2368,
  "Ġmed": 2369,
  "Ġfinish": 2370,
  "Ġarms": 2371,
  "Ġgives": 2372,
  "Ġsupp": 2373,
  "ont": 2374,
  "Ġemb": 2375,
  "Ġfancy": 2376,
  "wel": 2377,
  "ually": 2378,
  "Ġtidy": 2379,
  "Ġalong": 2380,
  "Ġdogs": 2381,
  "arge": 2382,
  "ĠJerry": 2383,
  "Ġsuch": 2384,
  "urse": 2385,
  "Ġpract": 2386,
  "Ġpool": 2387,
  "llo": 2388,
  "Ġpack": 2389,
  "Ġanyone": 2390,
  "ĠOllie": 2391,
  "Ġfront": 2392,
  "iger": 2393,
  "ocked": 2394,
  "Ġlonger": 2395,
  "Ġjelly": 2396,
  "rass": 2397,
  "onest": 2398,
  "Ġpuzzle": 2399,
  "arrass": 2400,
  "Ġwondered": 2401,
  "Ġnothing": 2402,
  "Ġembarrass": 2403,
  "Ġjewel": 2404,
  "Ġsaved": 2405,
  "Ġprince": 2406,
  "Ġrocket": 2407,
  "Ġworking": 2408,
  "ĠBe": 2409,
  "Ġfake": 2410,
  "Ġtrouble": 2411,
  "Ġav": 2412,
  "Ġneigh": 2413,
  "ment": 2414,
  "ĠDoggy": 2415,
  "Ġmind": 2416,
  "Ġbossy": 2417,
  "Ġkick": 2418,
  "Ġexplor": 2419,
  "Ġpointed": 2420,
  "iting": 2421,
  "Ġputs": 2422,
  "ork": 2423,
  "ĠChirpy": 2424,
  "Ġsmelled": 2425,
  "Ġhonest": 2426,
  "Ġlarge": 2427,
  "ĠWith": 2428,
  "Ġmistake": 2429,
  "unk": 2430,
  "ming": 2431,
  "Ġvan": 2432,
  "Ġaf": 2433,
  "Ġplants": 2434,
  "Ġneighb": 2435,
  "Ġshirt": 2436,
  "Ġforgive": 2437,
  "sp": 2438,
  "Ġlock": 2439,
  "ĠBunny": 2440,
  "Ġcozy": 2441,
  "Ġweak": 2442,
  "Ġwaiting": 2443,
  "orrow": 2444,
  "Ġcheer": 2445,
  "Ġcouch": 2446,
  "oman": 2447,
  "aughter": 2448,
  "irr": 2449,
  "Ġpin": 2450,
  "ĠMomo": 2451,
  "oc": 2452,
  "Ġchew": 2453,
  "Ġwoman": 2454,
  "Ġsol": 2455,
  "Ġcross": 2456,
  "Ġstood": 2457,
  "ones": 2458,
  "Ġwing": 2459,
  "Ġgently": 2460,
  "Ġsur": 2461,
  "Ġonto": 2462,
  "ĠMy": 2463,
  "Ġjumping": 2464,
  "Ġqueen": 2465,
  "And": 2466,
  "ult": 2467,
  "Ġret": 2468,
  "Ġbuilding": 2469,
  "ĠTheir": 2470,
  "ĠWhy": 2471,
  "raid": 2472,
  "Ġafraid": 2473,
  "Ġlad": 2474,
  "Ġplaces": 2475,
  "Ġteeth": 2476,
  "Ġlovely": 2477,
  "Ġyog": 2478,
  "Ġbounce": 2479,
  "era": 2480,
  "Ġlaw": 2481,
  "oomy": 2482,
  "ĠMary": 2483,
  "Ġdeer": 2484,
  "Ġreturn": 2485,
  "Ġcleaned": 2486,
  "Ġdaughter": 2487,
  "Ġstret": 2488,
  "Ġrich": 2489,
  "Ġscarf": 2490,
  "Ġsandwich": 2491,
  "Ġdish": 2492,
  "oof": 2493,
  "gest": 2494,
  "Ġants": 2495,
  "Ġtomorrow": 2496,
  "Ġpretended": 2497,
  "Ġbal": 2498,
  "ned": 2499,
  "Ġtrue": 2500,
  "Ġswimming": 2501,
  "Ġgather": 2502,
  "aced": 2503,
  "Ġscreamed": 2504,
  "uce": 2505,
  "Ġloves": 2506,
  "Sally": 2507,
  "Ġmatch": 2508,
  "Ġstra": 2509,
  "ĠTogether": 2510,
  "Ġboring": 2511,
  "Ġpowerful": 2512,
  "Ġashamed": 2513,
  "aw": 2514,
  "Ġladder": 2515,
  "Ġsearch": 2516,
  "Kitty": 2517,
  "Ġwip": 2518,
  "ĠSt": 2519,
  "Ġgoes": 2520,
  "Ġhum": 2521,
  "Ġsplashed": 2522,
  "My": 2523,
  "ĠSomet": 2524,
  "Ġperson": 2525,
  "Ġwand": 2526,
  "Ġanswer": 2527,
  "Ġclown": 2528,
  "ek": 2529,
  "Ġfurry": 2530,
  "Ġgen": 2531,
  "Ġtrust": 2532,
  "Ġappeared": 2533,
  "oppy": 2534,
  "Ġlazy": 2535,
  "Ġpri": 2536,
  "Ġeag": 2537,
  "Ġpizz": 2538,
  "Ġnearby": 2539,
  "Ġcreative": 2540,
  "Ġflag": 2541,
  "Ġsold": 2542,
  "Ġchocol": 2543,
  "Ġhang": 2544,
  "Ġsuccess": 2545,
  "Ġwearing": 2546,
  "Ġnumber": 2547,
  "Ġmotor": 2548,
  "ĠIf": 2549,
  "Ġfear": 2550,
  "Ġrub": 2551,
  "Ġchase": 2552,
  "mb": 2553,
  "vous": 2554,
  "Ġpizza": 2555,
  "Ġtool": 2556,
  "ĠTV": 2557,
  "Ġdig": 2558,
  "Ġsaf": 2559,
  "Ġsmiling": 2560,
  "icked": 2561,
  "Ġtries": 2562,
  "Ġcircle": 2563,
  "Ġmatter": 2564,
  "ina": 2565,
  "Ġcand": 2566,
  "ado": 2567,
  "Ġnoisy": 2568,
  "Ġstu": 2569,
  "elp": 2570,
  "Ġweird": 2571,
  "Ġchocolate": 2572,
  "Ġballoons": 2573,
  "Ġhello": 2574,
  "Ġmap": 2575,
  "iff": 2576,
  "Ġdrank": 2577,
  "Ġner": 2578,
  "Ġtent": 2579,
  "Ġbald": 2580,
  "Ġsoap": 2581,
  "Ġimpress": 2582,
  "Ġcri": 2583,
  "Ġnervous": 2584,
  "arl": 2585,
  "ensive": 2586,
  "Ġmarch": 2587,
  "pa": 2588,
  "Ġexpensive": 2589,
  "Ġknee": 2590,
  "ĠBird": 2591,
  "Ġgener": 2592,
  "Stop": 2593,
  "Ġgold": 2594,
  "Ġicy": 2595,
  "Ġpolite": 2596,
  "Ġhar": 2597,
  "ĠPlease": 2598,
  "Ġprotect": 2599,
  "Ġrare": 2600,
  "Ġpump": 2601,
  "Ġtest": 2602,
  "ĠBobby": 2603,
  "Ġcarried": 2604,
  "Ġmysterious": 2605,
  "Ġgun": 2606,
  "Ġjourney": 2607,
  "ĠBenny": 2608,
  "Ġrespect": 2609,
  "ĠGo": 2610,
  "Ġgate": 2611,
  "Ġglue": 2612,
  "itter": 2613,
  "Ġpres": 2614,
  "ventually": 2615,
  "rag": 2616,
  "ĠTiny": 2617,
  "Ġtape": 2618,
  "Ġreg": 2619,
  "nic": 2620,
  "ĠDon": 2621,
  "Ġnote": 2622,
  "Ġpoor": 2623,
  "Ġpicnic": 2624,
  "Ġhero": 2625,
  "Ġtowel": 2626,
  "Ġbridge": 2627,
  "ute": 2628,
  "Ġfeet": 2629,
  "Ġembarrassed": 2630,
  "Ġclass": 2631,
  "Ġsnee": 2632,
  "Ġmic": 2633,
  "scape": 2634,
  "Ġap": 2635,
  "Ġshadow": 2636,
  "Ġmirr": 2637,
  "ĠSp": 2638,
  "ness": 2639,
  "Ġtele": 2640,
  "Ġwhale": 2641,
  "Ġpeaceful": 2642,
  "Ġstir": 2643,
  "Ġcloset": 2644,
  "Ġgenerous": 2645,
  "Help": 2646,
  "Ġsugar": 2647,
  "Ġthese": 2648,
  "Ġlead": 2649,
  "imp": 2650,
  "Tommy": 2651,
  "Ġmirror": 2652,
  "Ġboot": 2653,
  "Ġdecor": 2654,
  "osaur": 2655,
  "ĠBear": 2656,
  "Ġcap": 2657,
  "Ġdizzy": 2658,
  "issors": 2659,
  "Ġscare": 2660,
  "airs": 2661,
  "Ġlamp": 2662,
  "Ġhur": 2663,
  "Ġyelled": 2664,
  "Ġrough": 2665,
  "isp": 2666,
  "Ġtasted": 2667,
  "Ġtick": 2668,
  "owed": 2669,
  "ume": 2670,
  "Ġsque": 2671,
  "Ġdinosaur": 2672,
  "lves": 2673,
  "Ġdancing": 2674,
  "ote": 2675,
  "Ġcrown": 2676,
  "Ġwrap": 2677,
  "Ġdisco": 2678,
  "ĠHow": 2679,
  "Ġprint": 2680,
  "Ġeld": 2681,
  "Ġscissors": 2682,
  "ced": 2683,
  "Ġgigg": 2684,
  "ser": 2685,
  "Ġclap": 2686,
  "Ġlog": 2687,
  "rob": 2688,
  "Ġthick": 2689,
  "getable": 2690,
  "ndpa": 2691,
  "ĠBu": 2692,
  "Ġspread": 2693,
  "ual": 2694,
  "Ġbrush": 2695,
  "ĠSometimes": 2696,
  "Ġwhisp": 2697,
  "Ġvegetable": 2698,
  "Ġsco": 2699,
  "Ġfat": 2700,
  "Ġblow": 2701,
  "Ġmixed": 2702,
  "Ġpay": 2703,
  "Ġvase": 2704,
  "lebr": 2705,
  "Ġlose": 2706,
  "Ġsock": 2707,
  "Ġkicked": 2708,
  "any": 2709,
  "Ġwis": 2710,
  "Ġknocked": 2711,
  "Ġfine": 2712,
  "Ġwouldn": 2713,
  "ustr": 2714,
  "Ġcelebr": 2715,
  "Ġmel": 2716,
  "Ġdrawing": 2717,
  "Ġbean": 2718,
  "Ġ3": 2719,
  "Ġbake": 2720,
  "Ġrelie": 2721,
  "Ġyarn": 2722,
  "Ġcage": 2723,
  "Ġadm": 2724,
  "ĠDucky": 2725,
  "robe": 2726,
  "Ġpainted": 2727,
  "Dad": 2728,
  "Ġclear": 2729,
  "Ġfamous": 2730,
  "Ġgoat": 2731,
  "Ġclay": 2732,
  "Ġbecome": 2733,
  "Ġelderly": 2734,
  "ony": 2735,
  "Ġcorner": 2736,
  "Ġmighty": 2737,
  "Ġroar": 2738,
  "Ġfrustr": 2739,
  "Ġincred": 2740,
  "Ġmountain": 2741,
  "asp": 2742,
  "erries": 2743,
  "Ġglass": 2744,
  "Ġberries": 2745,
  "Ġignor": 2746,
  "ray": 2747,
  "Ġhorn": 2748,
  "Ġwhich": 2749,
  "Ġshark": 2750,
  "Ġhose": 2751,
  "port": 2752,
  "ighed": 2753,
  "Ġspace": 2754,
  "Ġclock": 2755,
  "Ġfool": 2756,
  "Ġpresent": 2757,
  "Ġmoms": 2758,
  "ragile": 2759,
  "Where": 2760,
  "Ġincredible": 2761,
  "Ġspent": 2762,
  "alous": 2763,
  "Ġgroup": 2764,
  "Ġbranches": 2765,
  "Ġpolice": 2766,
  "Ġnorm": 2767,
  "Ġtaught": 2768,
  "Ġjealous": 2769,
  "Ġfrustrated": 2770,
  "Ġter": 2771,
  "Ġfragile": 2772,
  "Ġcab": 2773,
  "Ġhoop": 2774,
  "Ġwagon": 2775,
  "Ġfright": 2776,
  "Ġmis": 2777,
  "Ġnormal": 2778,
  "Ġguess": 2779,
  "Ġfeed": 2780,
  "ĠSome": 2781,
  "Ġteam": 2782,
  "cient": 2783,
  "ĠBr": 2784,
  "Ġbarn": 2785,
  "ĠMama": 2786,
  "Ġspoiled": 2787,
  "Ġuseful": 2788,
  "Ġbreath": 2789,
  "Ġcone": 2790,
  "Ġunderstood": 2791,
  "Ġstubb": 2792,
  "Ġcabin": 2793,
  "Ġexam": 2794,
  "Ġexploring": 2795,
  "lace": 2796,
  "Ġbalance": 2797,
  "Ġwaves": 2798,
  "Ġburn": 2799,
  "kn": 2800,
  "Ġtells": 2801,
  "Ġcreature": 2802,
  "Ġchest": 2803,
  "Ġstubborn": 2804,
  "Ġterri": 2805,
  "Ġancient": 2806,
  "Ġstraw": 2807,
  "Ġboard": 2808,
  "Ġpray": 2809,
  "Ġorganized": 2810,
  "Ġnecklace": 2811,
  "Ġhears": 2812,
  "Ġcomfortable": 2813,
  "Ġfoolish": 2814,
  "Ġwake": 2815,
  "Ġeggs": 2816,
  "Ġpumpkin": 2817,
  "orry": 2818,
  "ond": 2819,
  "known": 2820,
  "dle": 2821,
  "ym": 2822,
  "Ġmeasure": 2823,
  "Ġnosy": 2824,
  "Ġrelieved": 2825,
  "Ġsquare": 2826,
  "Ġjam": 2827,
  "Ġdug": 2828,
  "Ġsearched": 2829,
  "Ġwrote": 2830,
  "Ġfinding": 2831,
  "alk": 2832,
  "Ġacorn": 2833,
  "Ġsell": 2834,
  "ĠPe": 2835,
  "Ġfrightened": 2836,
  "Ġshoe": 2837,
  "ique": 2838,
  "Ġunknown": 2839,
  "Ġasking": 2840,
  "Ġtwist": 2841,
  "Ġsword": 2842,
  "cil": 2843,
  "Ġunique": 2844,
  "Ġunus": 2845,
  "Ġtoug": 2846,
  "Ġord": 2847,
  "Ġpir": 2848,
  "Ġunusual": 2849,
  "Ġbathroom": 2850,
  "Together": 2851,
  "Ġpencil": 2852,
  "Ġdiscover": 2853,
  "Ġwashed": 2854,
  "Ġtomato": 2855,
  "Ġmeal": 2856,
  "Ġclum": 2857,
  "Ġbitter": 2858,
  "Ġpaws": 2859,
  "Ġfier": 2860,
  "Ġbubbles": 2861,
  "Ġfierce": 2862,
  "Ġcovered": 2863,
  "Ġsunf": 2864,
  "anged": 2865,
  "Ġmask": 2866,
  "anut": 2867,
  "Ġcher": 2868,
  "Ġtough": 2869,
  "Ġdead": 2870,
  "Ġclumsy": 2871,
  "Ġthankful": 2872,
  "Ġchicken": 2873,
  "Ġind": 2874,
  "berry": 2875,
  "Ġdisg": 2876,
  "Ġbanana": 2877,
  "Ġdull": 2878,
  "Ġbloom": 2879,
  "apped": 2880,
  "Ġjet": 2881,
  "Ġjoined": 2882,
  "Ġmov": 2883,
  "Ġwealthy": 2884,
  "fic": 2885,
  "Ġwitch": 2886,
  "Ġdiffic": 2887,
  "unn": 2888,
  "Ġyours": 2889,
  "ĠElla": 2890,
  "Ġ'": 2891,
  "Me": 2892,
  "Ġsalad": 2893,
  "Ġswan": 2894,
  "Ġdisgust": 2895,
  "Ġdifficult": 2896,
  "Ġdrop": 2897,
  "Ġrose": 2898,
  "Ġtiger": 2899,
  "Ġcrazy": 2900,
  "Ġrat": 2901,
  "Ġterrible": 2902,
  "Ġunl": 2903,
  "Ġcats": 2904,
  "iant": 2905,
  "irsty": 2906,
  "bled": 2907,
  "Ġhairy": 2908,
  "selves": 2909,
  "Ġgloomy": 2910,
  "Ġremind": 2911,
  "Ġending": 2912,
  "yal": 2913,
  "Here": 2914,
  "Ġvalue": 2915,
  "ĠU": 2916,
  "Ġsuit": 2917,
  "Ġcost": 2918,
  "com": 2919,
  "Ġyourself": 2920,
  "Ġtoast": 2921,
  "Ġshoot": 2922,
  "Ġnods": 2923,
  "Ġdisgusting": 2924,
  "Ġexciting": 2925,
  "Ġknowing": 2926,
  "Ġbored": 2927,
  "Ġadd": 2928,
  "Ġcube": 2929,
  "Ġnuts": 2930,
  "Ġstuff": 2931,
  "Ġthirsty": 2932,
  "Ġfinger": 2933,
  "ground": 2934,
  "Ġsmaller": 2935,
  "upid": 2936,
  "Ġdove": 2937,
  "ĠJimmy": 2938,
  "ĠRex": 2939,
  "Ġchanged": 2940,
  "Ġshore": 2941,
  "live": 2942,
  "Ġadventur": 2943,
  "Ġstat": 2944,
  "ory": 2945,
  "ormous": 2946,
  "xible": 2947,
  "Ġrecord": 2948,
  "Ġpotato": 2949,
  "Ġloyal": 2950,
  "light": 2951,
  "Ġadventurous": 2952,
  "Ġbrill": 2953,
  "ident": 2954,
  "Ġsnacks": 2955,
  "Ġenormous": 2956,
  "Ġzip": 2957,
  "Ġfrown": 2958,
  "Ġcheap": 2959,
  "Ġbrilliant": 2960,
  "Ġcounted": 2961,
  "Ġpepper": 2962,
  "Ġbody": 2963,
  "Ġdelicate": 2964,
  "reen": 2965,
  "Ġjolly": 2966,
  "Ġmoving": 2967,
  "erp": 2968,
  "Ġfridge": 2969,
  "ĠAl": 2970,
  "ĠAndy": 2971,
  "mbre": 2972,
  "Ġham": 2973,
  "ĠMany": 2974,
  "Ġumbre": 2975,
  "Ġmarket": 2976,
  "edient": 2977,
  "Ġcrane": 2978,
  "Ġtrick": 2979,
  "land": 2980,
  "Ġneighbor": 2981,
  "Ġhats": 2982,
  "Ġsolve": 2983,
  "Every": 2984,
  "Ġflexible": 2985,
  "Ġperform": 2986,
  "shine": 2987,
  "pes": 2988,
  "Ġstri": 2989,
  "Ġexplained": 2990,
  "und": 2991,
  "Ġasleep": 2992,
  "Ġpeanut": 2993,
  "Ġstupid": 2994,
  "Ġcollect": 2995,
  "Ġgem": 2996,
  "ĠWill": 2997,
  "Ġlab": 2998,
  "Ġsunflower": 2999,
  "ĠSammy": 3000,
  "Jim": 3001,
  "Ġtimes": 3002,
  "ĠBrown": 3003,
  "Ġdough": 3004,
  "Ġseeds": 3005,
  "Who": 3006,
  "Mum": 3007,
  "fted": 3008,
  "Ġcries": 3009,
  "Ġstove": 3010,
  "Ġshiver": 3011,
  "Ġobedient": 3012,
  "Ġsquee": 3013,
  "ates": 3014,
  "Ġguit": 3015,
  "Ġheal": 3016,
  "Ġgar": 3017,
  "ungle": 3018,
  "Ġfour": 3019,
  "iddle": 3020,
  "Are": 3021,
  "Ġjungle": 3022,
  "Inside": 3023,
  "acket": 3024,
  "Ġcro": 3025,
  "ĠWhile": 3026,
  "Ġsighed": 3027,
  "Ġrelax": 3028,
  "Ġharm": 3029,
  "Ġknife": 3030,
  "Ġsunshine": 3031,
  "Ġcarrots": 3032,
  "Ġstatue": 3033,
  "Ġstage": 3034,
  "Ġindepend": 3035,
  "Ġshine": 3036,
  "iness": 3037,
  "Ġvegetables": 3038,
  "ilt": 3039,
  "corn": 3040,
  "Ġjacket": 3041,
  "Ġstudy": 3042,
  "als": 3043,
  "If": 3044,
  "Ġcareless": 3045,
  "ĠInstead": 3046,
  "most": 3047,
  "erpill": 3048,
  "Ġcaterpill": 3049,
  "ĠNo": 3050,
  "ĠTr": 3051,
  "inal": 3052,
  "ict": 3053,
  "Ġparrot": 3054,
  "Ġmagn": 3055,
  "Ġfilthy": 3056,
  "Ġumbrella": 3057,
  "Ġalmost": 3058,
  "Ġindependent": 3059,
  "Ġguitar": 3060,
  "Ġisland": 3061,
  "ying": 3062,
  "Ġcam": 3063,
  "Ġmailbox": 3064,
  "Ġstones": 3065,
  "Ġborrow": 3066,
  "iginal": 3067,
  "Ġflash": 3068,
  "Ġmiddle": 3069,
  "Ġscr": 3070,
  "How": 3071,
  "Sorry": 3072,
  "Ġcompet": 3073,
  "met": 3074,
  "Ġdepend": 3075,
  "Ġsauce": 3076,
  "Ġspring": 3077,
  "Ġescape": 3078,
  "Ġrh": 3079,
  "Ġsuccessful": 3080,
  "gu": 3081,
  "Ġserious": 3082,
  "erable": 3083,
  "Ġraven": 3084,
  "Ġfountain": 3085,
  "Ġpopcorn": 3086,
  "There": 3087,
  "Ġhelmet": 3088,
  "Ġbedroom": 3089,
  "Ġjeep": 3090,
  "Ġmiserable": 3091,
  "Ġbatter": 3092,
  "Ġcomb": 3093,
  "Ġmedic": 3094,
  "Ġdest": 3095,
  "Ġbelonged": 3096,
  "Ġoriginal": 3097,
  "Ġhouses": 3098,
  "Ġeager": 3099,
  "ages": 3100,
  "Ġsteal": 3101,
  "aken": 3102,
  "Ġcaterpillar": 3103,
  "Molly": 3104,
  "Ġgets": 3105,
  "Ġfearful": 3106,
  "Ġhay": 3107,
  "Ġdesign": 3108,
  "ours": 3109,
  "iable": 3110,
  "Ġeng": 3111,
  "Ġimpressive": 3112,
  "Ġstanding": 3113,
  "Ġmedicine": 3114,
  "Ġgarage": 3115,
  "ĠTw": 3116,
  "io": 3117,
  "Ġstamp": 3118,
  "Ġslipped": 3119,
  "Ġraced": 3120,
  "Ġcheerful": 3121,
  "Ġthoughtful": 3122,
  "Ġspotted": 3123,
  "ĠYour": 3124,
  "Ġmole": 3125,
  "Ġcrawled": 3126,
  "Ġchoose": 3127,
  "Ġcrayon": 3128,
  "Ġlifted": 3129,
  "Ġtaken": 3130,
  "Ġtied": 3131,
  "Ġaunt": 3132,
  "Ġpainting": 3133,
  "opter": 3134,
  "icopter": 3135,
  "Ġpebb": 3136,
  "inky": 3137,
  "Ġprize": 3138,
  "Ġmovie": 3139,
  "Ġquar": 3140,
  "Ġmagnet": 3141,
  "Ġtank": 3142,
  "Ġang": 3143,
  "lph": 3144,
  "Ġtor": 3145,
  "Ġhelicopter": 3146,
  "Ġbelt": 3147,
  "dile": 3148,
  "Ġpian": 3149,
  "codile": 3150,
  "Ġjug": 3151,
  "Ġcrack": 3152,
  "Ġbuilt": 3153,
  "Ġsmoke": 3154,
  "Ġmush": 3155,
  "Ġcryst": 3156,
  "Ġhurts": 3157,
  "Ġwaff": 3158,
  "Ġbottom": 3159,
  "Ġdependable": 3160,
  "Ġpiano": 3161,
  "Ġsquash": 3162,
  "Ġpicks": 3163,
  "Ġfork": 3164,
  "ipe": 3165,
  "enny": 3166,
  "Ġliz": 3167,
  "amond": 3168,
  "Ġreliable": 3169,
  "berries": 3170,
  "Ġdolph": 3171,
  "Ġbrace": 3172,
  "Ġpopular": 3173,
  "Ġquarrel": 3174,
  "cream": 3175,
  "Ġswe": 3176,
  "Ġhopping": 3177,
  "Ġref": 3178,
  "cean": 3179,
  "Ġsil": 3180,
  "oin": 3181,
  "Ġdiamond": 3182,
  "Ġmuff": 3183,
  "Ġpress": 3184,
  "Ġocean": 3185,
  "Ġfig": 3186,
  "Ġpasta": 3187,
  "Ġmoder": 3188,
  "Ġcompetit": 3189,
  "inary": 3190,
  "Ġgoose": 3191,
  "Ġgum": 3192,
  "Ġshows": 3193,
  "Ġkissed": 3194,
  "Timmy": 3195,
  "Ġwander": 3196,
  "Ġtricks": 3197,
  "Ġmushroom": 3198,
  "Ġarrow": 3199,
  "Ġcandle": 3200,
  "Ġwrapped": 3201,
  "Ġcrocodile": 3202,
  "Ġmodern": 3203,
  "Ġpant": 3204,
  "Ġbeet": 3205,
  "Ġcollar": 3206,
  "Ġhelps": 3207,
  "Ġtax": 3208,
  "Ġusing": 3209,
  "Ġshape": 3210,
  "Ġcamera": 3211,
  "Ġrug": 3212,
  "Ġboats": 3213,
  "opl": 3214,
  "eropl": 3215,
  "pack": 3216,
  "Ġwire": 3217,
  "Ġlizard": 3218,
  "Ġhumble": 3219,
  "Ġflute": 3220,
  "iv": 3221,
  "Ġaeropl": 3222,
  "Ġboys": 3223,
  "Ġlow": 3224,
  "Ġanx": 3225,
  "cident": 3226,
  "Ġbull": 3227,
  "Their": 3228,
  "ipop": 3229,
  "llipop": 3230,
  "Ġruined": 3231,
  "Ġcere": 3232,
  "Ġanxious": 3233,
  "Ġtaxi": 3234,
  "Ġones": 3235,
  "edy": 3236,
  "Ġtwig": 3237,
  "Ġpige": 3238,
  "Ġneeds": 3239,
  "ĠSn": 3240,
  "Ġtorn": 3241,
  "Ġlollipop": 3242,
  "cles": 3243,
  "Ġengine": 3244,
  "Ġgrace": 3245,
  "Ġhammer": 3246,
  "Ġsink": 3247,
  "Ġtroubled": 3248,
  "Ġmelon": 3249,
  "Ġlean": 3250,
  "ief": 3251,
  "Ġlocked": 3252,
  "Ġcrystal": 3253,
  "Ġtriang": 3254,
  "atter": 3255,
  "Ġdisappoin": 3256,
  "cut": 3257,
  "Ġpersist": 3258,
  "atch": 3259,
  "Ġplayful": 3260,
  "Ġinse": 3261,
  "Ġcompass": 3262,
  "Ġdeaf": 3263,
  "unnel": 3264,
  "ilty": 3265,
  "Ġwalks": 3266,
  "Ġguilty": 3267,
  "appy": 3268,
  "Ġtunnel": 3269,
  "Ġhelpless": 3270,
  "Ġscale": 3271,
  "Ġoffice": 3272,
  "Ġenv": 3273,
  "comfortable": 3274,
  "Ġcomput": 3275,
  "Ġpassed": 3276,
  "ĠEven": 3277,
  "Ġrid": 3278,
  "Ġuncomfortable": 3279,
  "Ġharmless": 3280,
  "Ġcomet": 3281,
  "Ġnail": 3282,
  "ube": 3283,
  "Ġcereal": 3284,
  "Ġtears": 3285,
  "Ġlicked": 3286,
  "Ġfluffy": 3287,
  "Mama": 3288,
  "ext": 3289,
  "aff": 3290,
  "Ġer": 3291,
  "ubby": 3292,
  "Ġcompassion": 3293,
  "coa": 3294,
  "tt": 3295,
  "Ġmop": 3296,
  "Ġfis": 3297,
  "Ġtire": 3298,
  "oto": 3299,
  "Ġbeetle": 3300,
  "Ġharder": 3301,
  "Ġbicy": 3302,
  "zed": 3303,
  "uth": 3304,
  "Ġgifted": 3305,
  "Ġshrimp": 3306,
  "Ġmeant": 3307,
  "ĠJenny": 3308,
  "Ġangel": 3309,
  "Ġaccident": 3310,
  "Ġstretch": 3311,
  "Ġhappiness": 3312,
  "Ġpants": 3313,
  "Ġmug": 3314,
  "Ġrep": 3315,
  "Ġpersistent": 3316,
  "Ġavoc": 3317,
  "Ġinsect": 3318,
  "Ġdelight": 3319,
  "Ġbees": 3320,
  "host": 3321,
  "Ġradio": 3322,
  "Ġpoured": 3323,
  "umpet": 3324,
  "Bobo": 3325,
  "Ġtooth": 3326,
  "Ġspend": 3327,
  "asses": 3328,
  "Ġordinary": 3329,
  "Ġpow": 3330,
  "Ġspill": 3331,
  "Ġcomputer": 3332,
  "umbers": 3333,
  "Ġinvited": 3334,
  "Ġcocoa": 3335,
  "Ġscoot": 3336,
  "Ġtur": 3337,
  "Ġtrumpet": 3338,
  "Ġears": 3339,
  "Ġlit": 3340,
  "Ġgiving": 3341,
  "Ġchubby": 3342,
  "hett": 3343,
  "Ġraft": 3344,
  "hetti": 3345,
  "aghetti": 3346,
  "Ġtag": 3347,
  "Ġghost": 3348,
  "Ġcact": 3349,
  "Ġsailed": 3350,
  "lcan": 3351,
  "Ġpale": 3352,
  "Ġdisappointed": 3353,
  "Ġrode": 3354,
  "Ġharsh": 3355,
  "Ġwhispered": 3356,
  "Ġpro": 3357,
  "lcano": 3358,
  "Ġdesk": 3359,
  "ither": 3360,
  "Ġanswered": 3361,
  "Ġload": 3362,
  "Ġmelt": 3363,
  "Ġturkey": 3364,
  "Ġtube": 3365,
  "Ġbarber": 3366,
  "Ġbracelet": 3367,
  "Ġtrap": 3368,
  "Ġcreate": 3369,
  "azz": 3370,
  "Ġregular": 3371,
  "Ġmill": 3372,
  "Ġaeroplane": 3373,
  "ellig": 3374,
  "aze": 3375,
  "Ġquestions": 3376,
  "Ġdust": 3377,
  "Ġthread": 3378,
  "Ġspaghetti": 3379,
  "Ġintellig": 3380,
  "coli": 3381,
  "ccoli": 3382,
  "Ġnumbers": 3383,
  "Ġthief": 3384,
  "Ġhalf": 3385,
  "Ġstream": 3386,
  "Ġglove": 3387,
  "Ġpipe": 3388,
  "Jane": 3389,
  "Ġforward": 3390,
  "Ġflashlight": 3391,
  "Ġcush": 3392,
  "aser": 3393,
  "Ġcactus": 3394,
  "rework": 3395,
  "essie": 3396,
  "ats": 3397,
  "Ġcharm": 3398,
  "Ġvolcano": 3399,
  "Ġsoldier": 3400,
  "Ġvine": 3401,
  "Ġrestless": 3402,
  "hip": 3403,
  "anger": 3404,
  "Ġvide": 3405,
  "Ġtrack": 3406,
  "Ġpigeon": 3407,
  "Ġtrunk": 3408,
  "ulif": 3409,
  "Ġyaw": 3410,
  "Ġmitten": 3411,
  "Ġdeliver": 3412,
  "Ġcoo": 3413,
  "Ġshade": 3414,
  "Ġloop": 3415,
  "Ġlearning": 3416,
  "Ġlouder": 3417,
  "Ġvi": 3418,
  "Ġpracticed": 3419,
  "Ġenvious": 3420,
  "Ġcop": 3421,
  "ĠEmily": 3422,
  "Ġscreen": 3423,
  "Ġtap": 3424,
  "Ġrice": 3425,
  "ging": 3426,
  "Ġlibr": 3427,
  "ye": 3428,
  "Ġhaircut": 3429,
  "Ġbarrel": 3430,
  "Ġpurse": 3431,
  "Ġintelligent": 3432,
  "Ġfirework": 3433,
  "Ġcase": 3434,
  "Ġticket": 3435,
  "ache": 3436,
  "Ġhunt": 3437,
  "Ġcaulif": 3438,
  "Ġyogurt": 3439,
  "Ġeventually": 3440,
  "Ġbri": 3441,
  "Ġspeed": 3442,
  "Ġhappening": 3443,
  "Ġknot": 3444,
  "Ġdecide": 3445,
  "Ġstronger": 3446,
  "Ġfeathers": 3447,
  "Ġfriendship": 3448,
  "Ġcompassionate": 3449,
  "Ġfigure": 3450,
  "Ġuniver": 3451,
  "Ġroof": 3452,
  "cycle": 3453,
  "Ġexcite": 3454,
  "Ġbroccoli": 3455,
  "Ġsort": 3456,
  "Ġboxes": 3457,
  "Ġsle": 3458,
  "Ġcrawl": 3459,
  "omes": 3460,
  "Ġcricket": 3461,
  "Ġcarp": 3462,
  "ĠJake": 3463,
  "Ġdreams": 3464,
  "Ġcompetitive": 3465,
  "Ġbicycle": 3466,
  "Ġbubble": 3467,
  "Ġsheet": 3468,
  "asing": 3469,
  "Ġenvel": 3470,
  "Ġdestro": 3471,
  "Ġcoins": 3472,
  "ĠOK": 3473,
  "ulb": 3474,
  "Ġcharming": 3475,
  "Ġreturned": 3476,
  "Ġspun": 3477,
  "Ġwheels": 3478,
  "Ġcarpet": 3479,
  "Ġchalk": 3480,
  "Ġcauliflower": 3481,
  "isted": 3482,
  "Ġyach": 3483,
  "Ġtriangle": 3484,
  "atient": 3485,
  "Ġgraceful": 3486,
  "Ġtruth": 3487,
  "Ġsleeping": 3488,
  "Ġjudge": 3489,
  "Ġpit": 3490,
  "Ġacce": 3491,
  "olin": 3492,
  "igator": 3493,
  "Ġdolphin": 3494,
  "Ġthu": 3495,
  "Ġspell": 3496,
  "ital": 3497,
  "Ġhosp": 3498,
  "Ġador": 3499,
  "Ġyacht": 3500,
  "Ġalert": 3501,
  "Ġwheat": 3502,
  "ĠToday": 3503,
  "Ġbulb": 3504,
  "ĠBuzz": 3505,
  "Ġhospital": 3506,
  "ision": 3507,
  "Ġnicely": 3508,
  "Ġpebble": 3509,
  "Ġpony": 3510,
  "Ġscooter": 3511,
  "elery": 3512,
  "Ġparade": 3513,
  "Ġrubbed": 3514,
  "ten": 3515,
  "ĠTrue": 3516,
  "Ġgrown": 3517,
  "tern": 3518,
  "Ġorder": 3519,
  "Ġways": 3520,
  "Ġtravel": 3521,
  "Ġtem": 3522,
  "urtain": 3523,
  "Ġscatter": 3524,
  "Ġcelebrate": 3525,
  "Ġcurtain": 3526,
  "Ġforth": 3527,
  "Ġfilm": 3528,
  "Ġbounced": 3529,
  "Ġattract": 3530,
  "Ġrod": 3531,
  "Ġadorable": 3532,
  "Go": 3533,
  "Ġrag": 3534,
  "Ġskin": 3535,
  "Ġlying": 3536,
  "Ġalligator": 3537,
  "Ġwallet": 3538,
  "Ġcounting": 3539,
  "ĠPoppy": 3540,
  "Ġpoem": 3541,
  "ebra": 3542,
  "Ġplanet": 3543,
  "Ġoy": 3544,
  "ete": 3545,
  "Ġsaus": 3546,
  "Ġimpatient": 3547,
  "Ġcleaning": 3548,
  "Ġcelery": 3549,
  "Ġattractive": 3550,
  "Ġwalls": 3551,
  "Ġneedle": 3552,
  "Ġprun": 3553,
  "Ġthemselves": 3554,
  "Ġonion": 3555,
  "Ġbushes": 3556,
  "bul": 3557,
  "Ġtray": 3558,
  "Ġviolin": 3559,
  "Ġenth": 3560,
  "Ġhook": 3561,
  "Ġleop": 3562,
  "Ġquestion": 3563,
  "Ġmarry": 3564,
  "rage": 3565,
  "Ġradish": 3566,
  "Ġsoar": 3567,
  "Ġpole": 3568,
  "Ġimpro": 3569,
  "Ġzebra": 3570,
  "Ġenthus": 3571,
  "Ġignorant": 3572,
  "Ġenthusia": 3573,
  "zzy": 3574,
  "bulance": 3575,
  "Ġambulance": 3576,
  "ĠFr": 3577,
  "Ġshut": 3578,
  "Ġshells": 3579,
  "Ġsend": 3580,
  "Ġcushion": 3581,
  "Ġmotorcycle": 3582,
  "Ġed": 3583,
  "dom": 3584,
  "illa": 3585,
  "ulu": 3586,
  "ating": 3587,
  "Ġcooked": 3588,
  "Ġlively": 3589,
  "Ġenc": 3590,
  "Ġfu": 3591,
  "Ġweek": 3592,
  "Ġmetal": 3593,
  "Ġhomes": 3594,
  "Ġpattern": 3595,
  "Sarah": 3596,
  "ĠPipp": 3597,
  "Ġspeak": 3598,
  "Ġdistant": 3599,
  "Ġavocado": 3600,
  "Ġscrew": 3601,
  "Ġdestroy": 3602,
  "Ġdeter": 3603,
  "Ġsaying": 3604,
  "Ġbase": 3605,
  "Ġenvelope": 3606,
  "Ġsniff": 3607,
  "Ġtummy": 3608,
  "Ġspinning": 3609,
  "Ġlights": 3610,
  "Ġslept": 3611,
  "Ġink": 3612,
  "nger": 3613,
  "Ġpengu": 3614,
  "Ġsteak": 3615,
  "Ġstranger": 3616,
  "Ġleopard": 3617,
  "Ġsurf": 3618,
  "Ġbiggest": 3619,
  "Ġdeterm": 3620,
  "Ġbandage": 3621,
  "ject": 3622,
  "Ġlaughs": 3623,
  "ention": 3624,
  "Ġdive": 3625,
  "Ġeraser": 3626,
  "Ġbags": 3627,
  "Ġshowing": 3628,
  "aged": 3629,
  "Ġuncle": 3630,
  "dest": 3631,
  "ament": 3632,
  "Ġdecorate": 3633,
  "ĠPeter": 3634,
  "Ġskipped": 3635,
  "Ġbehave": 3636,
  "Ġdiary": 3637,
  "ebook": 3638,
  "Ġfather": 3639,
  "Ġbin": 3640,
  "Ġnotebook": 3641,
  "Ġtemp": 3642,
  "Ġlime": 3643,
  "Ġkay": 3644,
  "Ġpeach": 3645,
  "Ġhipp": 3646,
  "Ġbuttons": 3647,
  "Ġmeat": 3648,
  "Ġskull": 3649,
  "ito": 3650,
  "Ġunlock": 3651,
  "vator": 3652,
  "Ġchain": 3653,
  "chair": 3654,
  "Ġvest": 3655,
  "Ġpost": 3656,
  "Ġelevator": 3657,
  "Give": 3658,
  "nament": 3659,
  "Ġpirate": 3660,
  "ĠSh": 3661,
  "Ġgathered": 3662,
  "Ġornament": 3663,
  "urb": 3664,
  "quito": 3665,
  "Ġwiped": 3666,
  "Ġskip": 3667,
  "leton": 3668,
  "keleton": 3669,
  "lies": 3670,
  "Ġnurse": 3671,
  "Ġfalls": 3672,
  "Ġloudly": 3673,
  "Ġarmchair": 3674,
  "ĠFo": 3675,
  "Ġstation": 3676,
  "Ġkayak": 3677,
  "Ġmos": 3678,
  "Ġguard": 3679,
  "usie": 3680,
  "Ġjournal": 3681,
  "Ġseal": 3682,
  "ĠTina": 3683,
  "Ġearth": 3684,
  "Ġmild": 3685,
  "Ġcord": 3686,
  "Ġplayground": 3687,
  "Ġmosquito": 3688,
  "Ġknows": 3689,
  "Ġsweater": 3690,
  "Ġdisturb": 3691,
  "Ġdisappeared": 3692,
  "Ġtrucks": 3693,
  "Gra": 3694,
  "Ġcity": 3695,
  "Ġonce": 3696,
  "Ġmodest": 3697,
  "Ġmissile": 3698,
  "we": 3699,
  "Ġbump": 3700,
  "Ġwhenever": 3701,
  "Ġdriving": 3702,
  "Ġfolder": 3703,
  "Ġprep": 3704,
  "Ġcompl": 3705,
  "ctop": 3706,
  "Ġaut": 3707,
  "Billy": 3708,
  "Ġskeleton": 3709,
  "Ġple": 3710,
  "Ġshield": 3711,
  "Ġcupboard": 3712,
  "Ġled": 3713,
  "Ġsplit": 3714,
  "Ġstrawberry": 3715,
  "aky": 3716,
  "Ġlibrary": 3717,
  "Ġpointing": 3718,
  "Ġresc": 3719,
  "Ġoyster": 3720,
  "Ġhippo": 3721,
  "ceed": 3722,
  "Ġmarble": 3723,
  "Ġglowing": 3724,
  "Ġyet": 3725,
  "stic": 3726,
  "irit": 3727,
  "ctopus": 3728,
  "Ġsung": 3729,
  "umbled": 3730,
  "Ġedge": 3731,
  "Well": 3732,
  "Ġwishes": 3733,
  "Ġpolish": 3734,
  "Ġcups": 3735,
  "ushed": 3736,
  "Ġmath": 3737,
  "oby": 3738,
  "Ġenthusiastic": 3739,
  "Ġbrothers": 3740,
  "Ġgear": 3741,
  "Ġcob": 3742,
  "uring": 3743,
  "Ġhall": 3744,
  "ĠBirdy": 3745,
  "obile": 3746,
  "Ġflame": 3747,
  "urch": 3748,
  "Ġclub": 3749,
  "Ġcalling": 3750,
  "Ġthunder": 3751,
  "omobile": 3752,
  "Ġsalt": 3753,
  "Ġjellyfish": 3754,
  "Ġitch": 3755,
  "Ġkindness": 3756,
  "ĠBet": 3757,
  "Ġmuffin": 3758,
  "Ġgrowl": 3759,
  "ĠLulu": 3760,
  "Ġsuggest": 3761,
  "Ġautomobile": 3762,
  "web": 3763,
  "Ġreading": 3764,
  "Ġmagaz": 3765,
  "la": 3766,
  "Ġtripped": 3767,
  "Ġoctopus": 3768,
  "Ġpine": 3769,
  "ĠMum": 3770,
  "Ġfootball": 3771,
  "Ġsupport": 3772,
  "Ġdess": 3773,
  "Ġattic": 3774,
  "Ġpoke": 3775,
  "Ġroot": 3776,
  "lasses": 3777,
  "Ġsucceed": 3778,
  "?\".": 3779,
  "Ġmeans": 3780,
  "Ġgor": 3781,
  "Ġteleph": 3782,
  "ipper": 3783,
  "Ġcobweb": 3784,
  "Ġsunglasses": 3785,
  "Ġrepair": 3786,
  "Ġstack": 3787,
  "Ġencou": 3788,
  "Ġadded": 3789,
  "Ġgrapes": 3790,
  "istol": 3791,
  "Ġchess": 3792,
  "Ġcostume": 3793,
  "par": 3794,
  "Ġtelephone": 3795,
  "Ġvideo": 3796,
  "Ġpacked": 3797,
  "Ġmeadow": 3798,
  "Ġpowder": 3799,
  "Ġcartoon": 3800,
  "Ġyoga": 3801,
  "Ġstairs": 3802,
  "Ġmixer": 3803,
  "ĠTweet": 3804,
  "Ġrepe": 3805,
  "ature": 3806,
  "Ġhedge": 3807,
  "rosc": 3808,
  "Ġcomplet": 3809,
  "utes": 3810,
  "ric": 3811,
  "Ġdrawings": 3812,
  "Ġitself": 3813,
  "ĠPolly": 3814,
  "Ġflea": 3815,
  "Bye": 3816,
  "Ġpistol": 3817,
  "Ġmatt": 3818,
  "Ġchurch": 3819,
  "roscope": 3820,
  "Ġmakeup": 3821,
  "aving": 3822,
  "Jimmy": 3823,
  "old": 3824,
  "Ġrolling": 3825,
  "Ġpenny": 3826,
  "Ġswitch": 3827,
  "Ġpun": 3828,
  "ines": 3829,
  "Ġanch": 3830,
  "ĠPeople": 3831,
  "Ġwaffle": 3832,
  "ait": 3833,
  "time": 3834,
  "Ġgolf": 3835,
  ",âĢĿ": 3836,
  "Ġpackage": 3837,
  "Ġmanaged": 3838,
  "Ġcolour": 3839,
  "ĠLittle": 3840,
  "Ġoil": 3841,
  "Ġdrawer": 3842,
  "Ġveil": 3843,
  "Ġcable": 3844,
  "Ġtroph": 3845,
  "Ġcomplain": 3846,
  "Ġlaser": 3847,
  "Ġsneeze": 3848,
  "keep": 3849,
  "Ġherb": 3850,
  "Re": 3851,
  "Ġspear": 3852,
  "Ġpastry": 3853,
  "Ġdetermined": 3854,
  "Ġshocked": 3855,
  "Ġmattress": 3856,
  "Ġanchor": 3857,
  "Ġrot": 3858,
  "Ġmaze": 3859,
  "work": 3860,
  "ophone": 3861,
  "Ġhotel": 3862,
  "Ġarg": 3863,
  "Ġknight": 3864,
  "Ġcamp": 3865,
  "Ġcell": 3866,
  "Ġcoal": 3867,
  "See": 3868,
  "Ġminutes": 3869,
  "head": 3870,
  "Ġeye": 3871,
  "Ġsafely": 3872,
  "Ġperm": 3873,
  "Ġbananas": 3874,
  "Ġtear": 3875,
  "Ġtrophy": 3876,
  "Ġearly": 3877,
  "Ġsepar": 3878,
  "Ġsight": 3879,
  "htray": 3880,
  "Ġsteps": 3881,
  "Ġgiggled": 3882,
  "Ġdessert": 3883,
  "Ġfile": 3884,
  "ĠMiss": 3885,
  "Ġgasp": 3886,
  "Ġgorilla": 3887,
  "Ġfireman": 3888,
  "Ġstrugg": 3889,
  "Jill": 3890,
  "Ġok": 3891,
  "Ġmint": 3892,
  "Ġvend": 3893,
  "Ġpretending": 3894,
  "Ġbasketball": 3895,
  "Ġleash": 3896,
  "Ġcooler": 3897,
  "Ġow": 3898,
  "Ġpear": 3899,
  "Ġwool": 3900,
  "Ġthose": 3901,
  "Ġtemple": 3902,
  "Ġhandle": 3903,
  "Ġhoc": 3904,
  "Ġhockey": 3905,
  "cing": 3906,
  "Ġtrash": 3907,
  "Ġhunter": 3908,
  "iew": 3909,
  "Ġtask": 3910,
  "Ġsne": 3911,
  "Ġbarking": 3912,
  "ĠPete": 3913,
  "htub": 3914,
  "ilot": 3915,
  "Ġten": 3916,
  "Ġbathtub": 3917,
  "Ġcooking": 3918,
  "ĠLook": 3919,
  "Ġfive": 3920,
  "Ġview": 3921,
  "Ġframe": 3922,
  "Ġvendor": 3923,
  "Ġmarched": 3924,
  "Ġcabinet": 3925,
  "iron": 3926,
  "Ġribb": 3927,
  "Ġmicr": 3928,
  "Ġrever": 3929,
  "Ġpee": 3930,
  "Ġslides": 3931,
  "Ġmem": 3932,
  "ney": 3933,
  "ĠBessie": 3934,
  "Ġwife": 3935,
  "Ġrise": 3936,
  "Ġtools": 3937,
  "Ġhanger": 3938,
  "'d": 3939,
  "Ġoften": 3940,
  "Ġashtray": 3941,
  "ĠZoom": 3942,
  "Ġward": 3943,
  "Al": 3944,
  "Ġmicroscope": 3945,
  "Ġflour": 3946,
  "Ġwardrobe": 3947,
  "Ġhours": 3948,
  "ctory": 3949,
  "ĠDan": 3950,
  "Ġblackboard": 3951,
  "Ġthinking": 3952,
  "Ġeither": 3953,
  "Ġsandbox": 3954,
  "fee": 3955,
  "Ġmicrophone": 3956,
  "keeper": 3957,
  "Ġweep": 3958,
  "ffee": 3959,
  "Ġstaff": 3960,
  "anda": 3961,
  "esday": 3962,
  "Ġopens": 3963,
  "Ġcheck": 3964,
  "Ġsett": 3965,
  "otter": 3966,
  "Ġfactory": 3967,
  "Ġholds": 3968,
  "Ġcherries": 3969,
  "Ġotter": 3970,
  "ately": 3971,
  "Ġwhip": 3972,
  "Ġspirit": 3973,
  "Ġsailor": 3974,
  "uper": 3975,
  "ugged": 3976,
  "Ġnewsp": 3977,
  "imney": 3978,
  "aroo": 3979,
  "ĠGive": 3980,
  "was": 3981,
  "angaroo": 3982,
  "play": 3983,
  "ĠEverywhere": 3984,
  "Ġmay": 3985,
  "Ġpilot": 3986,
  "Ġchimney": 3987,
  "place": 3988,
  "case": 3989,
  "washer": 3990,
  "ilet": 3991,
  "Ġur": 3992,
  "Ġlotion": 3993,
  "vision": 3994,
  "Ġshort": 3995,
  "Ġreward": 3996,
  "Ġknock": 3997,
  "Ġquit": 3998,
  "Ġallowed": 3999,
  "Ġax": 4000,
  "Ġexcitement": 4001,
  "ready": 4002,
  "Ġmessage": 4003,
  "Ġpatch": 4004,
  "Ġkangaroo": 4005,
  "Ġoats": 4006,
  "apers": 4007,
  "Ġtoilet": 4008,
  "Ġphoto": 4009,
  "Ġrealised": 4010,
  "Ġlaund": 4011,
  "Ġtowers": 4012,
  "ailable": 4013,
  "Ġpractice": 4014,
  "seum": 4015,
  "Ġsausage": 4016,
  "Ġfuel": 4017,
  "Ġdishwasher": 4018,
  "Ġmedal": 4019,
  "Ġlaundry": 4020,
  "Ġimagine": 4021,
  "Ġbattery": 4022,
  "Ġtelevision": 4023,
  "Ġsize": 4024,
  "Ġmagazine": 4025,
  "Ġpassport": 4026,
  "Em": 4027,
  "Ġmuseum": 4028,
  "Ġremain": 4029,
  "Ġrake": 4030,
  "Ġoak": 4031,
  "Ġalready": 4032,
  "Ġdisplay": 4033,
  "Ġbathe": 4034,
  "Ġvalu": 4035,
  "Ġfreez": 4036,
  "Ġdreamed": 4037,
  "Ġmen": 4038,
  "Ġjuicy": 4039,
  "Ġhive": 4040,
  "eer": 4041,
  "Ġgrill": 4042,
  "ĠSpike": 4043,
  "Ġavailable": 4044,
  "Ġcows": 4045,
  "Ġhurry": 4046,
  "Ġtelling": 4047,
  "Ġaxe": 4048,
  "Ġtornado": 4049,
  "ination": 4050,
  "azor": 4051,
  "Ġimprove": 4052,
  "hic": 4053,
  "Ġvehic": 4054,
  "ured": 4055,
  "Ġcoffee": 4056,
  "Ġfireplace": 4057,
  "Ġbaseball": 4058,
  "Ġcardboard": 4059,
  "Ġfog": 4060,
  "Ġfastest": 4061,
  "ĠBetty": 4062,
  "Ġrhin": 4063,
  "Ġpal": 4064,
  "Ġgain": 4065,
  "Ġorganize": 4066,
  "Ġhanging": 4067,
  "Ġfingers": 4068,
  "Ġnotice": 4069,
  "body": 4070,
  "Ġstumbled": 4071,
  "Ġsilver": 4072,
  "ĠPippin": 4073,
  "Ġenjoying": 4074,
  "Joe": 4075,
  "Ġfalling": 4076,
  "Ġtuna": 4077,
  "Ġiron": 4078,
  "ĠHere": 4079,
  "Ġgrandpa": 4080,
  "Ġcane": 4081,
  "Ġbill": 4082,
  "loo": 4083,
  "ĠRose": 4084,
  "ense": 4085,
  "Ġspilled": 4086,
  "aid": 4087,
  "ĠKim": 4088,
  "come": 4089,
  "Ġnovel": 4090,
  "Ġboots": 4091,
  "Wait": 4092,
  "Ġpalace": 4093,
  "Ġobject": 4094,
  "Ġreind": 4095,
  "Ġminer": 4096,
  "stairs": 4097,
  "Ġstared": 4098,
  "Ġlend": 4099,
  "Ġstops": 4100,
  "Ġshrink": 4101,
  "Fluffy": 4102,
  "ĠSunny": 4103,
  "ron": 4104,
  "igloo": 4105,
  "Ġholes": 4106,
  "Ġigloo": 4107,
  "Ow": 4108,
  "arian": 4109,
  "Ġbathrobe": 4110,
  "ucet": 4111,
  "Ġpicking": 4112,
  "Ġmummy": 4113,
  "Ġzipper": 4114,
  "ĠZip": 4115,
  "Ġnature": 4116,
  "Ġprov": 4117,
  "Ġson": 4118,
  "aches": 4119,
  "Ġfisher": 4120,
  "Ġreindeer": 4121,
  "Ġfaucet": 4122,
  "ĠSnow": 4123,
  "Ġhappier": 4124,
  "Ġpenguin": 4125,
  "lu": 4126,
  "Ġlistening": 4127,
  "Ġjokes": 4128,
  "cu": 4129,
  "arry": 4130,
  "affe": 4131,
  "Ġroared": 4132,
  "Ġcomplete": 4133,
  "Ġped": 4134,
  "Ġpressed": 4135,
  "aurant": 4136,
  "Ġsub": 4137,
  "Ġnapkin": 4138,
  "iction": 4139,
  "Ġrestaurant": 4140,
  "Ġjumps": 4141,
  "vice": 4142,
  "Ġbury": 4143,
  "Ġnames": 4144,
  "Ġpor": 4145,
  "Ġcomfort": 4146,
  "Ġsym": 4147,
  "Ġtaller": 4148,
  "fa": 4149,
  "Ġdiscovered": 4150,
  "ictionary": 4151,
  "Ġsuper": 4152,
  "Is": 4153,
  "Little": 4154,
  "Ġbutterflies": 4155,
  "Ġbikes": 4156,
  "iest": 4157,
  "Ġvaluable": 4158,
  "Ġperfume": 4159,
  "Ġnewspaper": 4160,
  "ocer": 4161,
  "Ġskirt": 4162,
  "ĠRob": 4163,
  "bol": 4164,
  "Ġneat": 4165,
  "ĠAre": 4166,
  "Ġrece": 4167,
  "reek": 4168,
  "Ġtrail": 4169,
  "Ġsparkly": 4170,
  "Ġsymbol": 4171,
  "Ġstretched": 4172,
  "ampoo": 4173,
  "Ġshaking": 4174,
  "Ġgrowing": 4175,
  "Ġclimbing": 4176,
  "Ġblin": 4177,
  "Ġcreek": 4178,
  "Ġjewelry": 4179,
  "Ġtub": 4180,
  "oceros": 4181,
  "Mr": 4182,
  "Ġspoke": 4183,
  "Ġgasped": 4184,
  "Ġoffered": 4185,
  "Ġletters": 4186,
  "Ġlip": 4187,
  "Ġsnap": 4188,
  "Ġsweetie": 4189,
  "Ġattach": 4190,
  "Ġinclu": 4191,
  "Ġfisherman": 4192,
  "Mummy": 4193,
  "Ġpapers": 4194,
  "Ġblouse": 4195,
  "Ġsquirrels": 4196,
  "del": 4197,
  "Ġbeep": 4198,
  "iches": 4199,
  "Ġcards": 4200,
  "Ġlie": 4201,
  "ĠToby": 4202,
  "zag": 4203,
  "Ġswamp": 4204,
  "Ġfreezer": 4205,
  "Ġsandwiches": 4206,
  "alend": 4207,
  "Ġchose": 4208,
  "ĠMar": 4209,
  "Ġolive": 4210,
  "Ġdictionary": 4211,
  "Ġcliff": 4212,
  "ĠSusie": 4213,
  "Ġunpack": 4214,
  "ik": 4215,
  "Ġweigh": 4216,
  "Ġrhinoceros": 4217,
  "Ġhung": 4218,
  "Ġcalend": 4219,
  "Ġext": 4220,
  "Ġgiraffe": 4221,
  "Ġfrogs": 4222,
  "Ġresist": 4223,
  "Ġbillboard": 4224,
  "Ġalarm": 4225,
  "Ġshampoo": 4226,
  "Ġtightly": 4227,
  "Ġhelper": 4228,
  "Ġbookshe": 4229,
  "igzag": 4230,
  "Ġpopped": 4231,
  "Ġairport": 4232,
  "stri": 4233,
  "Ġdistance": 4234,
  "lter": 4235,
  "Ġhut": 4236,
  "Ġanyway": 4237,
  "Ġagree": 4238,
  "Ġporch": 4239,
  "Ġmule": 4240,
  "Ġstirred": 4241,
  "gen": 4242,
  "Ġshelter": 4243,
  "Ġbookshelf": 4244,
  "Ġstickers": 4245,
  "Ġrazor": 4246,
  "Ġsoil": 4247,
  "Ġsofa": 4248,
  "Ġcrib": 4249,
  "Ġsubway": 4250,
  "Ġcalendar": 4251,
  "omed": 4252,
  "Ġmodel": 4253,
  "Ġpainter": 4254,
  "fast": 4255,
  "Ġadvice": 4256,
  "Ġgym": 4257,
  "Ġrubber": 4258,
  "Ġopera": 4259,
  "Ġagainst": 4260,
  "Ġgas": 4261,
  "Ouch": 4262,
  "ogn": 4263,
  "Ġbreakfast": 4264,
  "Ġrecogn": 4265,
  "ival": 4266,
  "Ġbelongs": 4267,
  "Ġswinging": 4268,
  "Ġfest": 4269,
  "Ġdisag": 4270,
  "Ġtut": 4271,
  "Ġobser": 4272,
  "Ġslipp": 4273,
  "Ġpinch": 4274,
  "Ġreverse": 4275,
  "Ġmustache": 4276,
  "Ġdoesn": 4277,
  "Ġbuckle": 4278,
  "Ġpage": 4279,
  "Ġceiling": 4280,
  "Ġleaving": 4281,
  "Ġextra": 4282,
  "Ġhate": 4283,
  "Ġcircles": 4284,
  "Ġpleased": 4285,
  "Ġostri": 4286,
  "Ġpeeked": 4287,
  "Ġknob": 4288,
  "Ġtutor": 4289,
  "Ġblueberries": 4290,
  "Ġahead": 4291,
  "Ġseparate": 4292,
  "ĠTeddy": 4293,
  "Ġlightning": 4294,
  "Ġchance": 4295,
  "ummer": 4296,
  "Ġrefused": 4297,
  "ĠPandy": 4298,
  "Daisy": 4299,
  "Ġmusician": 4300,
  "asis": 4301,
  "Ġserve": 4302,
  "Ġdisappear": 4303,
  "ola": 4304,
  "Ġfestival": 4305,
  "Ġriding": 4306,
  "Ġhappens": 4307,
  "ĠGrandpa": 4308,
  "Ġvehicle": 4309,
  "Ġrules": 4310,
  "Ġlawy": 4311,
  "te": 4312,
  "Ġtrains": 4313,
  "Ġunif": 4314,
  "Ġdancer": 4315,
  "Ġuniform": 4316,
  "rmomet": 4317,
  "Ġoasis": 4318,
  "Ġanywhere": 4319,
  "rmometer": 4320,
  "Ġpanda": 4321,
  "eor": 4322,
  "Ġlawn": 4323,
  "Ġjunk": 4324,
  "Ġwipe": 4325,
  "aspoon": 4326,
  "Ġtease": 4327,
  "Ġpoint": 4328,
  "Ġins": 4329,
  "Ġfort": 4330,
  "render": 4331,
  "ef": 4332,
  "Ġweather": 4333,
  "Ġsqueeze": 4334,
  "Ġlumber": 4335,
  "Ġdreaming": 4336,
  "Ġwinter": 4337,
  "Ġpastel": 4338,
  "Ġleaned": 4339,
  "Ġrescue": 4340,
  "Ġpoked": 4341,
  "Ġaccidentally": 4342,
  "ĠLee": 4343,
  "Ġbrick": 4344,
  "ience": 4345,
  "Ġtrade": 4346,
  "Ġteaspoon": 4347,
  "Ġdrain": 4348,
  "Ġswung": 4349,
  "Ġbeef": 4350,
  "night": 4351,
  "ĠDolly": 4352,
  "aked": 4353,
  "Ġgoal": 4354,
  "Ġstom": 4355,
  "Ġcarrying": 4356,
  "Ġrail": 4357,
  "Ġadmire": 4358,
  "res": 4359,
  "Ġmeeting": 4360,
  "Ġostrich": 4361,
  "xy": 4362,
  "Ġmistakes": 4363,
  "Ġbet": 4364,
  "Ġsounded": 4365,
  "Ġremove": 4366,
  "Ġinvite": 4367,
  "Ġpeek": 4368,
  "Ġbirdc": 4369,
  "Ġlawyer": 4370,
  "Ġquiz": 4371,
  "Ġsuff": 4372,
  "ĠMrs": 4373,
  "ĠCo": 4374,
  "Ġstarts": 4375,
  "Ġgrape": 4376,
  "!\".": 4377,
  "Ġbirdcage": 4378,
  "Ġbookcase": 4379,
  "Ġcaring": 4380,
  "na": 4381,
  "Ġmissing": 4382,
  "eorge": 4383,
  "Ġpages": 4384,
  "Ġchasing": 4385,
  "ium": 4386,
  "Ġthermometer": 4387,
  "Ġtheater": 4388,
  "Ġproblems": 4389,
  "Ġfurn": 4390,
  "iture": 4391,
  "Ġwindows": 4392,
  "Ġfurniture": 4393,
  "Ġmonkeys": 4394,
  "Ġlid": 4395,
  "Ġblinked": 4396,
  "Ġsummer": 4397,
  "ĠBubb": 4398,
  "Ġimagined": 4399,
  "ĠCl": 4400,
  "ĠWhere": 4401,
  "Ġwarned": 4402,
  "Ġaccept": 4403,
  "Ġspoil": 4404,
  "Ġshouts": 4405,
  "Ġtwir": 4406,
  "Ġrespectful": 4407,
  "Ġolder": 4408,
  "Ġlabel": 4409,
  "low": 4410,
  "riger": 4411,
  "rigerator": 4412,
  "Ġreef": 4413,
  "Ġbent": 4414,
  "Ġwigg": 4415,
  "Ġchairs": 4416,
  "ĠBow": 4417,
  "Ġsadly": 4418,
  "Ġrefrigerator": 4419,
  "Ġsunset": 4420,
  "Ġclassroom": 4421,
  "Ġfrowned": 4422,
  "ĠUn": 4423,
  "ĠCarl": 4424,
  "Ġwaste": 4425,
  "Ġsuggested": 4426,
  "Ġsteam": 4427,
  "Ġslip": 4428,
  "Ġabove": 4429,
  "med": 4430,
  "Ġzoomed": 4431,
  "Ġlic": 4432,
  "astic": 4433,
  "ĠV": 4434,
  "Ġevening": 4435,
  "Ġcudd": 4436,
  "amber": 4437,
  "Ġdelay": 4438,
  "ĠSpe": 4439,
  "Ġstable": 4440,
  "Ġbrightly": 4441,
  "Ġprevent": 4442,
  "ected": 4443,
  "Ġunite": 4444,
  "Ġproudly": 4445,
  "Ġfavour": 4446,
  "Ġgrabs": 4447,
  "Ġgrand": 4448,
  "Ġsent": 4449,
  "Ġfought": 4450,
  "Ġchoice": 4451,
  "angu": 4452,
  "ations": 4453,
  "Did": 4454,
  "Ġhanded": 4455,
  "iki": 4456,
  "adium": 4457,
  "Ġpair": 4458,
  "Ġstadium": 4459,
  "Ġfixing": 4460,
  "Ġfinds": 4461,
  "ĠBig": 4462,
  "Ġsearching": 4463,
  "Ġlions": 4464,
  "Ġpuddles": 4465,
  "Ġlangu": 4466,
  "Ġshower": 4467,
  "Ġberry": 4468,
  "ĠBill": 4469,
  "Ġfavourite": 4470,
  "Ġjail": 4471,
  "Ġinf": 4472,
  "sity": 4473,
  "rod": 4474,
  "Ġlicense": 4475,
  "Ġwine": 4476,
  "ĠHel": 4477,
  "Ġapron": 4478,
  "Ġsurrender": 4479,
  "Ġreminded": 4480,
  "Ġsupply": 4481,
  "Ġrestore": 4482,
  "cuss": 4483,
  "Ch": 4484,
  "ison": 4485,
  "Ġchamber": 4486,
  "inarian": 4487,
  "eterinarian": 4488,
  "Ġintrod": 4489,
  "Ġexcitedly": 4490,
  "Ġranch": 4491,
  "uggage": 4492,
  "mend": 4493,
  "Your": 4494,
  "Ġcared": 4495,
  "Ġveterinarian": 4496,
  "Ġsurprises": 4497,
  "Ġluggage": 4498,
  "ĠBoun": 4499,
  "Ġsaving": 4500,
  "veal": 4501,
  "Ġincre": 4502,
  "Ġfloat": 4503,
  "Ġmatches": 4504,
  "Ġharb": 4505,
  "olog": 4506,
  "Ġrac": 4507,
  "ommend": 4508,
  "Ġmineral": 4509,
  "Ġdiscuss": 4510,
  "Ġadmired": 4511,
  "Ġrecommend": 4512,
  "Ġsticker": 4513,
  "vet": 4514,
  "lex": 4515,
  "Ġpushing": 4516,
  "Ġhuman": 4517,
  "Ġart": 4518,
  "elcome": 4519,
  "Ġslippery": 4520,
  "Ġargue": 4521,
  "Ġplayer": 4522,
  "Ġreveal": 4523,
  "Ġdoors": 4524,
  "Ġcur": 4525,
  "hero": 4526,
  "Ġrushed": 4527,
  "Ġpulls": 4528,
  "Ġapolog": 4529,
  "Ġharbor": 4530,
  "Ġraise": 4531,
  "Ġplates": 4532,
  "Ġsuperhero": 4533,
  "Ġignore": 4534,
  "aul": 4535,
  "ĠAlice": 4536,
  "ucture": 4537,
  "Ġaw": 4538,
  "ĠNext": 4539,
  "Ġstructure": 4540,
  "Ġbeg": 4541,
  "Ġappl": 4542,
  "Ġreplace": 4543,
  "Ġforgave": 4544,
  "Ġmall": 4545,
  "Ġgro": 4546,
  "Ġsneezed": 4547,
  "Ġpanic": 4548,
  "Ġregret": 4549,
  "Ġpup": 4550,
  "Ġsudden": 4551,
  "thank": 4552,
  "Ġribbon": 4553,
  "Ġspade": 4554,
  "Ġlives": 4555,
  "alley": 4556,
  "Ġyield": 4557,
  "ricane": 4558,
  "Ġdelighted": 4559,
  "ĠJazz": 4560,
  "Ġchickens": 4561,
  "Ġmystery": 4562,
  "Ġmeas": 4563,
  "Ġvalley": 4564,
  "ecause": 4565,
  "Ġcolourful": 4566,
  "Ġweap": 4567,
  "ĠRed": 4568,
  "Ġshovel": 4569,
  "Ġsocks": 4570,
  "Ġsniffed": 4571,
  "Ġputting": 4572,
  "Ġshivering": 4573,
  "Ġevent": 4574,
  "Ġstrip": 4575,
  "Ġshakes": 4576,
  "Ġprepare": 4577,
  "Ġmenu": 4578,
  "ĠBuzzy": 4579,
  "Ġpoints": 4580,
  "ĠFreddy": 4581,
  "Yuck": 4582,
  "Ġplastic": 4583,
  "Ġbarks": 4584,
  "ĠBubbles": 4585,
  "Ġshone": 4586,
  "ĠMike": 4587,
  "ĠDave": 4588,
  "Ġrained": 4589,
  "Ġwre": 4590,
  "Ġleak": 4591,
  "ĠOw": 4592,
  "Ġfre": 4593,
  "iday": 4594,
  "Ġcountry": 4595,
  "ĠOlive": 4596,
  "Ġpushes": 4597,
  "cer": 4598,
  "ĠEllie": 4599,
  "icky": 4600,
  "Ġsprayed": 4601,
  "Ġended": 4602,
  "Ġnavy": 4603,
  "rise": 4604,
  "Ġinfant": 4605,
  "Ġthanks": 4606,
  "Yay": 4607,
  "ĠSpeedy": 4608,
  "Ġbrighter": 4609,
  "aud": 4610,
  "ason": 4611,
  "Ġdishes": 4612,
  "Ġsoftly": 4613,
  "Grandma": 4614,
  "Ġkeeping": 4615,
  "Ġshoulder": 4616,
  "Ġkneel": 4617,
  "Ġkinds": 4618,
  "Ġfreeze": 4619,
  "Ġtip": 4620,
  "ĠâĢ": 4621,
  "imed": 4622,
  "Ġport": 4623,
  "chan": 4624,
  "Ġhoping": 4625,
  "Ġbreat": 4626,
  "Ġheads": 4627,
  "Ġsunrise": 4628,
  "ero": 4629,
  "Ġclaw": 4630,
  "Ġcherry": 4631,
  "icer": 4632,
  "Ġhol": 4633,
  "Ġholiday": 4634,
  "ĠWould": 4635,
  "cast": 4636,
  "Ġhurricane": 4637,
  "Ġbend": 4638,
  "Ġsuffer": 4639,
  "Ġcastles": 4640,
  "Ġgiggle": 4641,
  "ĠBinky": 4642,
  "ari": 4643,
  "Ġprovide": 4644,
  "Ġscore": 4645,
  "Ġsandcast": 4646,
  "cond": 4647,
  "ĠFl": 4648,
  "Will": 4649,
  "Ġthrowing": 4650,
  "Ġenter": 4651,
  "Ġmeowed": 4652,
  "wards": 4653,
  "Ġsmells": 4654,
  "Ġuniverse": 4655,
  "Ġsecond": 4656,
  "Ġdear": 4657,
  "Ġlanguage": 4658,
  "ĠOr": 4659,
  "Mary": 4660,
  "Ġplanes": 4661,
  "Ġlaught": 4662,
  "Ġsticky": 4663,
  "Ġsplashing": 4664,
  "Ġlaughter": 4665,
  "ĠPat": 4666,
  "Ġunh": 4667,
  "Ġwreck": 4668,
  "Ġrooms": 4669,
  "ĠEnd": 4670,
  "ince": 4671,
  "Next": 4672,
  "Ġfresh": 4673,
  "chanic": 4674,
  "ement": 4675,
  "Ġapplaud": 4676,
  "Ġtrusted": 4677,
  "Ġmechanic": 4678,
  "acked": 4679,
  "Ġcourage": 4680,
  "Ġrow": 4681,
  "igi": 4682,
  "Ġbreaks": 4683,
  "Ġflies": 4684,
  "year": 4685,
  "Ġtoe": 4686,
  "Ġclapping": 4687,
  "Ġparts": 4688,
  "Ġx": 4689,
  "..": 4690,
  "Ġthumb": 4691,
  "Ġdem": 4692,
  "Ġsigh": 4693,
  "Ġrepeat": 4694,
  "Ġprune": 4695,
  "Ġsomewhere": 4696,
  "Ġfeelings": 4697,
  "Ġcopper": 4698,
  "oe": 4699,
  "Ġcontent": 4700,
  "Ġunhappy": 4701,
  "Ġmass": 4702,
  "Ġdare": 4703,
  "Ġweapon": 4704,
  "Qu": 4705,
  "ĠTed": 4706,
  "ĠKiki": 4707,
  "Ġletting": 4708,
  "Ġsport": 4709,
  "ĠHelp": 4710,
  "Ġmention": 4711,
  "Buddy": 4712,
  "Ġrush": 4713,
  "Ġjogged": 4714,
  "Ready": 4715,
  "erc": 4716,
  "Ġflood": 4717,
  "quest": 4718,
  "ophie": 4719,
  "Ġstreng": 4720,
  "Ġraining": 4721,
  "Ġener": 4722,
  "Ġsteel": 4723,
  "apping": 4724,
  "Ġstrength": 4725,
  "Ġmyself": 4726,
  "Ġcoats": 4727,
  "Ġthrows": 4728,
  "Emma": 4729,
  "Ġrequest": 4730,
  "Ġgreedy": 4731,
  "Ġchirp": 4732,
  "Ġinvit": 4733,
  "Ġdemand": 4734,
  "Ġskill": 4735,
  "Ġwarn": 4736,
  "Ann": 4737,
  "Ġpigs": 4738,
  "heart": 4739,
  "Ġleather": 4740,
  "ĠSque": 4741,
  "Ġyawned": 4742,
  "Ġstarting": 4743,
  "Ġpaid": 4744,
  "enry": 4745,
  "Ġscold": 4746,
  "Ġexerc": 4747,
  "Ġupstairs": 4748,
  "Ġeaten": 4749,
  "Ġshrugged": 4750,
  "Ġcrossed": 4751,
  "Ġalive": 4752,
  "ĠHoppy": 4753,
  "Ġexamine": 4754,
  "Ġuniversity": 4755,
  "Ġbouncing": 4756,
  "Ġpirates": 4757,
  "Ġdrops": 4758,
  "Ġflapped": 4759,
  "ially": 4760,
  "Ġpunish": 4761,
  "Ġbears": 4762,
  "Ġimpressed": 4763,
  "Alice": 4764,
  "Ġstrawberries": 4765,
  "Ġnation": 4766,
  "Ġtracks": 4767,
  "Ġpoison": 4768,
  "Ġyawn": 4769,
  "arlie": 4770,
  "Ġgiven": 4771,
  "Ġsqueezed": 4772,
  "bles": 4773,
  "ĠRu": 4774,
  "ĠY": 4775,
  "Ġsettle": 4776,
  "Ġscratch": 4777,
  "ĠLola": 4778,
  "Ġequ": 4779,
  "Lisa": 4780,
  "All": 4781,
  "Ġplaced": 4782,
  "Ġminute": 4783,
  "spec": 4784,
  "Ġstud": 4785,
  "Ġsty": 4786,
  "ĠJohnny": 4787,
  "Ġsweetheart": 4788,
  "Ġexplored": 4789,
  "Ġsparkled": 4790,
  "Ġrabbits": 4791,
  "Ġlemonade": 4792,
  "specially": 4793,
  "Ġbumped": 4794,
  "mare": 4795,
  "Daddy": 4796,
  "Ġsnugg": 4797,
  "Ġsandcastle": 4798,
  "ges": 4799,
  "Ġbuzz": 4800,
  "ĠSm": 4801,
  "inking": 4802,
  "Ġchecked": 4803,
  "Ġprayed": 4804,
  "Ġcheek": 4805,
  "Ġspots": 4806,
  "ĠMandy": 4807,
  "ween": 4808,
  "Mark": 4809,
  "Ġnews": 4810,
  "Ġtide": 4811,
  "Ġhorses": 4812,
  "Ġbetween": 4813,
  "Ġbelieved": 4814,
  "Ġwhistled": 4815,
  "Ġclaws": 4816,
  "reat": 4817,
  "Ġpedal": 4818,
  "Ġvac": 4819,
  "Ġbadly": 4820,
  "Ġwaving": 4821,
  "Ġheat": 4822,
  "ĠGigi": 4823,
  "Ġvroom": 4824,
  "Ġhills": 4825,
  "ipping": 4826,
  "ĠZoomy": 4827,
  "Ġexpect": 4828,
  "Ġespecially": 4829,
  "Ġobserve": 4830,
  "Ġsoak": 4831,
  "Ġhist": 4832,
  "ĠFox": 4833,
  "Ġblueberry": 4834,
  "Sh": 4835,
  "Ġstomach": 4836,
  "Ġhistory": 4837,
  "Ġscoop": 4838,
  "Ġnightmare": 4839,
  "Ġeasily": 4840,
  "noon": 4841,
  "ĠBee": 4842,
  "Ġbeauty": 4843,
  "Ġoffer": 4844,
  "Ġafternoon": 4845,
  "yth": 4846,
  "izes": 4847,
  "Before": 4848,
  "otten": 4849,
  "Ġacorns": 4850,
  "Ġpad": 4851,
  "ĠGeorge": 4852,
  "Ġentered": 4853,
  "Ġignored": 4854,
  "Ġtwisted": 4855,
  "Ġcalls": 4856,
  "Ġenergy": 4857,
  "ythm": 4858,
  "ĠSee": 4859,
  "ĠUnder": 4860,
  "men": 4861,
  "Ġbrain": 4862,
  "reeze": 4863,
  "Ġbother": 4864,
  "ĠSk": 4865,
  "Ġtour": 4866,
  "Ġnobody": 4867,
  "Ġlemons": 4868,
  "Ġinsisted": 4869,
  "Ġsnowball": 4870,
  "Ġimagination": 4871,
  "Ġdaisy": 4872,
  "Ġburned": 4873,
  "Ġprunes": 4874,
  "Ġblowing": 4875,
  "Fred": 4876,
  "Ġpermit": 4877,
  "Ġmassage": 4878,
  "ĠGrace": 4879,
  "Ġhearts": 4880,
  "Ġbeans": 4881,
  "hest": 4882,
  "Ġinclude": 4883,
  "tain": 4884,
  "Ġincrease": 4885,
  "Ġyucky": 4886,
  "ĠMummy": 4887,
  "quake": 4888,
  "ipment": 4889,
  "Ġburied": 4890,
  "Ġvacation": 4891,
  "Ġrhythm": 4892,
  "Ġtug": 4893,
  "Ġequipment": 4894,
  "Ġing": 4895,
  "Welcome": 4896,
  "mble": 4897,
  "ĠLilly": 4898,
  "Ġcrash": 4899,
  "Ġsir": 4900,
  "Ġprice": 4901,
  "Ġpalm": 4902,
  "Ġcandles": 4903,
  "Ġsafari": 4904,
  "Ġnetwork": 4905,
  "Ġbaking": 4906,
  "ĠFinn": 4907,
  "Ġgaz": 4908,
  "Ġencourage": 4909,
  "eration": 4910,
  "Ġingred": 4911,
  "Ġingredient": 4912,
  "ĠAlex": 4913,
  "illie": 4914,
  "Ġpitch": 4915,
  "Ġfollowing": 4916,
  "apa": 4917,
  "Ġshopkeeper": 4918,
  "Ġtremble": 4919,
  "Ġearthquake": 4920,
  "Ġsew": 4921,
  "Jenny": 4922,
  "Ġintroduce": 4923,
  "Ġmoves": 4924,
  "Ġbelow": 4925,
  "Ġfloated": 4926,
  "Ġwriting": 4927,
  "Ġstair": 4928,
  "laimed": 4929,
  "Ġpoppy": 4930,
  "Ġmailman": 4931,
  "Ġchewed": 4932,
  "Ġluck": 4933,
  "Ġfurt": 4934,
  "ecting": 4935,
  "Ġgrowled": 4936,
  "Ġfollows": 4937,
  "Ġbackpack": 4938,
  "Ġstrike": 4939,
  "Ġlear": 4940,
  "Ġpeanuts": 4941,
  "Ġlearnt": 4942,
  "Ġexclaimed": 4943,
  "edn": 4944,
  "ednesday": 4945,
  "Ġhopes": 4946,
  "Woof": 4947,
  "Ġslap": 4948,
  "Le": 4949,
  "Ġchore": 4950,
  "Ġweight": 4951,
  "Ġwags": 4952,
  "riage": 4953,
  "anges": 4954,
  "Ġattention": 4955,
  "Ġrecognize": 4956,
  "Ġteaching": 4957,
  "Ġplanned": 4958,
  "Ġfurther": 4959,
  "ĠElly": 4960,
  "Ġshouting": 4961,
  "ĠSnowy": 4962,
  "house": 4963,
  "Ġcomf": 4964,
  "Ġclosely": 4965,
  "With": 4966,
  "ĠDog": 4967,
  "ĠWho": 4968,
  "cery": 4969,
  "ĠFinny": 4970,
  "Ġgrocery": 4971,
  "resses": 4972,
  "Ġheel": 4973,
  "ĠSqueaky": 4974,
  "Ġfolded": 4975,
  "Ġconf": 4976,
  "Ġracing": 4977,
  "Ġbouncy": 4978,
  "Ġpulling": 4979,
  "Ġmama": 4980,
  "Ġchores": 4981,
  "Ġingredients": 4982,
  "unday": 4983,
  "Ġimage": 4984,
  "Ġzigzag": 4985,
  "emember": 4986,
  "Ġspike": 4987,
  "Ġlandscape": 4988,
  "ĠPaul": 4989,
  "look": 4990,
  "Ġelephants": 4991,
  "Ġcape": 4992,
  "isty": 4993,
  "Ġexercise": 4994,
  "ĠWednesday": 4995,
  "ĠSunday": 4996,
  "Ġblood": 4997,
  "Ġmarbles": 4998,
  "Ġwisdom": 4999,
  "Ġstyle": 5000,
  "Ġplanted": 5001,
  "ĠPip": 5002,
  "Mimi": 5003,
  "ĠOwl": 5004,
  "Ġscrat": 5005,
  "Ġble": 5006,
  "rec": 5007,
  "Ġdeeper": 5008,
  "ĠSharing": 5009,
  "uct": 5010,
  "Ġcub": 5011,
  "Ġstruggle": 5012,
  "Ġoperation": 5013,
  "hood": 5014,
  "Ġpuzzles": 5015,
  "ĊĠč": 5016,
  "xygen": 5017,
  "Ġexper": 5018,
  "igging": 5019,
  "osie": 5020,
  "Ġurge": 5021,
  "ĠWhenever": 5022,
  "ĠIs": 5023,
  "Ġdigging": 5024,
  "ĠHave": 5025,
  "Ġwinning": 5026,
  "Ġwhisper": 5027,
  "Ġdressed": 5028,
  "Ġapart": 5029,
  "ories": 5030,
  "Ġhurting": 5031,
  "Ġagre": 5032,
  "ĠZara": 5033,
  "ddy": 5034,
  "Ġplays": 5035,
  "Ġwashing": 5036,
  "Ġcreatures": 5037,
  "ĠRock": 5038,
  "Ġwarning": 5039,
  "ffic": 5040,
  "Ġmarriage": 5041,
  "Ġdresses": 5042,
  "ĠCoco": 5043,
  "ittens": 5044,
  "Ġquietly": 5045,
  "Ġpur": 5046,
  "ecture": 5047,
  "ucked": 5048,
  "Ġlecture": 5049,
  "ĠLucky": 5050,
  "Ġsnail": 5051,
  "ippy": 5052,
  "Ġfash": 5053,
  "Ġgifts": 5054,
  "Ġinvitation": 5055,
  "looking": 5056,
  "Ġunderground": 5057,
  "Ġtremb": 5058,
  "Ġreaches": 5059,
  "Ġworms": 5060,
  "ĠBounce": 5061,
  "Everyone": 5062,
  "Ġrelease": 5063,
  "Ġjazz": 5064,
  "Ġfallen": 5065,
  "Ġsprink": 5066,
  "Ġtraffic": 5067,
  "Ġwob": 5068,
  "ĠFroggy": 5069,
  "Ġsizes": 5070,
  "Ġsimp": 5071,
  "Ġquite": 5072,
  "Ġcaptain": 5073,
  "Ġworth": 5074,
  "Ġeagerly": 5075,
  "Ġlicks": 5076,
  "Ġvanished": 5077,
  "Ġmanage": 5078,
  "Ġfashion": 5079,
  "ĠTilly": 5080,
  "ĠRo": 5081,
  "ĠâĢĵ": 5082,
  "Ġdried": 5083,
  "oral": 5084,
  "Ġbreathe": 5085,
  "reci": 5086,
  "Ġideas": 5087,
  "Ġhon": 5088,
  "Ġsolved": 5089,
  "ĠSu": 5090,
  "ĠJoey": 5091,
  "Ġprinter": 5092,
  "ĠDanny": 5093,
  "etch": 5094,
  "Ġsailing": 5095,
  "Ġpaused": 5096,
  "sed": 5097,
  "Ġcounter": 5098,
  "Ġsnuggled": 5099,
  "ĠPenny": 5100,
  "Ġmice": 5101,
  "Ġappreci": 5102,
  "ĠGood": 5103,
  "ips": 5104,
  "Ġmemory": 5105,
  "Ġblink": 5106,
  "Ġshined": 5107,
  "Ġbalan": 5108,
  "Ġwatered": 5109,
  "pted": 5110,
  "Ġflap": 5111,
  "unately": 5112,
  "ĠSophie": 5113,
  "right": 5114,
  "Ġtwisty": 5115,
  "Bella": 5116,
  "sters": 5117,
  "Ġoh": 5118,
  "Ġmuddy": 5119,
  "isses": 5120,
  "Ġmarried": 5121,
  "Ġkisses": 5122,
  "Ġglo": 5123,
  "Ġresp": 5124,
  "bbing": 5125,
  "Because": 5126,
  "gie": 5127,
  "Ġpillows": 5128,
  "ccer": 5129,
  "Ġbrings": 5130,
  "Ġneighbour": 5131,
  "Ġdestroyed": 5132,
  "ĠBluey": 5133,
  "Ġvanish": 5134,
  "Ġseeing": 5135,
  "Ġaccepted": 5136,
  "raged": 5137,
  "These": 5138,
  "Ġinst": 5139,
  "mm": 5140,
  "Ġwandered": 5141,
  "Ġtomatoes": 5142,
  "Not": 5143,
  "Ġmemories": 5144,
  "Ġsoccer": 5145,
  "Ġwagging": 5146,
  "Ġduring": 5147,
  "Ġprints": 5148,
  "Ġsorts": 5149,
  "Ġbricks": 5150,
  "Ġseats": 5151,
  "Ġsits": 5152,
  "ĠEventually": 5153,
  "Ġfireworks": 5154,
  "Today": 5155,
  "ups": 5156,
  "Ġworse": 5157,
  "uesday": 5158,
  "Ġhers": 5159,
  "Ġappear": 5160,
  "Bl": 5161,
  "Ġgloves": 5162,
  "ops": 5163,
  "Ġreceive": 5164,
  "Ġbones": 5165,
  "Ġscolded": 5166,
  "iggly": 5167,
  "Remy": 5168,
  "Ġsnapped": 5169,
  "Ġexit": 5170,
  "ĠAnnie": 5171,
  "Ġbur": 5172,
  "Ġsi": 5173,
  "ĠTony": 5174,
  "ifi": 5175,
  "Ġeasier": 5176,
  "ived": 5177,
  "do": 5178,
  "Ġhits": 5179,
  "ĠEverything": 5180,
  "ĠMittens": 5181,
  "Ġzipped": 5182,
  "Ġcatching": 5183,
  "Ġgazed": 5184,
  "Ġscattered": 5185,
  "ino": 5186,
  "ux": 5187,
  "nce": 5188,
  "Surpr": 5189,
  "ising": 5190,
  "Ġdared": 5191,
  "ĠTuesday": 5192,
  "Yum": 5193,
  "Ġweb": 5194,
  "Ġallow": 5195,
  "ury": 5196,
  "Ġtreasures": 5197,
  "chie": 5198,
  "ĠRosie": 5199,
  "ĠPapa": 5200,
  "ĠCharlie": 5201,
  "rr": 5202,
  "bby": 5203,
  "ah": 5204,
  "Ġbeds": 5205,
  "Ġvel": 5206,
  "Ġclimbs": 5207,
  "Ġmarching": 5208,
  "Ġpetals": 5209,
  "Ġhadn": 5210,
  "Ġvelvet": 5211,
  "Ġtong": 5212,
  "Ġsigns": 5213,
  "Ġraised": 5214,
  "Ġgolden": 5215,
  "Ġshot": 5216,
  "Ġunlocked": 5217,
  "Ġpears": 5218,
  "Ġblankets": 5219,
  "Ġtrave": 5220,
  "Ġseason": 5221,
  "Ġcreated": 5222,
  "Ġbleed": 5223,
  "Ġbites": 5224,
  "ĠHarry": 5225,
  "Ġkitty": 5226,
  "une": 5227,
  "Ġrang": 5228,
  "Ġskills": 5229,
  "Ġoranges": 5230,
  "Ġoxygen": 5231,
  "Ġprett": 5232,
  "Ġpinched": 5233,
  "aped": 5234,
  "Ġpies": 5235,
  "Ġwaist": 5236,
  "Ġvisited": 5237,
  "Ġstuffed": 5238,
  "Ġfloating": 5239,
  "Ġdifference": 5240,
  "iers": 5241,
  "Ġspoons": 5242,
  "ding": 5243,
  "Ġcelebrated": 5244,
  "aker": 5245,
  "choo": 5246,
  "Ġlux": 5247,
  "Ġdisagree": 5248,
  "Ġsorting": 5249,
  "Ġsliding": 5250,
  "Ġtwirled": 5251,
  "ĠMaria": 5252,
  "Ġstitch": 5253,
  "Ġfro": 5254,
  "Ġforgotten": 5255,
  "ssible": 5256,
  "Ġbaked": 5257,
  "ĠHenry": 5258,
  "Ġnowhere": 5259,
  "Ġcakes": 5260,
  "ĠPinky": 5261,
  "Ġkingdom": 5262,
  "Ġjogging": 5263,
  "Ok": 5264,
  "ester": 5265,
  "Ġcutting": 5266,
  "esterday": 5267,
  "Ġguessed": 5268,
  "Ġsoldiers": 5269,
  "Surprise": 5270,
  "orted": 5271,
  "aggie": 5272,
  "Ġpearl": 5273,
  "Ġwelcomed": 5274,
  "Ġstraight": 5275,
  "Ġruin": 5276,
  "Ġbowed": 5277,
  "Ġcrow": 5278,
  "umble": 5279,
  "Ġlung": 5280,
  "medi": 5281,
  "Ġkicking": 5282,
  "Ġisn": 5283,
  "ĠKate": 5284,
  "mediately": 5285,
  "Ġurged": 5286,
  "Ġcollected": 5287,
  "ĠGod": 5288,
  "Ġunderstanding": 5289,
  "ction": 5290,
  "'ve": 5291,
  "Ġacted": 5292,
  "Ġwaffles": 5293,
  "fortunately": 5294,
  "Ġslice": 5295,
  "Ġshouldn": 5296,
  "ĠFifi": 5297,
  "Ġtoes": 5298,
  "Ġsimple": 5299,
  "Ġluxury": 5300,
  "Ġfetch": 5301,
  "Ġpatterns": 5302,
  "Ġmuscles": 5303,
  "ĠLiz": 5304,
  "Ġlined": 5305,
  "Ġfiref": 5306,
  "umes": 5307,
  "Ġtore": 5308,
  "Ġshed": 5309,
  "Ġsince": 5310,
  "Ġprinted": 5311,
  "Ġbreeze": 5312,
  "Ġselling": 5313,
  "Ġemer": 5314,
  "Ġwinner": 5315,
  "Ġencouraged": 5316,
  "Ġbang": 5317,
  "sit": 5318,
  "cus": 5319,
  "Ġpets": 5320,
  "Ġpunished": 5321,
  "Ġmeasured": 5322,
  "Ġcras": 5323,
  "Ġvict": 5324,
  "Ġlily": 5325,
  "Ġbye": 5326,
  "Ġpresents": 5327,
  "Moral": 5328,
  "Ġtrapped": 5329,
  "Ġweeping": 5330,
  "Ġtongue": 5331,
  "omeday": 5332,
  "akes": 5333,
  "ĠSpark": 5334,
  "eath": 5335,
  "Ġgrant": 5336,
  "Ġours": 5337,
  "Ġattached": 5338,
  "Ġwiz": 5339,
  "Ġjewels": 5340,
  "Ġcostumes": 5341,
  "ĠSte": 5342,
  "Ġbreaking": 5343,
  "ĠBaby": 5344,
  "ĠWiggly": 5345,
  "Ġpupil": 5346,
  "Ġolives": 5347,
  "Ġcollection": 5348,
  "rin": 5349,
  "Ġvoices": 5350,
  "Ġreceived": 5351,
  "Ġmeow": 5352,
  "ĠEach": 5353,
  "Ġfamil": 5354,
  "Ġsip": 5355,
  "ĠKing": 5356,
  "Ġmelted": 5357,
  "Ġgrin": 5358,
  "ĠQu": 5359,
  "ĠSmith": 5360,
  "Goodbye": 5361,
  "osed": 5362,
  "kins": 5363,
  "ĠMillie": 5364,
  "Ġsomeday": 5365,
  "Ġdrinks": 5366,
  "anny": 5367,
  "Ġbegged": 5368,
  "ĠBefore": 5369,
  "Ġpra": 5370,
  "ents": 5371,
  "Ġlips": 5372,
  "ĠSandy": 5373,
  "eep": 5374,
  "Ġwest": 5375,
  "ĠRuby": 5376,
  "Ġmouths": 5377,
  "Ġfishing": 5378,
  "aded": 5379,
  "Ġmentioned": 5380,
  "Ġnone": 5381,
  "Ġsurround": 5382,
  "ĠTuna": 5383,
  "Ġdrinking": 5384,
  "ĠBo": 5385,
  "Ġwhistling": 5386,
  "ring": 5387,
  "Ġwizard": 5388,
  "Ġperfectly": 5389,
  "Meow": 5390,
  "Ġexperience": 5391,
  "ishing": 5392,
  "Ġflat": 5393,
  "Leo": 5394,
  "Ġdisagreed": 5395,
  "Ġspit": 5396,
  "Ġladyb": 5397,
  "Ġsorted": 5398,
  "Ġshadows": 5399,
  "Ġskipping": 5400,
  "Ġappro": 5401,
  "ĠUncle": 5402,
  "Ġvictory": 5403,
  "vest": 5404,
  "Jen": 5405,
  "Ġringing": 5406,
  "ĠBoo": 5407,
  "Ġtonight": 5408,
  "Ġesc": 5409,
  "utter": 5410,
  "Ġpeaches": 5411,
  "Ġrelaxed": 5412,
  "Ġrul": 5413,
  "Ġcrunch": 5414,
  "ission": 5415,
  "Ġteasing": 5416,
  "Ġzero": 5417,
  "Blue": 5418,
  "Bobby": 5419,
  "Ġhurried": 5420,
  "ĠWally": 5421,
  "walk": 5422,
  "ther": 5423,
  "Ġstro": 5424,
  "Ġpermission": 5425,
  "Ġshock": 5426,
  "achel": 5427,
  "ĠRocky": 5428,
  "oved": 5429,
  "Ġlets": 5430,
  "Ġago": 5431,
  "Ġtrembling": 5432,
  "Ġkneeled": 5433,
  "ĠToto": 5434,
  "čĊĠč": 5435,
  "Ġsidewalk": 5436,
  "Ġhighest": 5437,
  "Ġsupposed": 5438,
  "Ġsneak": 5439,
  "Ġcolours": 5440,
  "Ġcartoons": 5441,
  "Ġwatches": 5442,
  "Ġsix": 5443,
  "ĠFollow": 5444,
  "Ġroots": 5445,
  "Ġpaints": 5446,
  "ĠThese": 5447,
  "Really": 5448,
  "Ġwarmth": 5449,
  "Ġmelting": 5450,
  "Ġherbs": 5451,
  "Ġbrus": 5452,
  "ety": 5453,
  "Ġtwink": 5454,
  "Ġpotatoes": 5455,
  "Ġstudied": 5456,
  "!\",": 5457,
  "Ġmoments": 5458,
  "Ġheaded": 5459,
  "Ġknown": 5460,
  "Sammy": 5461,
  "Ha": 5462,
  "Ġimmediately": 5463,
  "Ġworks": 5464,
  "Ġtucked": 5465,
  "Ġlands": 5466,
  "Ġfed": 5467,
  "Ġstrang": 5468,
  "ĠDino": 5469,
  "ĠAb": 5470,
  "Ġscreams": 5471,
  "Ġscratched": 5472,
  "ĠGr": 5473,
  "Ġlines": 5474,
  "ĠDr": 5475,
  "boo": 5476,
  "Bird": 5477,
  "\",": 5478,
  "Ġfields": 5479,
  "avid": 5480,
  "ded": 5481,
  "va": 5482,
  "Ġsettled": 5483,
  "Ġwiggle": 5484,
  "Ġlick": 5485,
  "Ġtwigs": 5486,
  "Ġlaid": 5487,
  "ĠSlow": 5488,
  "Ġdecorations": 5489,
  "ship": 5490,
  "Ġladybug": 5491,
  "icing": 5492,
  "Ġremained": 5493,
  "ĠJames": 5494,
  "Ġstrangers": 5495,
  "Ġinstr": 5496,
  "Andy": 5497,
  "Ġgirls": 5498,
  "Ġeast": 5499,
  "ĠMay": 5500,
  "Ġwaits": 5501,
  "Ġstealing": 5502,
  "Ġbroom": 5503,
  "isten": 5504,
  "Ġstamps": 5505,
  "Ġplaytime": 5506,
  "Ġopin": 5507,
  "sing": 5508,
  "Ġrested": 5509,
  "irring": 5510,
  "ĠIts": 5511,
  "Ġslapped": 5512,
  "Ġsucceeded": 5513,
  "ĠChe": 5514,
  "Mandy": 5515,
  "Ġtheirs": 5516,
  "Ġripped": 5517,
  "Ġalright": 5518,
  "ored": 5519,
  "Ġresting": 5520,
  "Ġhen": 5521,
  "Ġnails": 5522,
  "Ġbrid": 5523,
  "Ġarea": 5524,
  "ĠBoth": 5525,
  "Ġinvest": 5526,
  "Ġmuffins": 5527,
  "Ġsetting": 5528,
  "ĠChicky": 5529,
  "Ġofficer": 5530,
  "atie": 5531,
  "Peter": 5532,
  "Ġinvestig": 5533,
  "Ġthreat": 5534,
  "abies": 5535,
  "Ġemergen": 5536,
  "Ġsilence": 5537,
  "Ġachie": 5538,
  "Would": 5539,
  "Ġescaped": 5540,
  "please": 5541,
  "Boo": 5542,
  "Ġwink": 5543,
  "Ġmatched": 5544,
  "ĠPepper": 5545,
  "Ġsafety": 5546,
  "Ġguy": 5547,
  "Ġburning": 5548,
  "'.": 5549,
  "Ġordered": 5550,
  "igail": 5551,
  "Ġtwin": 5552,
  "ishes": 5553,
  "Ġbridges": 5554,
  "osity": 5555,
  "ĠSky": 5556,
  "Ġruler": 5557,
  "Ġmister": 5558,
  "Ġeats": 5559,
  "Ġpiles": 5560,
  "Ġmarks": 5561,
  "Ġinvestigate": 5562,
  "Ġcontest": 5563,
  "ĠHop": 5564,
  "xture": 5565,
  "Ġwrit": 5566,
  "Ġtexture": 5567,
  "Ġserved": 5568,
  "ides": 5569,
  "Ġappreciate": 5570,
  "Ġstirring": 5571,
  "ids": 5572,
  "Ġbabies": 5573,
  "Ġamazement": 5574,
  "Ġbravely": 5575,
  "Ġmixing": 5576,
  "ĠSomeone": 5577,
  "Ġturning": 5578,
  "zing": 5579,
  "Ġpupp": 5580,
  "Ġimportance": 5581,
  "Ġkeys": 5582,
  "Ġanswers": 5583,
  "Ġmonsters": 5584,
  "Ġtrips": 5585,
  "Ġsoaked": 5586,
  "Ġrecorded": 5587,
  "bers": 5588,
  "Ġquack": 5589,
  "ĠStar": 5590,
  "Ġtouching": 5591,
  "Ġadmir": 5592,
  "ha": 5593,
  "Ġyouth": 5594,
  "Ġdire": 5595,
  "Happy": 5596,
  "Ġsore": 5597,
  "Ġshopping": 5598,
  "Mmm": 5599,
  "Eventually": 5600,
  "Ġkeeps": 5601,
  "Ġhesit": 5602,
  "ĠClara": 5603,
  "Ġsisters": 5604,
  "Ġdads": 5605,
  "Ġcones": 5606,
  "Ġpraised": 5607,
  "Ġglowed": 5608,
  "Ġfoods": 5609,
  "Ġoat": 5610,
  "Ġinch": 5611,
  "antly": 5612,
  "Ġsoared": 5613,
  "Ġrevealed": 5614,
  "ĠLater": 5615,
  "plash": 5616,
  "uzz": 5617,
  "allen": 5618,
  "Momo": 5619,
  "Ġchewing": 5620,
  "anna": 5621,
  "Ġsparkle": 5622,
  "Ġchallen": 5623,
  "ĠHope": 5624,
  "Ġwooden": 5625,
  "ĠSuzy": 5626,
  "Ġcrunchy": 5627,
  "Ġitem": 5628,
  "Cat": 5629,
  "ĠAn": 5630,
  "Ġcurled": 5631,
  "izing": 5632,
  "Ġtickets": 5633,
  "Ġrides": 5634,
  "Ġemergency": 5635,
  "Ġhated": 5636,
  "hello": 5637,
  "Ġshooting": 5638,
  "Ġfut": 5639,
  "Ella": 5640,
  "ales": 5641,
  "fied": 5642,
  "Ġfuture": 5643,
  "Ġvet": 5644,
  "Ġflav": 5645,
  "ĠZigzag": 5646,
  "ĠSomething": 5647,
  "Ġtickle": 5648,
  "Ġdownstairs": 5649,
  "unnies": 5650,
  "Ġsprinkles": 5651,
  "Ġpeel": 5652,
  "ĠJul": 5653,
  "Ġsings": 5654,
  "ĠMo": 5655,
  "Ġbeamed": 5656,
  "Ġbeat": 5657,
  "ĠFirst": 5658,
  "Ġremem": 5659,
  "Ġsneaky": 5660,
  "Ġtastes": 5661,
  "Ġremembers": 5662,
  "ĠBug": 5663,
  "Tw": 5664,
  "Ġswims": 5665,
  "Ġstudying": 5666,
  "Ġbringing": 5667,
  "Ġchef": 5668,
  "Ġapproached": 5669,
  "Cl": 5670,
  "ĠFrog": 5671,
  "Ġbunnies": 5672,
  "ĠDid": 5673,
  "Ġbleeding": 5674,
  "ĠNot": 5675,
  "Ġthrill": 5676,
  "ĠOut": 5677,
  "Ġseesaw": 5678,
  "Ġleader": 5679,
  "Ġdinosaurs": 5680,
  "hind": 5681,
  "Ġstrings": 5682,
  "act": 5683,
  "Ġneighborhood": 5684,
  "ls": 5685,
  "irts": 5686,
  "Ġpride": 5687,
  "Ġdisturbed": 5688,
  "Ġgust": 5689,
  "Ġcrawling": 5690,
  "ues": 5691,
  "Ġwonders": 5692,
  "Ġkeeper": 5693,
  "aved": 5694,
  "Or": 5695,
  "Ġresult": 5696,
  "Ġmittens": 5697,
  "Emily": 5698,
  "Ġcollecting": 5699,
  "Ġeff": 5700,
  "Ġdoggy": 5701,
  "Ġapologized": 5702,
  "ibb": 5703,
  "Ġmeasuring": 5704,
  "ĠRabbit": 5705,
  "Ġhi": 5706,
  "ĠMe": 5707,
  "Ġsneaked": 5708,
  "Ġnicer": 5709,
  "ĠRay": 5710,
  "Ġdot": 5711,
  "affes": 5712,
  "Un": 5713,
  "Jake": 5714,
  "Ġowned": 5715,
  "!'": 5716,
  "Ġyelling": 5717,
  "Ġanytime": 5718,
  "ĠRachel": 5719,
  "Ġrespons": 5720,
  "Ġmotion": 5721,
  "Ġgiraffes": 5722,
  "Ġpoking": 5723,
  "Ġgained": 5724,
  ".'": 5725,
  "Ġgrey": 5726,
  "Ġloose": 5727,
  "Ġslim": 5728,
  "Ġnapping": 5729,
  "iggy": 5730,
  "Ġscooped": 5731,
  "Ġfiremen": 5732,
  "Ġcuddled": 5733,
  "Have": 5734,
  "Ġspaceship": 5735,
  "Ġprepared": 5736,
  "ĠHappy": 5737,
  "Ġpoems": 5738,
  "Ġobe": 5739,
  "Ġawe": 5740,
  "ogo": 5741,
  "Ġzooming": 5742,
  "Ġdraws": 5743,
  "ĠAlways": 5744,
  "ien": 5745,
  "Ollie": 5746,
  "Ġsiren": 5747,
  "Ġpedals": 5748,
  "Ġchirped": 5749,
  "Somet": 5750,
  "Ġwrites": 5751,
  "Ġcrashed": 5752,
  "ena": 5753,
  "ays": 5754,
  "Ġpossible": 5755,
  "Ġscaring": 5756,
  "Ġhappiest": 5757,
  "Ġcontain": 5758,
  "Ġboom": 5759,
  "Ġfamilies": 5760,
  "ĠStop": 5761,
  "ided": 5762,
  "Ġworker": 5763,
  "indy": 5764,
  "Ġsecrets": 5765,
  "Ġweighed": 5766,
  "Ġtricked": 5767,
  "Ġprec": 5768,
  "Ġnaps": 5769,
  "Ġcircus": 5770,
  "Ġstruck": 5771,
  "ppers": 5772,
  "ĠZoe": 5773,
  "elvet": 5774,
  "Ġhorns": 5775,
  "Ġsparkling": 5776,
  "Ġbrushes": 5777,
  "ped": 5778,
  "ĠHo": 5779,
  "Ġbehaved": 5780,
  "Ġwanting": 5781,
  "Ġrecognized": 5782,
  "Ġgrinned": 5783,
  "nie": 5784,
  "Ġobey": 5785,
  "ĠSlowly": 5786,
  "Ġeffort": 5787,
  "ĠJoy": 5788,
  "Ġnoon": 5789,
  "Ġwoof": 5790,
  "Ġslimy": 5791,
  "Ġknelt": 5792,
  "lier": 5793,
  "Ġtugged": 5794,
  "ĠCar": 5795,
  "Ġtallest": 5796,
  "Ġgoodnight": 5797,
  "Ġclaps": 5798,
  "oh": 5799,
  "Ġdecides": 5800,
  "ĠAm": 5801,
  "Ġsweeties": 5802,
  "Remember": 5803,
  "Ah": 5804,
  "Ġprop": 5805,
  "Ġdecorated": 5806,
  "Ġagreement": 5807,
  "ud": 5808,
  "Ġourselves": 5809,
  "ĠSqu": 5810,
  "Ġsides": 5811,
  "ĠBeep": 5812,
  "Ġpause": 5813,
  "Ġrele": 5814,
  "First": 5815,
  "Ġzookeeper": 5816,
  "Ġrepeated": 5817,
  "Ġacting": 5818,
  "Sp": 5819,
  "Ġbloomed": 5820,
  "ĠLizzy": 5821,
  "anted": 5822,
  "Ġprecious": 5823,
  "Ġhissed": 5824,
  "oys": 5825,
  "Ġsnowballs": 5826,
  "Ġbrushed": 5827,
  "Ġhardly": 5828,
  "Ġpots": 5829,
  "Ġspending": 5830,
  "Ġstaying": 5831,
  "Ġstripes": 5832,
  "Ġrocking": 5833,
  "Tr": 5834,
  "Ġpockets": 5835,
  "Ġopinion": 5836,
  "allow": 5837,
  "Ġrocked": 5838,
  "Ġseems": 5839,
  "zen": 5840,
  "riends": 5841,
  "Ġtraveled": 5842,
  "Ġpaintings": 5843,
  "ĠSteve": 5844,
  "Ġbuzzing": 5845,
  "Ġbelly": 5846,
  "Ġboo": 5847,
  "ĠVelvet": 5848,
  "Ġremoved": 5849,
  "Ġopening": 5850,
  "ĠDavid": 5851,
  "rs": 5852,
  "Ġcomfy": 5853,
  "oming": 5854,
  "Ġrust": 5855,
  "Ġfrost": 5856,
  "mother": 5857,
  "Ġbalancing": 5858,
  "urry": 5859,
  "Ġearlier": 5860,
  "Ġgoals": 5861,
  "Ġdecision": 5862,
  "omas": 5863,
  "ĠMaggie": 5864,
  "Ġkindly": 5865,
  "Ġgaze": 5866,
  "Rex": 5867,
  "Ġsurrounded": 5868,
  "Ġsadness": 5869,
  "Ġpowers": 5870,
  "Ġfrozen": 5871,
  "Ġthrilled": 5872,
  "Ġpolished": 5873,
  "Ġcuriosity": 5874,
  "Ġcracked": 5875,
  "Ġstruggling": 5876,
  "Ġpenguins": 5877,
  "Ġcomple": 5878,
  "loe": 5879,
  "ĠKeep": 5880,
  "Yummy": 5881,
  "Ġwiggled": 5882,
  "ĠLike": 5883,
  "Ġadmiring": 5884,
  "edding": 5885,
  "Ġwires": 5886,
  "Ġspraying": 5887,
  "Ġgranted": 5888,
  "ities": 5889,
  "Ġcrumb": 5890,
  "Ġbuckets": 5891,
  "ĠSplash": 5892,
  "wh": 5893,
  "Susie": 5894,
  "ĠLou": 5895,
  "Ducky": 5896,
  "ĠAbigail": 5897,
  "Ġexpected": 5898,
  "Ġsafer": 5899,
  "Ġloving": 5900,
  "ĠFrank": 5901,
  "ĠAunt": 5902,
  "Ġfrosting": 5903,
  "Ġdragons": 5904,
  "Ġparties": 5905,
  "Ġdipped": 5906,
  "Ġradishes": 5907,
  "Ġpetted": 5908,
  "isdom": 5909,
  "Ġsteep": 5910,
  "Ġneighbors": 5911,
  "Ġhonk": 5912,
  "Ġeight": 5913,
  "Ġpouring": 5914,
  "Ġcomforted": 5915,
  "Ġwhatever": 5916,
  "Ġtoss": 5917,
  "Ġrubbing": 5918,
  "Ġdeser": 5919,
  "Ġcatches": 5920,
  "Ġloaded": 5921,
  "Ġapologize": 5922,
  "Ġrip": 5923,
  "Ġlied": 5924,
  "ĠBirdie": 5925,
  "ĠChr": 5926,
  "Ġsausages": 5927,
  "Ex": 5928,
  "use": 5929,
  "Ġroaring": 5930,
  "Ġfasc": 5931,
  "Ġreleased": 5932,
  "Ġpeppers": 5933,
  "Ġpadd": 5934,
  "Ġargued": 5935,
  "ib": 5936,
  "ĠGogo": 5937,
  "Ġsighs": 5938,
  "During": 5939,
  "Ġchases": 5940,
  "uke": 5941,
  "Ġstare": 5942,
  "Ġyesterday": 5943,
  "Ġfolding": 5944,
  "Sometimes": 5945,
  "Ġmatching": 5946,
  "Ġbuildings": 5947,
  "Ro": 5948,
  "Ġroads": 5949,
  "Ġmane": 5950,
  "Thanks": 5951,
  "Ġgathering": 5952,
  "Ġsting": 5953,
  "Ġhugging": 5954,
  "Ġeagle": 5955,
  "Ġcuts": 5956,
  "Ġbeside": 5957,
  "ĠWatch": 5958,
  "ĠEveryday": 5959,
  "Ġprotected": 5960,
  "Ġplanets": 5961,
  "ĠPippa": 5962,
  "Ġsunlight": 5963,
  "Ġquarreling": 5964,
  "Ġdragged": 5965,
  "Ġbeard": 5966,
  "ĠMilly": 5967,
  "ĠWater": 5968,
  "Ġwedding": 5969,
  "Ġkites": 5970,
  "Ġcaut": 5971,
  "Ġribbons": 5972,
  "Ġpeered": 5973,
  "Ġcontinue": 5974,
  "arth": 5975,
  "Ġunited": 5976,
  "Ġplayroom": 5977,
  "Ġorganizing": 5978,
  "Ġclearing": 5979,
  "lowers": 5980,
  "Ġtim": 5981,
  "ern": 5982,
  "ana": 5983,
  "Ġteaches": 5984,
  "Ġsparkles": 5985,
  "Ġmachines": 5986,
  "Ġdemanded": 5987,
  "ĠRobby": 5988,
  "Johnny": 5989,
  "Ġbaker": 5990,
  "Ġcrabs": 5991,
  "Ġsled": 5992,
  "Ġflags": 5993,
  "Ġfascin": 5994,
  "Ġairpl": 5995,
  "Whiskers": 5996,
  "Ġflutter": 5997,
  "Ġsplashes": 5998,
  "Ġdiving": 5999,
  "Ġann": 6000,
  "ĠEn": 6001,
  "Ġstruggled": 6002,
  "Ġpastels": 6003,
  "Ġdiscovery": 6004,
  "Ġsmiley": 6005,
  "Ġphot": 6006,
  "ĠOlly": 6007,
  "amie": 6008,
  "ĠLeave": 6009,
  "Ġwid": 6010,
  "Ġsitu": 6011,
  "Ġargu": 6012,
  "Ġpretends": 6013,
  "Ġpolishing": 6014,
  "Ġmovies": 6015,
  "Ġcuddle": 6016,
  "Ġarguing": 6017,
  "Ġactually": 6018,
  "Ġvillag": 6019,
  "ĠBree": 6020,
  "Ġma": 6021,
  "Ġcubes": 6022,
  "umm": 6023,
  "Ġpebbles": 6024,
  "Ġshivered": 6025,
  "Ġshirts": 6026,
  "Fr": 6027,
  "Ġspiders": 6028,
  "Ġcompany": 6029,
  "ĠRemember": 6030,
  "Ġsatis": 6031,
  "Ġheroes": 6032,
  "ĠJu": 6033,
  "Ġfault": 6034,
  "ĠZero": 6035,
  "ĠX": 6036,
  "Ġwondering": 6037,
  "Ġshrug": 6038,
  "ĠDare": 6039,
  "ĠBouncy": 6040,
  "Ġsmallest": 6041,
  "Ġrings": 6042,
  "ĠGreen": 6043,
  "Ġcontro": 6044,
  "Ġchallenge": 6045,
  "ashed": 6046,
  "Uh": 6047,
  "Ġrefres": 6048,
  "Ġpacking": 6049,
  "ĠKatie": 6050,
  "Ġvillagers": 6051,
  "Ġtalent": 6052,
  "Ġfirefight": 6053,
  "Ġbank": 6054,
  "Ġresponsible": 6055,
  "seek": 6056,
  "Ġpencils": 6057,
  "Ġgotten": 6058,
  "aws": 6059,
  "Ġtowels": 6060,
  "Ġteased": 6061,
  "Ġreminder": 6062,
  "Ġcrept": 6063,
  "Ġbedtime": 6064,
  "jam": 6065,
  "Achoo": 6066,
  "Ġdusty": 6067,
  "Dave": 6068,
  "Ġbottles": 6069,
  "dam": 6070,
  "Ġvideos": 6071,
  "Ġpurred": 6072,
  "annah": 6073,
  "Ġfears": 6074,
  "Ġcompleted": 6075,
  "joyed": 6076,
  "Ġstretching": 6077,
  "Ġonwards": 6078,
  "ĠJe": 6079,
  "sses": 6080,
  "Ġoverjoyed": 6081,
  "Ġwasted": 6082,
  "Ġpatience": 6083,
  "Luna": 6084,
  "Ġprettiest": 6085,
  "Ġlimes": 6086,
  "Ġknights": 6087,
  "Ġrealize": 6088,
  "Ġdrives": 6089,
  "ĠJess": 6090,
  "Ġmountains": 6091,
  "inda": 6092,
  "Silly": 6093,
  "Ġsoaring": 6094,
  "Ġpeas": 6095,
  "Ġwherever": 6096,
  "Ġwound": 6097,
  "laire": 6098,
  "Ġwins": 6099,
  "Ġsticking": 6100,
  "ĠBeth": 6101,
  "ĠBecause": 6102,
  "Ġhealed": 6103,
  "Ġbegin": 6104,
  "Ġweeks": 6105,
  "Ġreply": 6106,
  "ĠBeing": 6107,
  "athy": 6108,
  "Ġgrandmother": 6109,
  "Ġdestination": 6110,
  "Ġbead": 6111,
  "Ġuses": 6112,
  "Ġbowls": 6113,
  "ĠMat": 6114,
  "Ġscales": 6115,
  "Doggy": 6116,
  "Ġdarker": 6117,
  "ining": 6118,
  "Ġdied": 6119,
  "Ġprotecting": 6120,
  "ĠStitch": 6121,
  "anta": 6122,
  "ĠWisdom": 6123,
  "enty": 6124,
  "Tiny": 6125,
  "hee": 6126,
  "Ġvisiting": 6127,
  "Ġapplauded": 6128,
  "Ġthird": 6129,
  "Ġshelves": 6130,
  "Ġagrees": 6131,
  "Ġactions": 6132,
  "Ġaccom": 6133,
  "Ġtails": 6134,
  "Ġdam": 6135,
  "ĠMoo": 6136,
  "uzzy": 6137,
  "icorn": 6138,
  "Ġperched": 6139,
  "âĢĿ.": 6140,
  "cakes": 6141,
  "Ġunicorn": 6142,
  "Ġphotos": 6143,
  "ubbed": 6144,
  "Ġscrubbed": 6145,
  "Ġguns": 6146,
  "Ġdent": 6147,
  "Ġchips": 6148,
  "ley": 6149,
  "ĠPut": 6150,
  "Ġwrist": 6151,
  "Ġsnakes": 6152,
  "Ġlogs": 6153,
  "uckily": 6154,
  "George": 6155,
  "Ġexamined": 6156,
  "...": 6157,
  "Ġpumpkins": 6158,
  "Ġaccompl": 6159,
  "ĠPrin": 6160,
  "uest": 6161,
  "Ġinstruct": 6162,
  "Ġhelmets": 6163,
  "Ġbunch": 6164,
  "Ġawake": 6165,
  "ilo": 6166,
  "Ġmasks": 6167,
  "Ġexact": 6168,
  "Ġcontrol": 6169,
  "ica": 6170,
  "Ġparked": 6171,
  "Ġcrumbs": 6172,
  "Ġheav": 6173,
  "Ġalien": 6174,
  "Ġshoulders": 6175,
  "Ġlearns": 6176,
  "Ġguest": 6177,
  "Bunny": 6178,
  "ĠBrownie": 6179,
  "Ġimproved": 6180,
  "Ġbatteries": 6181,
  "Watch": 6182,
  "Ġhitting": 6183,
  "Ġchirping": 6184,
  "ners": 6185,
  "ĠSpring": 6186,
  "Ġroses": 6187,
  "ira": 6188,
  "Ġscreaming": 6189,
  "Ġblows": 6190,
  "ĠFish": 6191,
  "Ġglitter": 6192,
  "ĠBehind": 6193,
  "ĠCra": 6194,
  "aty": 6195,
  "Ġweren": 6196,
  "Ġjoking": 6197,
  "Ġlollipops": 6198,
  "Ġachieve": 6199,
  "Mar": 6200,
  "Ġairplane": 6201,
  "Ġwhose": 6202,
  "Ġproject": 6203,
  "Ġlap": 6204,
  "go": 6205,
  "Ġfairies": 6206,
  "Rob": 6207,
  "Ġrequested": 6208,
  "Ġoutdo": 6209,
  "Stay": 6210,
  "Ġrule": 6211,
  "Ġcause": 6212,
  "irm": 6213,
  "Poppy": 6214,
  "Fo": 6215,
  "Ġvalued": 6216,
  "acob": 6217,
  "Time": 6218,
  "Ġcreation": 6219,
  "Lola": 6220,
  "Ġitems": 6221,
  "Ġcough": 6222,
  "Ġseas": 6223,
  "Ġprayer": 6224,
  "Ġbalanced": 6225,
  "Ġinstructions": 6226,
  "Ġforgi": 6227,
  "ĠCatty": 6228,
  "Ġpuppet": 6229,
  "Ġdolphins": 6230,
  "ĠFriends": 6231,
  "ĠEnjoy": 6232,
  "Ġbrand": 6233,
  "Benny": 6234,
  "Ġtasks": 6235,
  "Ġpatiently": 6236,
  "Ġfilling": 6237,
  "Ġlistens": 6238,
  "Ġcopy": 6239,
  "ĠAbby": 6240,
  "Ġsights": 6241,
  "Ġpans": 6242,
  "jamas": 6243,
  "Ġneither": 6244,
  "ĠBlink": 6245,
  "Ġstaring": 6246,
  "Ġreplaced": 6247,
  "Ġrefuse": 6248,
  "Ġactiv": 6249,
  "ĠHoot": 6250,
  "ĠHippy": 6251,
  "Ġstern": 6252,
  "Ġbeneath": 6253,
  "zes": 6254,
  "Ġswoop": 6255,
  "Ġreaching": 6256,
  "ayla": 6257,
  "Mike": 6258,
  "Ġrescued": 6259,
  "ĠEarth": 6260,
  "die": 6261,
  "Ġprettier": 6262,
  "ĠBy": 6263,
  "Ġpoliceman": 6264,
  "Pete": 6265,
  "Ġvent": 6266,
  "ĠOur": 6267,
  "angled": 6268,
  "ĠSun": 6269,
  "uctantly": 6270,
  "Bad": 6271,
  "Ġcurtains": 6272,
  "ĠBop": 6273,
  "Ġstole": 6274,
  "Ġcloses": 6275,
  "you": 6276,
  "Ġremote": 6277,
  "Ġcautious": 6278,
  "Ġarrive": 6279,
  "Ġrubs": 6280,
  "Ġpassing": 6281,
  "Ġfarther": 6282,
  "Ġcomplaining": 6283,
  "Ġ1": 6284,
  "Ġguys": 6285,
  "Ġbeads": 6286,
  "Ġcans": 6287,
  "ĠAva": 6288,
  "kelly": 6289,
  "Ġtune": 6290,
  "Ġpracticing": 6291,
  "gers": 6292,
  "dies": 6293,
  "Grandpa": 6294,
  "Ġcheering": 6295,
  "Ġteamwork": 6296,
  "Miss": 6297,
  "Ġpout": 6298,
  "bie": 6299,
  "araway": 6300,
  "Ġrainbows": 6301,
  "ĠSanta": 6302,
  "zie": 6303,
  "Ġtimer": 6304,
  "Ġseven": 6305,
  "Ġintroduc": 6306,
  "ĠDee": 6307,
  "Ġwobbled": 6308,
  "Ġquacked": 6309,
  "Ġconfl": 6310,
  "bl": 6311,
  "Ġpatted": 6312,
  "ĠHowever": 6313,
  "Zoom": 6314,
  "ĠDot": 6315,
  "ody": 6316,
  "neath": 6317,
  "Ġexactly": 6318,
  "ĠQuick": 6319,
  "Ġblooming": 6320,
  "Ġast": 6321,
  "Days": 6322,
  "Ġremembering": 6323,
  "Ġpromises": 6324,
  "Ġfaced": 6325,
  "Ġfaraway": 6326,
  "ĠLove": 6327,
  "aster": 6328,
  "Ġobserved": 6329,
  "ĠBye": 6330,
  "Ġfascinated": 6331,
  "lay": 6332,
  "Some": 6333,
  "Ġsneezing": 6334,
  "Ġfirm": 6335,
  "Ġbiting": 6336,
  "ĠJan": 6337,
  "esome": 6338,
  "Ġwinked": 6339,
  "Ġsuperheroes": 6340,
  "Ġincluded": 6341,
  "Paul": 6342,
  "Ġrolls": 6343,
  "Ġpastries": 6344,
  "Ġinviting": 6345,
  "Ġwindy": 6346,
  "Ġhelpers": 6347,
  "Great": 6348,
  "Ġusually": 6349,
  "Ġmission": 6350,
  "Ġmes": 6351,
  "agull": 6352,
  "Ġgems": 6353,
  "Ġworkers": 6354,
  "Ġoutdoors": 6355,
  "Ġcaused": 6356,
  "Ġpajamas": 6357,
  "Ġconflict": 6358,
  "ĠOnce": 6359,
  "uly": 6360,
  "Ġsituation": 6361,
  "Ġrockets": 6362,
  "Ġmisses": 6363,
  "Ġeveryday": 6364,
  "Ġdoctors": 6365,
  "Ġcandies": 6366,
  "Oops": 6367,
  "Ġstumble": 6368,
  "Run": 6369,
  "eah": 6370,
  "Ġinsist": 6371,
  "Ġdesp": 6372,
  "ler": 6373,
  "Chirpy": 6374,
  "Ġinsects": 6375,
  "Ġawesome": 6376,
  "ĠThomas": 6377,
  "ĠSorry": 6378,
  "Henry": 6379,
  "Ġsteady": 6380,
  "Ġtables": 6381,
  "ĠSquirrel": 6382,
  "ĠChloe": 6383,
  "Ġneighbourhood": 6384,
  "Ġglasses": 6385,
  "Ġunf": 6386,
  "Ġreluctantly": 6387,
  "Ġdrums": 6388,
  "Ġstays": 6389,
  "Ġscarves": 6390,
  "Ġseagull": 6391,
  "Ġpaddle": 6392,
  "Ġloading": 6393,
  "Ġyourselves": 6394,
  "Ġuntie": 6395,
  "Ġtruly": 6396,
  "ĠUnfortunately": 6397,
  "Ġrecording": 6398,
  "ĠGet": 6399,
  "vin": 6400,
  "Ġdots": 6401,
  "ĠOl": 6402,
  "uggles": 6403,
  "sm": 6404,
  "Ġsobbed": 6405,
  "Ġbecoming": 6406,
  "Ġusual": 6407,
  "Ġtraded": 6408,
  "Ġsurface": 6409,
  "ĠSure": 6410,
  "Ġgrowling": 6411,
  "Ġbare": 6412,
  "ĠChew": 6413,
  "Ġropes": 6414,
  "Ġwarnings": 6415,
  "Ġthro": 6416,
  "ĠWant": 6417,
  "Ġdeal": 6418,
  "ĠHenny": 6419,
  "ĠStay": 6420,
  "ĠSad": 6421,
  "Dog": 6422,
  "Ġsolut": 6423,
  "Ġstarfish": 6424,
  "Ġsnowmen": 6425,
  "Ġpointy": 6426,
  "Ġcrowd": 6427,
  "ĠSkelly": 6428,
  "ĠJilly": 6429,
  "istle": 6430,
  "Ġclowns": 6431,
  "Ġyounger": 6432,
  "Ġsatisfied": 6433,
  "ĠSnuggles": 6434,
  "ĠMix": 6435,
  "ĠDodo": 6436,
  "coon": 6437,
  "An": 6438,
  "though": 6439,
  "Ġslam": 6440,
  "Ġsalty": 6441,
  "Ġminerals": 6442,
  "Ġhomework": 6443,
  "Ġitchy": 6444,
  "Ġdesert": 6445,
  "Fine": 6446,
  "Ġconfident": 6447,
  "inkle": 6448,
  "James": 6449,
  "iar": 6450,
  "Polly": 6451,
  "ĠFor": 6452,
  "Ġbadge": 6453,
  "ĠPrincess": 6454,
  "uddles": 6455,
  "Tina": 6456,
  "Ġunderneath": 6457,
  "Ġarrows": 6458,
  "ĠSw": 6459,
  "Yeah": 6460,
  "Ġcurly": 6461,
  "Ġchoo": 6462,
  "Ġlibrarian": 6463,
  "ĠKids": 6464,
  "Grace": 6465,
  "Ġnoses": 6466,
  "Ġcrackers": 6467,
  "ĠLion": 6468,
  "ĠDizzy": 6469,
  "Buzz": 6470,
  "Ġstartled": 6471,
  "anes": 6472,
  "Toby": 6473,
  "...\"": 6474,
  "Ġpaddled": 6475,
  "ĠRover": 6476,
  "ĠMon": 6477,
  "Annie": 6478,
  "Ġthroat": 6479,
  "Ġgiggling": 6480,
  "arter": 6481,
  "Ew": 6482,
  "ĠYes": 6483,
  "Ġjackets": 6484,
  "Ġdar": 6485,
  "ĠDuck": 6486,
  "Ġwipes": 6487,
  "Ġprincesses": 6488,
  "Ġornaments": 6489,
  "Ġkicks": 6490,
  "Pe": 6491,
  "Ġtwirl": 6492,
  "Ġsmarter": 6493,
  "ĠMouse": 6494,
  "ĠJones": 6495,
  "aa": 6496,
  "Ġdived": 6497,
  "Ġcovers": 6498,
  "ĠTwo": 6499,
  "Ġwandering": 6500,
  "Ġgears": 6501,
  "ĠWelcome": 6502,
  "fit": 6503,
  "Ġdelivered": 6504,
  "ĠQuack": 6505,
  "Our": 6506,
  "Ġswooped": 6507,
  "Ġdirection": 6508,
  "Ġrestored": 6509,
  "Ġknowled": 6510,
  "ĠJeff": 6511,
  "Ġtangled": 6512,
  "Ġknowledge": 6513,
  "avi": 6514,
  "Shh": 6515,
  "Ġripe": 6516,
  "Ġvowed": 6517,
  "Hold": 6518,
  "Ġforks": 6519,
  "Ġadding": 6520,
  "Ġtractor": 6521,
  "Ġcobwebs": 6522,
  "ĠZiggy": 6523,
  "Those": 6524,
  "Ġtravell": 6525,
  "Ġprovided": 6526,
  "Ġpaying": 6527,
  "Ġthorn": 6528,
  "Ġsquares": 6529,
  "Ġpiggy": 6530,
  "ados": 6531,
  "Roar": 6532,
  "Ġwears": 6533,
  "int": 6534,
  "Danny": 6535,
  "usan": 6536,
  "tuce": 6537,
  "Ġcomplained": 6538,
  "ĠPo": 6539,
  "ĠJulie": 6540,
  "ais": 6541,
  "Mrs": 6542,
  "Ġspong": 6543,
  "Ġoutfit": 6544,
  "ĠCuddles": 6545,
  "Ġchoices": 6546,
  "Ġchefs": 6547,
  "Ġbumpy": 6548,
  "Ġslower": 6549,
  "Ġleading": 6550,
  "Ġsupplies": 6551,
  "Ġhider": 6552,
  "ults": 6553,
  "Ġventured": 6554,
  "Ġseeker": 6555,
  "Ġcreating": 6556,
  "tle": 6557,
  "Ġunp": 6558,
  "Ġstem": 6559,
  "eed": 6560,
  "Ġrefle": 6561,
  "Ġdecorating": 6562,
  "ĠAnne": 6563,
  "rrr": 6564,
  "Ġlettuce": 6565,
  "oline": 6566,
  "Ġreads": 6567,
  "ĠPr": 6568,
  "Ġwow": 6569,
  "Ġguessing": 6570,
  "Ġbuzzed": 6571,
  "Ġavocados": 6572,
  "ido": 6573,
  "cuse": 6574,
  "anging": 6575,
  "ĠGrumpy": 6576,
  "Teddy": 6577,
  "Listen": 6578,
  "Ġhides": 6579,
  "Ġentire": 6580,
  "Ġcomm": 6581,
  "Ġchuck": 6582,
  "ĠJosh": 6583,
  "Ġwishing": 6584,
  "ĠAlly": 6585,
  "Ġrainy": 6586,
  "Ġmarked": 6587,
  "ctar": 6588,
  "True": 6589,
  "Ġnectar": 6590,
  "Ġcous": 6591,
  "ĠSc": 6592,
  "ophia": 6593,
  "ky": 6594,
  "Unfortunately": 6595,
  "Ġsqueal": 6596,
  "Ġscur": 6597,
  "Ġrefreshed": 6598,
  "Ġnine": 6599,
  "Ġtickled": 6600,
  "Ġjoked": 6601,
  "ĠAnt": 6602,
  "Ġyells": 6603,
  "Ġowners": 6604,
  "Ġvines": 6605,
  "Ġspeaking": 6606,
  "Ġbehaving": 6607,
  "Tweet": 6608,
  "Ġtipto": 6609,
  "Ġscurried": 6610,
  "Ġintroduced": 6611,
  "Ġexplorers": 6612,
  "Ġsponge": 6613,
  "ĠJamie": 6614,
  "ĠCathy": 6615,
  "vroom": 6616,
  "ouch": 6617,
  "ĠSkip": 6618,
  "Ġrisk": 6619,
  "Ġpraying": 6620,
  "Ġchat": 6621,
  "ĠMilo": 6622,
  "ĠEl": 6623,
  "cher": 6624,
  "ĠFoxy": 6625,
  "len": 6626,
  "bric": 6627,
  "Ġwaiter": 6628,
  "Ġfabric": 6629,
  "Ġdeserve": 6630,
  "However": 6631,
  "Ġlosing": 6632,
  "Ġclick": 6633,
  "usted": 6634,
  "Ġsigned": 6635,
  "Ġfroze": 6636,
  "ssss": 6637,
  "Ġmagnets": 6638,
  "ĠPaws": 6639,
  "Ġbarely": 6640,
  "ĠLuke": 6641,
  "Excuse": 6642,
  "?\",": 6643,
  "Ġpec": 6644,
  "Ġknocks": 6645,
  "Ġdiscovering": 6646,
  "Ġbravery": 6647,
  "ĠClaire": 6648,
  "izzie": 6649,
  "son": 6650,
  "Ġdarkness": 6651,
  "ĠDara": 6652,
  "Ġproperly": 6653,
  "Ġknees": 6654,
  "Ġtoaster": 6655,
  "Ġgreet": 6656,
  "Ġaccomplish": 6657,
  "amb": 6658,
  "Ġtricky": 6659,
  "Ġperformed": 6660,
  "Ġcautiously": 6661,
  "ĠQ": 6662,
  "Charlie": 6663,
  "Ġsinger": 6664,
  "Ġjobs": 6665,
  "Ġcompetition": 6666,
  "Ġbak": 6667,
  "ept": 6668,
  "ĠLinda": 6669,
  "ora": 6670,
  "itely": 6671,
  "Alex": 6672,
  "Ġwritten": 6673,
  "Ġavo": 6674,
  "elle": 6675,
  "Harry": 6676,
  "Ġlifting": 6677,
  "aura": 6678,
  "Ġthud": 6679,
  "Ġplayers": 6680,
  "Ġheavier": 6681,
  "Ġdentist": 6682,
  "Ġburst": 6683,
  "Ġpassports": 6684,
  "Ġnapkins": 6685,
  "Ġmuscle": 6686,
  "Joey": 6687,
  "Ġscrews": 6688,
  "Ġimages": 6689,
  "Ġhowever": 6690,
  "Ġbuying": 6691,
  "Maggie": 6692,
  "Ġruining": 6693,
  "Ġleaning": 6694,
  "Ġflames": 6695,
  "oke": 6696,
  "hog": 6697,
  "bly": 6698,
  "Ġswords": 6699,
  "Ġranger": 6700,
  "Ġmushrooms": 6701,
  "ĠWhistle": 6702,
  "ĠAsh": 6703,
  "ĠSnap": 6704,
  "ueen": 6705,
  "brush": 6706,
  "Ġrotting": 6707,
  "Ġexha": 6708,
  "rance": 6709,
  "Follow": 6710,
  "Beep": 6711,
  "Ġfigured": 6712,
  "?'": 6713,
  "Sophie": 6714,
  "Big": 6715,
  "Ġsolution": 6716,
  "Ġsilent": 6717,
  "Ġleap": 6718,
  "Ġcent": 6719,
  "Ġtires": 6720,
  "Ġraces": 6721,
  "Ġgrabbing": 6722,
  "Ġdances": 6723,
  "Ġbacked": 6724,
  "ĠRe": 6725,
  "Jerry": 6726,
  "Ġstain": 6727,
  "Ġpartic": 6728,
  "Ġcowb": 6729,
  "Ġswept": 6730,
  "Ġlighter": 6731,
  "bbie": 6732,
  "Ġsewed": 6733,
  "Ġdesigned": 6734,
  "Ġblocking": 6735,
  "Ġgrowls": 6736,
  "Ġflavor": 6737,
  "Ġwraps": 6738,
  "Ġstung": 6739,
  "Ġrainco": 6740,
  "Ġonions": 6741,
  "fl": 6742,
  "Ġsuffering": 6743,
  "Ġnecklaces": 6744,
  "ĠJessie": 6745,
  "Ġsnat": 6746,
  "Ġleast": 6747,
  "ĠThose": 6748,
  "ĠLena": 6749,
  "ĠĠč": 6750,
  "Ġpens": 6751,
  "Ġgrows": 6752,
  "Ġstool": 6753,
  "Ġreason": 6754,
  "ĠAdam": 6755,
  "Ġsuitcase": 6756,
  "Ġstolen": 6757,
  "Ġmatters": 6758,
  "Ġchuckled": 6759,
  "Ġbodies": 6760,
  "ĠNothing": 6761,
  "Whee": 6762,
  "Ġcuddly": 6763,
  "vers": 6764,
  "Ab": 6765,
  "Ġnibb": 6766,
  "Ġmeals": 6767,
  "ĠGoodbye": 6768,
  "Ġunpacked": 6769,
  "Ġmailed": 6770,
  "Ġwiping": 6771,
  "Ġbasement": 6772,
  "lee": 6773,
  "Ġforgets": 6774,
  "no": 6775,
  "iggie": 6776,
  "agic": 6777,
  "Ġforehead": 6778,
  "Ġfreed": 6779,
  "ĠSuzie": 6780,
  "ences": 6781,
  "Ġpancakes": 6782,
  "lephant": 6783,
  "Ġtwirling": 6784,
  "Ġtapped": 6785,
  "Ġhesitated": 6786,
  "ĠListen": 6787,
  "Ġconn": 6788,
  "Ġcolored": 6789,
  "Ġplayhouse": 6790,
  "Ġentrance": 6791,
  "ĠJacob": 6792,
  "Ġscratches": 6793,
  "sequ": 6794,
  "itches": 6795,
  "Ġstomped": 6796,
  "abel": 6797,
  "Ġuns": 6798,
  "Ġnests": 6799,
  "Ġconsequ": 6800,
  "Ġbars": 6801,
  "ĠMatt": 6802,
  "ivery": 6803,
  "Lilly": 6804,
  "Ġexhausted": 6805,
  "step": 6806,
  "rink": 6807,
  "band": 6808,
  "Ġsweets": 6809,
  "Ġmer": 6810,
  "Ġgri": 6811,
  "Ġfilms": 6812,
  "ĠRollie": 6813,
  "aterial": 6814,
  "Ġparticular": 6815,
  "Ġmaterial": 6816,
  "Ġfact": 6817,
  "Ġannoy": 6818,
  "ĠCopper": 6819,
  "Ġworries": 6820,
  "Ġrepa": 6821,
  "Ġbumps": 6822,
  "ĠHold": 6823,
  "Ġwrapping": 6824,
  "Ġgenie": 6825,
  "Ġdirect": 6826,
  "Ġcompletely": 6827,
  "ĠJenna": 6828,
  "ĠGina": 6829,
  "aren": 6830,
  "Ġneedles": 6831,
  "Ġbackward": 6832,
  "ĠTree": 6833,
  "Ġsteer": 6834,
  "Ġrotten": 6835,
  "Ġhedgehog": 6836,
  "Ġcheeks": 6837,
  "Ġcash": 6838,
  "ĠTry": 6839,
  "Ġrelief": 6840,
  "Ġmints": 6841,
  "Ġcounts": 6842,
  "Ġbudge": 6843,
  "For": 6844,
  "Ġhandful": 6845,
  "iding": 6846,
  "Ġbakery": 6847,
  "ĠHannah": 6848,
  "sty": 6849,
  "river": 6850,
  "nies": 6851,
  "Ġtwinkling": 6852,
  "Ġplenty": 6853,
  "Ġloops": 6854,
  "lets": 6855,
  "Ġfeast": 6856,
  "ĠQueen": 6857,
  "Ġsense": 6858,
  "Ġpurr": 6859,
  "Ġinterested": 6860,
  "Ġfuzzy": 6861,
  "Ġcamping": 6862,
  "Ġache": 6863,
  "Ġtunnels": 6864,
  "Ġscra": 6865,
  "weed": 6866,
  "Ġspreading": 6867,
  "Ġrepaired": 6868,
  "Ġdarling": 6869,
  "Ġcelebration": 6870,
  "mas": 6871,
  "itched": 6872,
  "Ġseaweed": 6873,
  "Ġhus": 6874,
  "ĠNana": 6875,
  "igning": 6876,
  "Sn": 6877,
  "Ġsunflowers": 6878,
  "Ġrising": 6879,
  "Ġconsequences": 6880,
  "Kate": 6881,
  "Ġlungs": 6882,
  "ĠWink": 6883,
  "Ġtriangles": 6884,
  "ĠBetsy": 6885,
  "ĠBall": 6886,
  "Ġprinting": 6887,
  "Ġlower": 6888,
  "ude": 6889,
  "boat": 6890,
  "Ġtalks": 6891,
  "Ġswimsuit": 6892,
  "Ġbehavi": 6893,
  "Ġactivities": 6894,
  "ĠBuggy": 6895,
  "cky": 6896,
  "Ġtwice": 6897,
  "ĠOliver": 6898,
  "ĠFido": 6899,
  "iles": 6900,
  "Ġsquealed": 6901,
  "Ġpeeking": 6902,
  "Ġseparated": 6903,
  "Ġhops": 6904,
  "ĠTara": 6905,
  "ĠChrist": 6906,
  "Ġmonth": 6907,
  "Ġchanging": 6908,
  "Ġbuses": 6909,
  "Ġastron": 6910,
  "indr": 6911,
  "Pat": 6912,
  "Ġsewing": 6913,
  "Ġraindr": 6914,
  "Ġlamb": 6915,
  "Ġforgetting": 6916,
  "rig": 6917,
  "Ġbaths": 6918,
  "ĠPup": 6919,
  "Ġty": 6920,
  "Ġdelivery": 6921,
  "ĠJessica": 6922,
  "ĠCara": 6923,
  "erate": 6924,
  "Ġpaths": 6925,
  "Ġfever": 6926,
  "Ġcott": 6927,
  "ĠMic": 6928,
  "yes": 6929,
  "ossible": 6930,
  "aisies": 6931,
  "Ġastronaut": 6932,
  "Ġuntied": 6933,
  "Ġfires": 6934,
  "ĠMad": 6935,
  "ammy": 6936,
  "ĠElephant": 6937,
  "Ġtramp": 6938,
  "Luckily": 6939,
  "Ġsnatched": 6940,
  "Ġpennies": 6941,
  "Ġshops": 6942,
  "Ġpecked": 6943,
  "Ġimpossible": 6944,
  "Ġhusband": 6945,
  "Ġdaisies": 6946,
  "ne": 6947,
  "Ġslammed": 6948,
  "ĠSnowman": 6949,
  "ĠBiggie": 6950,
  "Ġsquish": 6951,
  "Ġshrinking": 6952,
  "ĠWoof": 6953,
  "blings": 6954,
  "airy": 6955,
  "Take": 6956,
  "Ġswans": 6957,
  "llen": 6958,
  "iversity": 6959,
  "Ġspikes": 6960,
  "Ġsiblings": 6961,
  "Ġbeginning": 6962,
  "Ġage": 6963,
  "Ġwakes": 6964,
  "Ġrewarded": 6965,
  "Ġnotes": 6966,
  "Ġfeeding": 6967,
  "pen": 6968,
  "Ġden": 6969,
  "ĠBirthday": 6970,
  "rigued": 6971,
  "Ġpins": 6972,
  "Ġlifts": 6973,
  "Ġgroups": 6974,
  "Ġcalmed": 6975,
  "ĠChristmas": 6976,
  "Ġfirefly": 6977,
  "ĠCindy": 6978,
  "ĠčĊĠč": 6979,
  "Ġopp": 6980,
  "Ġleads": 6981,
  "Ġcountryside": 6982,
  "Ġborrowed": 6983,
  "ters": 6984,
  "Ġpouted": 6985,
  "Ġhearing": 6986,
  "Ġaimed": 6987,
  "ĠTwinkle": 6988,
  "but": 6989,
  "Ru": 6990,
  "rious": 6991,
  "elia": 6992,
  "Ġtrampoline": 6993,
  "Ġhealth": 6994,
  "Ġeverybody": 6995,
  "Ġdropping": 6996,
  "Ġclues": 6997,
  "cl": 6998,
  "Ġreflection": 6999,
  "Ġcolder": 7000,
  "Ġbows": 7001,
  "Ġrusty": 7002,
  "Ġstroll": 7003,
  "Ġdancers": 7004,
  "Ġcreations": 7005,
  "ans": 7006,
  "Ġtouches": 7007,
  "Ġdirections": 7008,
  "Bill": 7009,
  "Ġdetermination": 7010,
  "Ġcelebrating": 7011,
  "Ġcashier": 7012,
  "ĠTrust": 7013,
  "yond": 7014,
  "stick": 7015,
  "jo": 7016,
  "ivity": 7017,
  "Millie": 7018,
  "Ġthrown": 7019,
  "Ġbeyond": 7020,
  "ĠOnly": 7021,
  "Ġstroked": 7022,
  "Ġkings": 7023,
  "Ġdod": 7024,
  "arac": 7025,
  "Ġhonked": 7026,
  "Ġflapping": 7027,
  "Ġcust": 7028,
  "ĠRolly": 7029,
  "ĠJune": 7030,
  "May": 7031,
  "ĠYesterday": 7032,
  "ĠKayla": 7033,
  "Sandy": 7034,
  "Ġtwinkle": 7035,
  "Ġmesmer": 7036,
  "Ġinstrum": 7037,
  "ĠSusan": 7038,
  "ĠLaser": 7039,
  "ho": 7040,
  "cope": 7041,
  "Ġskunk": 7042,
  "Ġshoo": 7043,
  "Ġregretted": 7044,
  "Ġplanning": 7045,
  "Ġliqu": 7046,
  "Ġbells": 7047,
  "ĠBloom": 7048,
  "Sunny": 7049,
  "Ġspat": 7050,
  "Ġcustom": 7051,
  "rosty": 7052,
  "retch": 7053,
  "Bet": 7054,
  "Ġmoo": 7055,
  "Ġfrowning": 7056,
  "Co": 7057,
  "Always": 7058,
  "Ġpresses": 7059,
  "ĠNina": 7060,
  "using": 7061,
  "Rose": 7062,
  "Ġwobbly": 7063,
  "Ġfins": 7064,
  "ĠRain": 7065,
  "ĠâĢĺ": 7066,
  "Ġsway": 7067,
  "Ġtwisting": 7068,
  "Ġcharac": 7069,
  "ael": 7070,
  "Ġwarmer": 7071,
  "Ġsource": 7072,
  "Ġobjects": 7073,
  "Ġties": 7074,
  "Ġguests": 7075,
  "Ġaff": 7076,
  "arky": 7077,
  "Under": 7078,
  "Ġglued": 7079,
  "Ġbracelets": 7080,
  "ĠOther": 7081,
  "ĠMikey": 7082,
  "Ġgross": 7083,
  "Ġfart": 7084,
  "Ġcreativity": 7085,
  "Ġblocked": 7086,
  "ives": 7087,
  "Ġchop": 7088,
  "Ġadult": 7089,
  "Ġaccomplishment": 7090,
  "ĠWithout": 7091,
  "antha": 7092,
  "Ġwhispers": 7093,
  "Ġpuppies": 7094,
  "Ġstorekeeper": 7095,
  "Ġslips": 7096,
  "Ġraccoon": 7097,
  "ĠRich": 7098,
  "uing": 7099,
  "itude": 7100,
  "immer": 7101,
  "Ġyelp": 7102,
  "Ġsuffered": 7103,
  "Ġdamage": 7104,
  "Ġcousin": 7105,
  "ĠMel": 7106,
  "iti": 7107,
  "eese": 7108,
  "Ġsan": 7109,
  "Ġhopeful": 7110,
  "ĠBones": 7111,
  "Pipp": 7112,
  "Jump": 7113,
  "Bear": 7114,
  "Ġzebras": 7115,
  "Ġstrongest": 7116,
  "ĠFire": 7117,
  "ichael": 7118,
  "cho": 7119,
  "Ġtiptoed": 7120,
  "Ġliquid": 7121,
  "ĠEls": 7122,
  "eal": 7123,
  "atur": 7124,
  "Ġtweet": 7125,
  "Ġposter": 7126,
  "Ġfarthest": 7127,
  "Ġdollhouse": 7128,
  "ĠLizzie": 7129,
  "uess": 7130,
  "Ġspins": 7131,
  "Ġearn": 7132,
  "ĠJon": 7133,
  "lle": 7134,
  "itted": 7135,
  "iece": 7136,
  "Ġrains": 7137,
  "Ġlabels": 7138,
  "ĠJulia": 7139,
  "Ġswir": 7140,
  "Ġsank": 7141,
  "ĠLaura": 7142,
  "hi": 7143,
  "ades": 7144,
  "Ġstopping": 7145,
  "Ġshaped": 7146,
  "Ġincluding": 7147,
  "armer": 7148,
  "Ġstudents": 7149,
  "Ġstreets": 7150,
  "Ġrobots": 7151,
  "Ġrecipe": 7152,
  "Ġmagazines": 7153,
  "illed": 7154,
  "ility": 7155,
  "Dan": 7156,
  "Ġsailors": 7157,
  "ĠJump": 7158,
  "crow": 7159,
  "Ġvehicles": 7160,
  "Ġsomebody": 7161,
  "Ġslowed": 7162,
  "Ġplain": 7163,
  "Ġfits": 7164,
  "âĢĶ": 7165,
  "driver": 7166,
  "allowed": 7167,
  "Quack": 7168,
  "Ġswallowed": 7169,
  "Ġsparks": 7170,
  "Ġimagining": 7171,
  "Ġflavors": 7172,
  "Ġvanilla": 7173,
  "Ġsniffs": 7174,
  "Ġrecommended": 7175,
  "Ġincreased": 7176,
  "Ġgrocer": 7177,
  "Ġencourag": 7178,
  "Ġdie": 7179,
  "ĠSophia": 7180,
  "ĠPeanut": 7181,
  "Ġtiss": 7182,
  "obody": 7183,
  "Out": 7184,
  "Mine": 7185,
  "Ġraincoat": 7186,
  "Ġfirefighters": 7187,
  "endy": 7188,
  "Ġgeese": 7189,
  "angle": 7190,
  "Moo": 7191,
  "Ġtipped": 7192,
  "Ġrumble": 7193,
  "Ġkittens": 7194,
  "Ġends": 7195,
  "Ġecho": 7196,
  "ĠTweetie": 7197,
  "ĠChirp": 7198,
  "yan": 7199,
  "onies": 7200,
  "Ġdollars": 7201,
  "imon": 7202,
  "Ġchip": 7203,
  "iam": 7204,
  "Ġdisob": 7205,
  "ĠBeaky": 7206,
  "Vroom": 7207,
  "Ġsurfboard": 7208,
  "Ġscrewdriver": 7209,
  "Ġavoid": 7210,
  "ĠSleep": 7211,
  "ĠRobert": 7212,
  "ĠFuzzy": 7213,
  "ĠFrosty": 7214,
  "eve": 7215,
  "Ġsingle": 7216,
  "Ġhoops": 7217,
  "Ġcreamy": 7218,
  "Ġwidened": 7219,
  "Ġwatering": 7220,
  "Ġtreehouse": 7221,
  "Ġdelivering": 7222,
  "Ġcoop": 7223,
  "ĠWoo": 7224,
  "ĠRudy": 7225,
  "prin": 7226,
  "Ġunw": 7227,
  "Ġtrembled": 7228,
  "Ġtalented": 7229,
  "Ġspells": 7230,
  "Ġscarecrow": 7231,
  "Ġmaker": 7232,
  "ĠStella": 7233,
  "Ġartist": 7234,
  "ĠSof": 7235,
  "Ġwee": 7236,
  "Ġroars": 7237,
  "Ġhallway": 7238,
  "Ġwilling": 7239,
  "Ġsnowfl": 7240,
  "Ġpassen": 7241,
  "Ġmate": 7242,
  "Ġlaying": 7243,
  "Ġcuriously": 7244,
  "Ġangels": 7245,
  "ĠUp": 7246,
  "Ġwaking": 7247,
  "Ġachieved": 7248,
  "igers": 7249,
  "Ġwept": 7250,
  "Ġtying": 7251,
  "Ġsale": 7252,
  "Ġforgiving": 7253,
  "ĠEmmy": 7254,
  "Ġpops": 7255,
  "ĠPam": 7256,
  "ummies": 7257,
  "Zip": 7258,
  "Ġyum": 7259,
  "Ġraindrops": 7260,
  "Ġpreparing": 7261,
  "Ġais": 7262,
  "ĠSpirit": 7263,
  "Ġsqueak": 7264,
  "Ġsending": 7265,
  "Ġprove": 7266,
  "Ġovercome": 7267,
  "Nina": 7268,
  "Ġzipping": 7269,
  "Ġponies": 7270,
  "Ġglee": 7271,
  "Ġev": 7272,
  "ĠSparky": 7273,
  "ĠMira": 7274,
  "awn": 7275,
  "Ġpuff": 7276,
  "Ġcoloured": 7277,
  "Ġtummies": 7278,
  "Ġmerma": 7279,
  "Ġbru": 7280,
  "ĠTake": 7281,
  "wk": 7282,
  "Ġwobble": 7283,
  "Ġfirefighter": 7284,
  "Ġdrivers": 7285,
  "the": 7286,
  "ounce": 7287,
  "oni": 7288,
  "Frank": 7289,
  "Ġknots": 7290,
  "Ġgroceries": 7291,
  "Ġgrip": 7292,
  "Ġsailboat": 7293,
  "Ġmagician": 7294,
  "ĠTia": 7295,
  "Ġtighter": 7296,
  "Ġseconds": 7297,
  "Ġrobber": 7298,
  "Ġheading": 7299,
  "Ġburrow": 7300,
  "ĠCrab": 7301,
  "Maria": 7302,
  "Ġsupported": 7303,
  "Ġstands": 7304,
  "Ġscored": 7305,
  "Ġintrigued": 7306,
  "ibbit": 7307,
  "Ġunsure": 7308,
  "Ġrather": 7309,
  "Ġcoup": 7310,
  "ĠPlay": 7311,
  "ighting": 7312,
  "Quick": 7313,
  "Ġsurprising": 7314,
  "Ġseasons": 7315,
  "Ġbelts": 7316,
  "ĠMissy": 7317,
  "uppy": 7318,
  "Ġtissue": 7319,
  "Ġsped": 7320,
  "Ġcorners": 7321,
  "Ġbeam": 7322,
  "Ġaside": 7323,
  "ĠTiti": 7324,
  "Very": 7325,
  "Ġmarkers": 7326,
  "Ġmarker": 7327,
  "Ġcushions": 7328,
  "ĠMoon": 7329,
  "Ġqueens": 7330,
  "Ġpleasure": 7331,
  "Ġplans": 7332,
  "Ġoysters": 7333,
  "Ġhotter": 7334,
  "Ġhoriz": 7335,
  "Ġafterwards": 7336,
  "Put": 7337,
  "Milly": 7338,
  "Ġsuits": 7339,
  "Ġpours": 7340,
  "Ġhorizon": 7341,
  "Ġdet": 7342,
  "tha": 7343,
  "ingo": 7344,
  "ertain": 7345,
  "Ġsymbols": 7346,
  "Ġsweat": 7347,
  "Ġhaircuts": 7348,
  "Ġbandages": 7349,
  "Ġaud": 7350,
  "Ġshovels": 7351,
  "Ġflipped": 7352,
  "Ġdip": 7353,
  "Ġ2": 7354,
  "ilda": 7355,
  "Ġtossed": 7356,
  "Ġindeed": 7357,
  "umbling": 7358,
  "aven": 7359,
  "Ġsofter": 7360,
  "Ġpedaled": 7361,
  "Ġdrawn": 7362,
  "ĠUniversity": 7363,
  "iley": 7364,
  "ggy": 7365,
  "Ellie": 7366,
  "Ġlending": 7367,
  "Ġblinking": 7368,
  "ita": 7369,
  "Baby": 7370,
  "ĠMartha": 7371,
  "undred": 7372,
  "Clara": 7373,
  "Ġyielded": 7374,
  "Ġsecure": 7375,
  "Ġhawk": 7376,
  "ĠLarry": 7377,
  "oey": 7378,
  "cited": 7379,
  "Dolly": 7380,
  "Ġperforming": 7381,
  "Ġbulbs": 7382,
  "ĠToot": 7383,
  "Ġcor": 7384,
  "ĠSl": 7385,
  "pecting": 7386,
  "ddie": 7387,
  "Ġslipping": 7388,
  "Ġshown": 7389,
  "Ġbackwards": 7390,
  "ĠKip": 7391,
  "ĠAng": 7392,
  "Like": 7393,
  "Ġslices": 7394,
  "Ġpupils": 7395,
  "Ġminded": 7396,
  "Ġfamiliar": 7397,
  "Ġdisturbing": 7398,
  "ĠIzzy": 7399,
  "iona": 7400,
  "een": 7401,
  "Ġsquishy": 7402,
  "Ġhour": 7403,
  "Ġcrossing": 7404,
  "ĠTess": 7405,
  "Spike": 7406,
  "Get": 7407,
  "Ġfigures": 7408,
  "ushing": 7409,
  "ading": 7410,
  "Bang": 7411,
  "Ġignoring": 7412,
  "Ġgracefully": 7413,
  "Ġfirmly": 7414,
  "Ġcouple": 7415,
  "ĠChris": 7416,
  "Lulu": 7417,
  "Ġsqueezing": 7418,
  "Ġpeck": 7419,
  "Ġencouraging": 7420,
  "Ġamong": 7421,
  "Ġevil": 7422,
  "Ġdesigns": 7423,
  "eds": 7424,
  "Kim": 7425,
  "Ġwisely": 7426,
  "Ġsweep": 7427,
  "Ġsharks": 7428,
  "Ġrespond": 7429,
  "Ġpays": 7430,
  "Ġdrawers": 7431,
  "ĠRobo": 7432,
  "ĠFarmer": 7433,
  "uel": 7434,
  "Car": 7435,
  "Am": 7436,
  "Ġsheets": 7437,
  "Ġcrew": 7438,
  "Ġaudience": 7439,
  "ĠWell": 7440,
  "čĊ": 7441,
  "Katie": 7442,
  "Ġpigeons": 7443,
  "Ġneighbours": 7444,
  "Ġexpress": 7445,
  "Ġelbow": 7446,
  "Guess": 7447,
  "Ġtubes": 7448,
  "Ġperformance": 7449,
  "Ġmerry": 7450,
  "Ġhundred": 7451,
  "Ġarr": 7452,
  "Ġfrowns": 7453,
  "oring": 7454,
  "Su": 7455,
  "Alright": 7456,
  "Ġreversed": 7457,
  "Ġpaintbrush": 7458,
  "Ġjars": 7459,
  "Ġcleaner": 7460,
  "Ġbits": 7461,
  "ĠZee": 7462,
  "ĠAbbie": 7463,
  "Ġflip": 7464,
  "Ġbeeh": 7465,
  "ĠJacky": 7466,
  "Ġicing": 7467,
  "ably": 7468,
  "Ġmermaid": 7469,
  "Ġcenter": 7470,
  "beep": 7471,
  "--": 7472,
  "Ġfills": 7473,
  "ĠEx": 7474,
  "ĠBally": 7475,
  "isc": 7476,
  "Ġenthusiasm": 7477,
  "Ġtigers": 7478,
  "Ġgiggles": 7479,
  "Ġfluttered": 7480,
  "Ġexplo": 7481,
  "Ġbathing": 7482,
  "ĠStretch": 7483,
  "rat": 7484,
  "hew": 7485,
  "amboo": 7486,
  "alph": 7487,
  "Ġrivers": 7488,
  "ĠZipper": 7489,
  "Sad": 7490,
  "Bessie": 7491,
  "Ġtil": 7492,
  "Ġsill": 7493,
  "ĠAlong": 7494,
  "urtles": 7495,
  "Freddy": 7496,
  "Ġnapped": 7497,
  "Ġhesitant": 7498,
  "ĠPatch": 7499,
  "Ġnervously": 7500,
  "Ġdaring": 7501,
  "ĠFighting": 7502,
  "osen": 7503,
  "Betty": 7504,
  "Ġwrink": 7505,
  "Ġsprinkled": 7506,
  "Ġchosen": 7507,
  "ĠWilly": 7508,
  "ments": 7509,
  "esp": 7510,
  "child": 7511,
  "Ġgrassy": 7512,
  "ĠJay": 7513,
  "Ġblown": 7514,
  "Ġbeehive": 7515,
  "Ġtravelled": 7516,
  "Ġturtles": 7517,
  "Ġsprang": 7518,
  "Ġnuzz": 7519,
  "ĠNear": 7520,
  "Keep": 7521,
  "Jazz": 7522,
  "Ġsports": 7523,
  "Ġlies": 7524,
  "ĠTurtle": 7525,
  "usty": 7526,
  "cake": 7527,
  "Ruby": 7528,
  "Ġtodd": 7529,
  "Ġsweetest": 7530,
  "Ġdump": 7531,
  "Ġbeloved": 7532,
  "ently": 7533,
  "bbled": 7534,
  "ĠWo": 7535,
  "fall": 7536,
  "Ġrespected": 7537,
  "Ġnightmares": 7538,
  "Ġmaterials": 7539,
  "Ġencouragement": 7540,
  "vered": 7541,
  "form": 7542,
  "Ġscattering": 7543,
  "ĠSadly": 7544,
  "Dear": 7545,
  "Ġstroke": 7546,
  "Ġpanicked": 7547,
  "Ġfleas": 7548,
  "Ġanger": 7549,
  "Ġterrified": 7550,
  "Ġswimmer": 7551,
  "Ġspice": 7552,
  "Ġlace": 7553,
  "Ġcamel": 7554,
  "Ġaren": 7555,
  "dding": 7556,
  "arlings": 7557,
  "Ġstitches": 7558,
  "Ġdarlings": 7559,
  "Ġcloudy": 7560,
  "ĠSparkle": 7561,
  "ratul": 7562,
  "ongratul": 7563,
  "cused": 7564,
  "Ġtested": 7565,
  "Ġreminds": 7566,
  "Ġflas": 7567,
  "Ġcells": 7568,
  "romise": 7569,
  "fly": 7570,
  "Afterwards": 7571,
  "Ġsurroundings": 7572,
  "Ġdef": 7573,
  "ĠLouise": 7574,
  "Zoomy": 7575,
  "?!\"": 7576,
  "Ġsandy": 7577,
  "Ġmanners": 7578,
  "Ġgrandchild": 7579,
  "ĠBarky": 7580,
  "urious": 7581,
  "ivi": 7582,
  "Ġspies": 7583,
  "Ġlipstick": 7584,
  "Ġbicycles": 7585,
  "Ġbully": 7586,
  "ĠHolly": 7587,
  "bage": 7588,
  "Uncle": 7589,
  "Ġlicking": 7590,
  "Ġgardener": 7591,
  "ĠRyan": 7592,
  "rac": 7593,
  "Birdy": 7594,
  "Ġstored": 7595,
  "Ġspeeding": 7596,
  "Ġamount": 7597,
  "ĠZoey": 7598,
  "steps": 7599,
  "Spe": 7600,
  "Ribbit": 7601,
  "Penny": 7602,
  "!âĢĿ.": 7603,
  "Ġspits": 7604,
  "Ġgreeted": 7605,
  "Ġdiscussed": 7606,
  "Ġaeroplanes": 7607,
  "Ġsails": 7608,
  "Ġmixture": 7609,
  "Ġfootsteps": 7610,
  "ĠGary": 7611,
  "ĠDoctor": 7612,
  "ntil": 7613,
  "kend": 7614,
  "Ġweekend": 7615,
  "parent": 7616,
  "Ġspoonful": 7617,
  "Ġsoaking": 7618,
  "Ġships": 7619,
  "Ġrepeating": 7620,
  "Ġcrashing": 7621,
  "Ġbreathed": 7622,
  "erm": 7623,
  "Binky": 7624,
  "Ġpuzzled": 7625,
  "ĠThanks": 7626,
  "onna": 7627,
  "immering": 7628,
  "Ġpolitely": 7629,
  "Ġlongest": 7630,
  "ĠShow": 7631,
  "espite": 7632,
  "Tony": 7633,
  "Ġunderstands": 7634,
  "Ġthoughts": 7635,
  "Ġshady": 7636,
  "Ġnur": 7637,
  "Ġloses": 7638,
  "ĠRon": 7639,
  "ĠNobody": 7640,
  "Ġtearing": 7641,
  "Ġdelayed": 7642,
  "ĠZippy": 7643,
  "ĠNick": 7644,
  "while": 7645,
  "ounced": 7646,
  "cept": 7647,
  "'.\"": 7648,
  "Ġdonkey": 7649,
  "asty": 7650,
  "Even": 7651,
  "Ġsniffing": 7652,
  "Ġpostman": 7653,
  "Ġgrandparent": 7654,
  "ĠJudge": 7655,
  "abby": 7656,
  "Jul": 7657,
  "Behind": 7658,
  "Ġsolving": 7659,
  "Ġmesmerized": 7660,
  "Ġbraver": 7661,
  "Ġbamboo": 7662,
  "Ġfloats": 7663,
  "Ġtemper": 7664,
  "Ġmiles": 7665,
  "Ġfocused": 7666,
  "Ġburying": 7667,
  "Bow": 7668,
  "Ġspills": 7669,
  "Ġpurpose": 7670,
  "Ġjoining": 7671,
  "ĠOkay": 7672,
  "Ġthorns": 7673,
  "Ġseals": 7674,
  "Ġreass": 7675,
  "Ġpinching": 7676,
  "Ġnodding": 7677,
  "Ġforgiven": 7678,
  "David": 7679,
  "Ġworn": 7680,
  "Ġquieter": 7681,
  "Ġknives": 7682,
  "ĠPh": 7683,
  "ĠPen": 7684,
  "arrow": 7685,
  "Boys": 7686,
  "Ġwadd": 7687,
  "Ġsneezes": 7688,
  "Ġgest": 7689,
  "Pippin": 7690,
  "Ġwiggly": 7691,
  "Ġunwra": 7692,
  "Ġrushing": 7693,
  "Ġlessons": 7694,
  "Ġhangers": 7695,
  "Ġguide": 7696,
  "Ġforce": 7697,
  "Ġchanges": 7698,
  "Ġcoug": 7699,
  "ae": 7700,
  "Leave": 7701,
  "Ġworrying": 7702,
  "Ġcharacters": 7703,
  "oga": 7704,
  "Ġgonna": 7705,
  "Ġdisobey": 7706,
  "zoom": 7707,
  "Open": 7708,
  "Ġslither": 7709,
  "Ġquarreled": 7710,
  "Ġflight": 7711,
  "ĠEddie": 7712,
  "bird": 7713,
  "Ġbaskets": 7714,
  "Ġramp": 7715,
  "Ġneare": 7716,
  "Ġclue": 7717,
  "ĠTodd": 7718,
  "Ġlanguages": 7719,
  "Ġexplorer": 7720,
  "ĠVivi": 7721,
  "Ġ10": 7722,
  "rect": 7723,
  "ousy": 7724,
  "Ġstacked": 7725,
  "Ġpeacefully": 7726,
  "Ġminds": 7727,
  "opes": 7728,
  "Pandy": 7729,
  "Goodnight": 7730,
  "Ġteams": 7731,
  "Ġhanding": 7732,
  "ĠIsn": 7733,
  "ĠAbi": 7734,
  "omp": 7735,
  "Bee": 7736,
  "Ġsmashed": 7737,
  "Ġlent": 7738,
  "Ġheight": 7739,
  "Ġburnt": 7740,
  "Ġbanged": 7741,
  "ĠWin": 7742,
  "ĠSimon": 7743,
  "years": 7744,
  "Back": 7745,
  "Ġwasting": 7746,
  "Ġpunishment": 7747,
  "Ġmast": 7748,
  "Ġfreedom": 7749,
  "ĠNice": 7750,
  "rey": 7751,
  "freeze": 7752,
  "anwhile": 7753,
  "Which": 7754,
  "Carl": 7755,
  "Ġwounds": 7756,
  "Instead": 7757,
  "Ġdressing": 7758,
  "ĠMixy": 7759,
  "ĠKit": 7760,
  "ĠKaren": 7761,
  "ĠAna": 7762,
  "anie": 7763,
  "Ġsy": 7764,
  "Ġhealing": 7765,
  "Ġfocus": 7766,
  "Ġdrifted": 7767,
  "Ġcorrect": 7768,
  "Ġcoloring": 7769,
  "Ġhiss": 7770,
  "Ġexplains": 7771,
  "Ġdripping": 7772,
  "Ġdamaged": 7773,
  "ĠRia": 7774,
  "isions": 7775,
  "Kiki": 7776,
  "Ġsurfing": 7777,
  "Ġcovering": 7778,
  "Ġbenches": 7779,
  "ĠDina": 7780,
  "oodles": 7781,
  "ibi": 7782,
  "Hurry": 7783,
  "Ġresisted": 7784,
  "Ġreminding": 7785,
  "Ġpolar": 7786,
  "Ġpeeled": 7787,
  "Ġcowboy": 7788,
  "ĠEliz": 7789,
  "prints": 7790,
  "ca": 7791,
  "Buzzy": 7792,
  "Ġsnuck": 7793,
  "Ġscraped": 7794,
  "Ġscares": 7795,
  "Ġmaster": 7796,
  "Ġjoins": 7797,
  "Ġease": 7798,
  "Ġadults": 7799,
  "ĠShadow": 7800,
  "ĠMarie": 7801,
  "cc": 7802,
  "Try": 7803,
  "Ġscient": 7804,
  "Ġpound": 7805,
  "ĠMint": 7806,
  "Ġouch": 7807,
  "Ġscen": 7808,
  "Ġgerm": 7809,
  "Ġdreamt": 7810,
  "rup": 7811,
  "Ġtoward": 7812,
  "Ġsnowflakes": 7813,
  "Ġgazing": 7814,
  "Ġbehavior": 7815,
  "ĠJojo": 7816,
  "da": 7817,
  "By": 7818,
  "Ġswitched": 7819,
  "Ġscooters": 7820,
  "Ġneatly": 7821,
  "Ġmatey": 7822,
  "Ġcharge": 7823,
  "Ġblast": 7824,
  "ĠAngel": 7825,
  "line": 7826,
  "Kids": 7827,
  "Ġscientist": 7828,
  "Ġelf": 7829,
  "attered": 7830,
  "aint": 7831,
  "abelle": 7832,
  "Liz": 7833,
  "Ġtoddler": 7834,
  "Ġplanting": 7835,
  "Ġpermitted": 7836,
  "Ġdisplayed": 7837,
  "Ġcares": 7838,
  "ĠUntil": 7839,
  "Wake": 7840,
  "Ġlapt": 7841,
  "Ġinstruments": 7842,
  "ĠRoo": 7843,
  "ĠHug": 7844,
  "Ġtuck": 7845,
  "Ġproper": 7846,
  "Ġleapt": 7847,
  "Ġfailed": 7848,
  "Ġbitten": 7849,
  "ĠPoor": 7850,
  "ĠNut": 7851,
  "ĠFairy": 7852,
  "ĠCow": 7853,
  "iscuit": 7854,
  "bbers": 7855,
  "Ġrelaxing": 7856,
  "Ġmood": 7857,
  "Ġcracks": 7858,
  "ĠSamantha": 7859,
  "shm": 7860,
  "shmallow": 7861,
  "Zara": 7862,
  "Slow": 7863,
  "Mat": 7864,
  "Ġsweaty": 7865,
  "Ġdresser": 7866,
  "Ġdecisions": 7867,
  "Ġcollap": 7868,
  "ĠVroom": 7869,
  "ĠHerb": 7870,
  "ighing": 7871,
  "Ġscamp": 7872,
  "Ġhumans": 7873,
  "Ġflown": 7874,
  "Ġfaded": 7875,
  "Ġefforts": 7876,
  "Ġechoed": 7877,
  "Ġaisle": 7878,
  "ĠWise": 7879,
  "Ġund": 7880,
  "Ġtreated": 7881,
  "Ġsternly": 7882,
  "Ġocc": 7883,
  "Ġlaptop": 7884,
  "Ġbothering": 7885,
  "evin": 7886,
  "Ġrescuing": 7887,
  "Ġrats": 7888,
  "Ġcrowns": 7889,
  "Ġcheers": 7890,
  "Ġbackpacks": 7891,
  "ĠRazor": 7892,
  "ĠGranny": 7893,
  "ĠFiona": 7894,
  "ĠAli": 7895,
  "omb": 7896,
  "ipes": 7897,
  "Ġtasting": 7898,
  "Ġmelons": 7899,
  "Ġbeeped": 7900,
  "ĠRuff": 7901,
  "Ġseller": 7902,
  "Ġrobbers": 7903,
  "Ġpotion": 7904,
  "Ġpleaded": 7905,
  "Ġaccidents": 7906,
  "ĠRita": 7907,
  "rier": 7908,
  "otte": 7909,
  "Abigail": 7910,
  "Ġprobably": 7911,
  "Ġmonths": 7912,
  "unched": 7913,
  "orter": 7914,
  "ition": 7915,
  "found": 7916,
  "Two": 7917,
  "Ġthroughout": 7918,
  "Ġrisks": 7919,
  "Ġmanag": 7920,
  "Ġbirdhouse": 7921,
  "Ġapologised": 7922,
  "ĠLuckily": 7923,
  "ĠLia": 7924,
  "ĠBlinky": 7925,
  "uffin": 7926,
  "oger": 7927,
  "Someone": 7928,
  "Lena": 7929,
  "Ġyumm": 7930,
  "Ġstomp": 7931,
  "Ġhandsome": 7932,
  "Ġdears": 7933,
  "ĠMichael": 7934,
  "ĠChess": 7935,
  "Ġ5": 7936,
  "rest": 7937,
  "Ġtwinkled": 7938,
  "Ġtilted": 7939,
  "Ġresults": 7940,
  "Ġengines": 7941,
  "ĠTime": 7942,
  "Ġtrusting": 7943,
  "Ġtemperature": 7944,
  "Ġsprout": 7945,
  "Ġsingers": 7946,
  "Ġopinions": 7947,
  "Ġdesigning": 7948,
  "ĠPrince": 7949,
  "ĠMousy": 7950,
  "elie": 7951,
  "andas": 7952,
  "Too": 7953,
  "Rock": 7954,
  "Finn": 7955,
  "Ġstamped": 7956,
  "Ġsnaps": 7957,
  "Ġnasty": 7958,
  "Ġinsp": 7959,
  "Ġaction": 7960,
  "ĠWendy": 7961,
  "ĠMaya": 7962,
  "ĠMake": 7963,
  "wise": 7964,
  "orking": 7965,
  "Ġzooms": 7966,
  "Ġplucked": 7967,
  "Ġcrawls": 7968,
  "Ġbelieving": 7969,
  "ĠLoop": 7970,
  "ĠFlutter": 7971,
  "ĠAr": 7972,
  "mates": 7973,
  "ethos": 7974,
  "ening": 7975,
  "arlotte": 7976,
  "Ted": 7977,
  "Ġtesting": 7978,
  "Ġstethos": 7979,
  "Ġmunch": 7980,
  "Ġdoorway": 7981,
  "Ġantic": 7982,
  "ĠEverybody": 7983,
  "ollen": 7984,
  "ecca": 7985,
  "Tilly": 7986,
  "Adam": 7987,
  "Ġwider": 7988,
  "Ġswollen": 7989,
  "Ġshines": 7990,
  "Ġscolds": 7991,
  "Ġencount": 7992,
  "ĠSay": 7993,
  "Magic": 7994,
  "Aunt": 7995,
  "Ġtrot": 7996,
  "Ġsweaters": 7997,
  "Ġhoo": 7998,
  "Ġdriveway": 7999,
  "Ġdespite": 8000,
  "Ġcreams": 8001,
  "Ġannoyed": 8002,
  "ĠJolly": 8003,
  "ĠJackie": 8004,
  "ĠChewy": 8005,
  "under": 8006,
  "Snow": 8007,
  "Ġtalents": 8008,
  "Ġsmelling": 8009,
  "Ġhaird": 8010,
  "Ġfootprints": 8011,
  "Ġbrushing": 8012,
  "Red": 8013,
  "Ġstethoscope": 8014,
  "Ġplayd": 8015,
  "Ġgobbled": 8016,
  "Ġdestroying": 8017,
  "oosh": 8018,
  "Pip": 8019,
  "Ġwhimp": 8020,
  "Ġswap": 8021,
  "Ġprayers": 8022,
  "Ġgarbage": 8023,
  "Ġbravest": 8024,
  "Ġbacks": 8025,
  "unity": 8026,
  "aturday": 8027,
  "Shrink": 8028,
  "Play": 8029,
  "Ġspy": 8030,
  "Ġsens": 8031,
  "Ġpuck": 8032,
  "Ġmarshmallow": 8033,
  "Ġflaps": 8034,
  "Ġenvelopes": 8035,
  "Speedy": 8036,
  "Ġyelped": 8037,
  "Ġwrigg": 8038,
  "Ġwhistles": 8039,
  "Ġpills": 8040,
  "Ġmosquitoes": 8041,
  "Ġcarries": 8042,
  "ppies": 8043,
  "Ġrustling": 8044,
  "Ġpassengers": 8045,
  "Ġnewspapers": 8046,
  "Ġnoodles": 8047,
  "Ġgesture": 8048,
  "Ġbothered": 8049,
  "Ġbellies": 8050,
  "Ġattack": 8051,
  "ĠWait": 8052,
  "ĠStan": 8053,
  "tock": 8054,
  "ssssssss": 8055,
  "bell": 8056,
  "Hoppy": 8057,
  "Ġteachers": 8058,
  "Ġrows": 8059,
  "Ġplug": 8060,
  "Ġduckling": 8061,
  "Ġaware": 8062,
  "ĠSaturday": 8063,
  "Ġsever": 8064,
  "Ġonward": 8065,
  "Ġmagnif": 8066,
  "Ġconnected": 8067,
  "ĠTri": 8068,
  "Dr": 8069,
  "Ġwarri": 8070,
  "Ġuniforms": 8071,
  "Ġsqueaked": 8072,
  "Ġseveral": 8073,
  "Ġnewfound": 8074,
  "Ġgrandparents": 8075,
  "Ġcertain": 8076,
  "Ġastronauts": 8077,
  "ĠRicky": 8078,
  "ĠElle": 8079,
  "rily": 8080,
  "mies": 8081,
  "fire": 8082,
  "acy": 8083,
  "Steve": 8084,
  "Ġwaterfall": 8085,
  "Ġgoo": 8086,
  "Ġflips": 8087,
  "Ġedges": 8088,
  "ĠYet": 8089,
  "ĠLenny": 8090,
  "ĠBibi": 8091,
  "Rachel": 8092,
  "Ġpurrs": 8093,
  "Ġfloors": 8094,
  "ĠFishy": 8095,
  "rons": 8096,
  "ears": 8097,
  "Jamie": 8098,
  "Ġtaped": 8099,
  "Ġsimply": 8100,
  "Ġfinishing": 8101,
  "Ġalthough": 8102,
  "ĠMabel": 8103,
  "urrender": 8104,
  "Hannah": 8105,
  "Ġorders": 8106,
  "Ġinches": 8107,
  "Ġanticip": 8108,
  "ĠSpeed": 8109,
  "ĠShare": 8110,
  "ĠFlo": 8111,
  "rian": 8112,
  "Ġsprays": 8113,
  "Ġmugs": 8114,
  "Ġaprons": 8115,
  "ĠAmelia": 8116,
  "Ġyawning": 8117,
  "Ġsacks": 8118,
  "Ġcraft": 8119,
  "Ġbreathing": 8120,
  "ĠLuc": 8121,
  "ĠIm": 8122,
  "artled": 8123,
  "Thomas": 8124,
  "Olive": 8125,
  "Ġtoolbox": 8126,
  "Ġstepping": 8127,
  "Ġserving": 8128,
  "Ġinj": 8129,
  "Ġgoats": 8130,
  "Ġfoxes": 8131,
  "Ġcausing": 8132,
  "ĠYoga": 8133,
  "ĠTaking": 8134,
  "vant": 8135,
  ".'\"": 8136,
  "Ġdemanding": 8137,
  "Ġbuckled": 8138,
  "ĠPuppy": 8139,
  "ĠNavy": 8140,
  "Ġwithin": 8141,
  "Ġpandas": 8142,
  "Ġkilled": 8143,
  "Ġfriendships": 8144,
  "Ġdiscussing": 8145,
  "Ġbomb": 8146,
  "ĠReady": 8147,
  "ĠNe": 8148,
  "what": 8149,
  "ulp": 8150,
  "lied": 8151,
  "Nice": 8152,
  "Coco": 8153,
  "Ġwinners": 8154,
  "Ġnearly": 8155,
  "Ġjoyful": 8156,
  "Ġgerms": 8157,
  "Ġexcept": 8158,
  "Ġunpacking": 8159,
  "Ġglitt": 8160,
  "Ġclicked": 8161,
  "Ġbusiness": 8162,
  "ĠGir": 8163,
  "Ġstatues": 8164,
  "Ġsquir": 8165,
  "Ġshorter": 8166,
  "Ġrays": 8167,
  "Ġminding": 8168,
  "Ġmeows": 8169,
  "Ġknocking": 8170,
  "Ġerase": 8171,
  "Ġdoorbell": 8172,
  "Ġcons": 8173,
  "Ġaddress": 8174,
  "rie": 8175,
  "Ray": 8176,
  "Elly": 8177,
  "Ġtwenty": 8178,
  "Ġshinier": 8179,
  "Ġscampered": 8180,
  "Ġsandcastles": 8181,
  "Ġforgives": 8182,
  "Ġdeed": 8183,
  "Ġclosing": 8184,
  "ĠBad": 8185,
  "igger": 8186,
  "byes": 8187,
  "ails": 8188,
  "Chloe": 8189,
  "Ġraising": 8190,
  "Ġprick": 8191
}