Ġ t
h e
Ġ a
Ġ s
Ġ w
Ġt he
n d
e d
Ġ b
Ġt o
Ġa nd
Ġ h
Ġ f
i n
Ġ T
Ġw a
r e
i t
o u
Ġ l
Ġ d
Ġ c
Ġ p
a y
Ġ m
e r
Ġwa s
o m
ĠT he
Ġ he
i s
a r
Ġ n
i m
o n
Ġs a
i d
l l
Ġh a
Ġ g
a t
Ġ S
in g
o t
e n
a n
l e
o r
i r
a m
e t
Ġ H
Ġ it
Ġt h
i g
ĠThe y
Ġ in
i l
ĠH e
Ġp l
Ġ "
o w
v er
r i
u t
Ġb e
Ġ u
Ġsa id
Ġpl ay
it h
Ġd ay
Ġw ith
p p
Ġ o
O n
Ġ y
o o
k ed
Ġ r
Ġhe r
c e
Ġ I
ĠS he
l d
Ġh is
ĠT im
Ġs t
k e
Ġ e
Ġb ig
n t
c k
Ġy ou
ver y
s t
v e
e nd
Ġ on
Ġha pp
u n
ri end
Ġf riend
a ll
il y
Ġthe y
Ġ L
Ġw e
Ġha d
Ġn ot
Ġl i
Ġu p
Ġwa nt
he r
Ġo f
a d
it t
s e
Ġ B
Ġd o
Ġhapp y
en t
Ġ very
e s
Ġ M
Ġth at
Ġsa w
On e
' s
ou ld
Ġf or
Ġm om
Ġs h
itt le
Ġs o
Ġl ittle
Ġs he
c h
im e
Ġn e
. "
Ġn am
Ġt ime
Ġ k
ou nd
Ġthe re
Ġnam ed
Ġs m
Ġb o
Ġwe re
ĠL ily
Ġwant ed
ou t
Ġb ut
T he
Ġfriend s
h t
! "
v ed
ĠT om
ir d
e l
Ġa n
a l
Ġb ird
a ke
Ġto o
ĠI t
om e
u g
id e
Ġw ent
Ġw h
Ġhe l
Ġ is
On ce
Ġa ll
Ġhel p
u e
Ġl oo
Ġl o
t er
Ġ A
r y
Ġup on
o re
i nd
Ġf un
i ll
Ġto y
g et
am e
Ġa s
Ġa t
r a
Ġ j
Ġd id
get her
Ġ re
u r
Ġs e
Ġto gether
a ck
l y
Ġc at
Ġt re
oo d
i c
t ed
Ġdo g
Ġc ould
Ġc an
Ġthe ir
ar d
e c
ar k
Ġg ir
Ġh im
Ġb all
? "
Ġplay ed
Ġgir l
w ay
Ġg o
Ġr o
he d
Ġa re
m y
Ġ out
Ġl e
Ġf r
a in
Ġthe m
Ġk n
he n
' t
u m
Ġsa d
a x
u l
Ġbo y
Ġtre e
Ġha ve
ot her
Ġm an
Ġc l
Ġlo ved
Ġloo ked
ou g
Ġf ound
Ġs p
Ġst ar
ĠS ue
on e
h ing
Ġs c
Ġb ack
ow n
ĠM ax
a re
Ġli ke
f ul
s ide
Ġm e
Ġbe c
ig ht
Ġc ar
Ġp ark
on g
o p
el t
Ġ One
Ġw ould
Ġli ked
Ġl a
r ound
Ġm ake
Ġf a
Y ou
Ġf elt
e ll
Ġse e
Ġ W
ĠB ut
om et
Ġas ked
a g
Ġne w
Ġn o
i ce
ĠB en
ou se
ĠS am
ar ed
Ġstar ted
Ġc ame
Ġa l
Ġ other
oug ht
il ed
Ġa g
Ġs omet
Ġg ood
Ġsm all
s s
Ġb r
Ġs ay
ri ed
Ġsm iled
ad e
ing s
o b
p ot
Ġw or
Ġe x
Ġf ind
Ġ č
Ġa way
i a
Ġwh at
t y
Ġc o
Ġp ut
Ġfr om
Ġsomet hing
Ġm ade
Ġth ought
en ed
Ġh ome
Ġplay ing
oo k
Ġe very
Ġwa l
Ġm u
u c
a ch
ar n
Ġr an
ĠS pot
i le
i e
Ġ F
Ġ J
a ve
Ġag ain
Ġs ome
d d
Ġla ug
Ġh ouse
Ġf l
Ġd own
k ing
Ġsc ared
Ġtoo k
Ġp r
Ġtoy s
Ġle arn
n y
u re
Ġ You
Ġw ill
i f
i ck
Ġbo x
a b
re t
e p
Ġm y
Ġa round
Ġth ings
Ġyou r
ou d
Ġb l
u ck
Ġw hen
is h
Ġf e
Ġli ved
Ġthe n
Ġs un
, "
Ġs w
a s
Ġc h
u s
pp ed
Ġa b
ĠM ia
an k
Ġg et
T im
is t
uc y
um p
T h
Ġl ot
ot h
Ġsay s
Ġt ried
a p
Ġkn ow
Ġg ot
it ed
u st
Ġkn e
Ġwh o
Ġman y
nd er
Ġab out
Ġin t
L ily
Ġp ret
Ġ D
Ġd ec
Ġan y
Ġr ed
i ve
Ġkne w
a ce
Ġm ore
ou s
is e
Ġc are
all y
q u
Ġp ic
Ġwa ter
a u
Ġh ug
ĠL ucy
Ġlearn ed
f ter
Ġp o
Ġbe st
Ġ v
Ġbec ame
Ġo p
au se
Ġex c
Ġg re
way s
Ġlaug hed
Ġout side
ur p
Ġloo k
Ġal ways
an t
â Ģ
Ġdec id
Ġh o
Ġro om
Ġsh ow
Ġu n
ĠB ob
Ġbec ause
f e
Ġdecid ed
ĠS o
Ġe at
Ġint o
it e
Ġp e
Ġb oth
ĠA nd
Ġj ump
er s
Ġd ad
The y
ĠM om
u dd
Ġ ke
Ġon e
n n
Ġexc ited
Ġ E
Ġfa st
Ġth is
Ġfe el
T om
Ġn ice
Ġr un
Y es
Ġl ong
Ġa m
Ġto ld
Ġs k
ou r
u ll
urp r
Ġt r
Ġin side
Ġm o
Ġs urpr
in k
Ġpret ty
in y
Ġs or
Ġt ake
W h
o g
Ġs l
nn a
Ġg ave
Ġmu ch
Ġe ach
Ġg ra
le w
Ġst r
im al
Ġh ow
ar a
Ġan imal
Ġro ck
g ed
Ġth an
B ut
Ġne ed
v en
Ġto w
et ter
Ġ C
Ġu nder
Ġ or
Ġo ld
es s
Ġsor ry
g e
r o
is ed
ur t
Ġf ish
Ġc le
a nd
Ġbe ar
Ġwal ked
Ġcl o
f t
a se
Ġha nd
a st
ur n
ĠW e
Ġk ind
he re
ĠH is
Ġl ist
Ġt e
Ġf ood
Ġfl ow
Ġj ust
Ġhapp ened
Ġh ig
p l
Ġanimal s
Ġt ry
Ġdid n
Ġwa t
Ġf i
c hed
Ġne ar
in e
Ġsk y
Ġ ide
Ġs n
r om
v ing
Ġu s
Ġb ug
Ġb etter
g ry
Ġide a
ĠA my
Ġhe ard
Ġit s
Ġt w
at e
Ġl et
p ec
ab le
Ġ en
Ġcare ful
Ġsh are
f f
M om
Th ank
Ġ if
e x
Ġst or
i al
Ġf ly
m ore
Ġany more
Ġf lew
ĠT h
i on
Ġc om
Ġsp ec
Ġspec ial
Ġb y
Ġne ver
l f
Ġlot s
Ġd an
re am
Ġw ind
Ġb u
Ġd on
Ġf o
Ġt al
or t
Ġcle an
op le
Ġg r
r m
Ġe nd
Ġlo ve
Ġe ven
ĠThe n
Ġm ag
b er
Ġh ard
Ġo ver
udd en
Ġf ore
Ġsh iny
Ġc ake
a k
Ġco l
Ġb ook
Ġt urn
Ġa fter
Ġpe ople
ad y
Ġsa fe
ĠA nna
udden ly
Ġb ad
ĠE very
Ġf am
Ġpr oud
L et
Ġhig h
Ġc u
Ġsurpr ised
Ġh urt
Ġl oud
pec ted
Ġdo or
im b
Ġc ome
ard en
Ġg arden
Ġop ened
Ġg round
Ġc he
Ġcl imb
Ġpic ked
b b
Ġg l
Ġ im
ex pected
Ġun expected
A s
il d
Ġg ive
Ġst ill
Ġcol or
Ġwa y
Ġthan ked
Ġe ver
Ġbl ue
a il
' m
Ġf ar
Ġhug ged
Ġc all
ĠF rom
i p
N o
ĠH er
Ġmag ic
Ġof f
ĠS ara
ĠW hen
Ġ K
oug h
um my
ag e
i z
Ġjump ed
Ġp ar
Ġsh ould
oo l
Ġk id
Ġsm ile
Ġfam ily
Ġpl ace
he s
k ay
Ġn ow
ĠI n
c t
Ġ qu
u ff
Ġwal k
e m
Ġgre at
Ġu nt
t ure
a ut
Ġst ay
Ġst o
Ġstr ong
Ġfore st
le s
an e
itt y
Ġbr o
Ġb ra
Ġ P
Ġunt il
Ġbe aut
d y
Ġfr og
o on
Ġs qu
le ase
Ġst ick
x t
Ġne xt
Ġbo at
Ġlist en
n ing
Ġhapp ily
t h
i ful
Ġbeaut iful
a king
i es
Ġkid s
b e
Ġt ra
Ġa pp
Ġhelp ed
Ġim p
Ġclo s
Ġstor y
re l
Ġshow ed
o y
Ġwh ile
un ny
Ġd ra
p t
Ġtow n
re ss
Ġpic ture
I t
Ġr ain
Ġbe ing
Ġevery one
Ġre m
Ġm or
Ġha t
re e
Ġcall ed
ar y
Ġsto pped
Ġa d
Ġm et
Ġg ame
H e
N ow
g er
C an
Ġan gry
Ġop en
Ġtr uck
Ġw o
Ġke ep
W hen
Ġso ft
Ġb ed
Ġc ry
ĠL et
Ġy ummy
uff y
Ġwa rm
v ent
Ġlo st
Ġm ouse
b y
Ġat e
ĠS ally
ĠK itty
Ġbra ve
is hed
Ġd e
s o
ĠW h
f ore
Ġwat ch
Ġcould n
Ġdo ll
Ġal so
dd ed
Ġle ave
Ġgre en
Ġtw o
Ġf ell
Ġfa ce
ir st
is s
b it
Ġflow ers
ab bit
Ġno ise
g an
Wh at
b le
a z
Ġ R
ow l
Ġw here
o ck
Ġso on
Ġho le
se lf
Ġr abbit
Ġsl ide
ir rel
Ġhe ar
Ġbe fore
Ġsa t
ir ed
Ġke pt
ill y
Ġu se
Ġp us
Ġsqu irrel
e ar
Ġp a
l uffy
The n
Ġno dded
m a
Ġc ook
Th at
H i
Ġex pl
Ġhand s
âĢ Ŀ
L ook
Ġbird s
âĢ ľ
Ġp ain
Ġst ore
Ġgo ing
Ġfun ny
u ch
d ay
ay be
Ġs ing
Ġe y
a ug
Ġha ving
aug ht
Ġth ink
Ġy ell
ĠC an
Ġcat ch
le ep
Ġf in
B en
u it
Ġc ra
Ġfi x
Ġb re
Ġb us
Ġt ired
Ġb unny
an ge
Ġloo king
ĠF luffy
Ġwor k
Ġus ed
a ir
Ġp ull
W e
Ġwa it
Ġw r
Ġk it
Ġ our
Ġth r
Ġs ound
Ġ G
t hing
Ġ Now
Ġj o
Ġha s
Ġbe h
Ġme an
Ġas k
Ġsun ny
l ed
t ing
Ġpo nd
em ber
Ġd r
Ġother s
n g
Ġtal k
c hen
Ġkit chen
re w
Ġp ie
Ġf irst
Ġhe ad
Ġfl o
ĠJ o
at h
Ġd if
Ġey es
Ġimp ort
Ġ z
ell o
H ello
Ġre al
Ġt ri
Ġfa v
Ġr ight
Ġco ld
e et
Ġm ess
j oy
Ġflow er
or n
Ġc on
Ġv o
Ġrem ember
i ous
Ġmom my
Ġsa nd
Ġpar ty
ĠD o
Ġimport ant
a c
Ġmor al
ou nt
Ġcu ri
im es
Ġsh ared
Ġr ace
Ġo kay
Ġ own
Ġad vent
Ġbr ight
Ġd ress
Ġ âĢľ
ll ow
Ġwor ked
A t
Ġd uck
Ġ ice
Ġen joy
Ġm aking
z y
Ġcuri ous
Ġt all
Ġh id
Ġh op
h n
ĠJ ack
Ġd is
Ġd ir
re ed
W ow
Ġs leep
Ġh ill
D on
Ġbe gan
Ġ ri
Ġfav or
Ġre st
Ġfavor ite
Ġth ing
Ġdra w
Ġb ag
Ġy ard
Ġhe re
Ġt ell
Ġm on
st er
ĠF in
Ġcl a
Ġbe l
Ġfo llow
Ġmo ve
Ġwat ched
Ġn ight
ec t
q ue
Ġh un
ll y
Ġag reed
c o
Ġbl ock
Ġst op
Ġp ick
Ġbeh ind
Ġh ot
ĠTh is
A fter
Ġc ut
ap er
i ed
Ġt able
Ġsh o
Ġsurpr ise
Ġgra ss
Ġwal king
Ġvo ice
Ġtre es
ĠD ad
Ġwor ry
Ġfar m
Ġp lease
Ġsw eet
Ġd ark
Ġli on
fe re
Ġto p
Ġr u
Ġs ong
Ġdif fere
Ġsh out
Ġl ady
Ġt ail
is y
Ġbut ter
M ax
Ġflo or
Ġre ad
Ġfor g
Ġcolor s
Ġclos er
Ġleave s
Ġturn ed
Ġc ried
Ġw ood
ig n
ar ing
Wh y
Ġd el
Ġfi re
Ġneed ed
Ġt ast
Ġlaug h
Ġpie ce
Ġdiffere nt
Ġcar s
i ke
Ġhun gry
Ġdo es
Ġadvent ure
Ġc r
Ġro ll
Ġpr in
ĠS uddenly
A nna
er ed
Ġfeel ing
Ġf ull
S ue
âĢ Ļ
Ġha ir
Ġyell ow
Ġto uch
S am
ĠA s
b o
ĠM r
Ġp aper
Ġp er
k en
o om
Ġw et
c ked
Ġfriend ly
a ched
Ġbro ken
i ent
Ġl ight
Ġfr uit
Ġsw ing
ĠBob o
Ġre ady
by e
w here
Ġpret end
Ġan other
pp y
Ġlist ened
Ġpr om
Ġclimb ed
ĠTh at
Ġsw im
Ġdan c
Ġdan ce
at er
Ġon ly
Ġrun ning
Ġg one
bb ed
S uddenly
Ġpl an
nd ma
Ġclo se
il a
a v
s h
S he
ĠJ ane
ab y
Ġho ld
S o
Ġam az
Ġtra in
S ara
Ġse es
Ġsm ell
Ġwa ll
Ġblock s
Ġwo nder
Ġre pl
Ġre ached
ĠA ll
Ġa c
one y
Ġhelp ing
Ġsl ow
r ed
ĠTim my
Ġa nt
Ġf ight
Ġbutter f
a f
Ġl ess
Ġd ri
Ġgl ad
Ġgood bye
at her
Ġp u
Ġbe en
Ġc ool
M ia
Ġfa ir
ic ed
Ġpus hed
Ġ O
Ġh ide
Ġc ream
Ġwind ow
Ġmu st
Ġmom ent
Ġw ished
Ġst e
Ġs it
Ġwa g
Ġb aby
Ġball oon
ĠEvery one
Ġm ight
Ġexpl ore
ic y
Ġst uck
Ġper f
Ġsn ow
Ġnam e
Ġd one
Ġa r
Ġch ild
Ġlook s
Ġth ank
Ġqu ick
Ġbu y
Ġapp le
Ġb ar
Ġcom ing
Ġtry ing
a isy
Ġf all
as h
Ġbu ild
iz ed
Ġunder st
Ġd ream
Ġb it
Ġsc ary
Ġhe ld
Ġc ount
Ġdo ing
Ġdir ty
Ġm ar
Ġw in
I n
Ġle ft
am es
Ġd in
Ġshout ed
Ġla nd
Ġbook s
av y
Ġrepl ied
ot t
Ġa ir
Ġt iny
Ġre ach
Ġd ro
Ġthr ough
and y
Ġw ise
Ġwh y
Ġbr an
Ġpull ed
Ġgr ow
Ġth ree
' re
Ġbutterf ly
Ġse en
Ġsp l
Ġwood s
Ġf ill
Ġtre at
Ġcu p
Ġs ure
Ġcolor ful
Ġp ink
ke y
out h
el y
Ġsw am
Ġch air
as k
Ġ owl
in s
Ġm outh
p h
Ġm at
Ġbr other
p e
Ġj ob
Ġcl oud
Ġpl ant
Ġsomet imes
i x
Ġcla pped
Ġc re
Ġbig ger
Ġne st
Ġless on
udd y
Ġremember ed
Ġwa ved
ĠThe re
Ġjo in
ie ld
ow er
ro om
Ġstay ed
O h
Ġcl ot
Th is
ar t
Ġclot hes
Ġgra bbed
O kay
Ġcon t
ou p
Ġpain t
Ġ ve
Ġquick ly
c le
Ġwor d
Ġwa ited
ĠA fter
Ġc ast
Ġbro ke
Ġb lew
ĠMom my
Ġs et
ri es
Ġnot iced
Ġg ames
J o
uck y
Ġg ent
Ġwor ld
Ġal one
Ġenjoy ed
Ġlike s
at ion
Ġg if
d e
Ġm iss
Ġhe avy
Ġse a
t on
Ġpicture s
Ġp ot
Ġho pped
Ġany thing
Ġsp ot
as ure
Ġturn s
Ġmu s
l c
Ġy ear
Ġp en
Ġb ott
Ġb ike
or m
H er
Ġp at
d er
Ġt ight
Ġtow er
Ġevery where
Ġa rm
Ġr ide
Ġhim self
Ġw on
ĠB uddy
ap e
Ġm ix
Ġth rew
L ucy
Ġj u
le ss
Ġfollow ed
Ġcom p
ĠD aisy
m an
Ġke y
r ow
ct or
B ob
am p
Ġj e
o lly
" .
th y
Ġde ep
e e
Ġmake s
are nt
Ġwh ite
Ġbre ak
Ġwr ong
ĠWh at
Ġdel ic
Ġpo l
u ed
Ġbl ack
n er
ve s
Ġe m
Ġp arent
Ġcast le
Ġforg ot
Ġmus ic
S pot
ce ss
Ġwe ar
ou n
i et
Ġbe e
Ġqu iet
D o
Ġwant s
u p
Ġh it
is ter
ull y
Ġr ound
an ce
r ot
Ġmon ster
Ġdanc ed
Ġv is
Ġcook ies
Ġunderst and
ĠJo hn
Ġle af
Ġb or
Ġd ry
Ġtal ked
Ġb owl
Ġn ap
Ġfast er
f ully
re n
o s
Ġbr ought
Ġle g
Ġm um
ro ss
an g
t s
z z
F rom
ĠIn side
Ġs ide
Ġse c
Ġsm art
H is
itt en
Ġpo in
Ġhapp en
ed dy
Ġk ing
Ġe le
Ġsome one
Ġsh aring
ard s
Ġs ign
Ġfin ished
Ġwe ll
Ġrock s
Ġfo x
Ġbran ch
c y
en ce
Ġre l
Ġre ally
Ġre s
ĠL ila
Ġwor ried
Ġs ister
Ġdin ner
Ġcont in
Ġsec ret
Ġbut ton
Ġbe ach
Ġvis it
Ġe l
ĠT o
i pp
Jo hn
Ġto day
ĠM aybe
Ġperf ect
Ġ que
Ġdan ger
Ġfly ing
Ġp udd
ĠSara h
Ġevery thing
Ġs illy
g y
Ġfill ed
Ġri ver
Ġsh in
Ġg u
Ġw ish
Ġel se
ĠE m
ĠA t
Ġsmile s
Ġg i
Ġwe lc
ĠSo on
ĠJo e
Ġsa ng
Ġchild ren
Ġb ite
Ġf ur
Ġparent s
Ġf ree
Ġprom ised
Ġpiece s
Wh ile
Ġsn ack
Ġf ield
Ġsp r
Ġcontin ued
Ġreal ized
at ed
Ġeat ing
Ġcare fully
Ġe ar
Ġj ar
z e
M aybe
J ust
Ġp ig
itt ing
e ad
or d
ck et
A my
Ġbl ank
Ġmu d
Ġsn ake
st ead
Ġen ough
Ġc ow
Ġsa il
Ġb oun
Ġblank et
Ġor ange
Ġcry ing
Ġ Z
Ġroll ed
Ġfair y
Ġy es
Ġs oup
Ġcra b
i re
Ġthr ow
Ġamaz ing
se s
i ch
Ġdr ink
Ġp urp
Ġlaug hing
Ġword s
Ġc andy
Ġb ath
on s
ĠG ra
Ġbott le
i ver
Ġwith out
us ed
ĠB illy
im i
Ġgra ndma
Ġdra g
Ġgif t
Ġp et
Ġdo ctor
Ġwag ged
a le
F in
Ġask s
Ġm oney
f ort
ch ool
un ch
Ġpurp le
Ġown er
Ġbr own
Ġmo ved
Ġbar ked
Ġget ting
Ġw he
Ġwelc ome
is es
Ġclos ed
Ġdanger ous
Ġs chool
Ġat t
Ġp ast
Ġmor ning
Ġsm o
Ġs itting
Ġm other
g g
Ġhig her
Ġl on
Ġl ake
Ġm ail
Ġlon ely
Ġtre asure
Ġshin ing
Ġcre at
Ġmon key
Ġro ad
Ġr a
Ġstr ange
e y
as ed
Ġche e
Ġb uck
Ġli ving
Ġrun s
al thy
. âĢĿ
Ġ -
ĠC h
Ġsh op
Ġsho es
Ġtal king
Ġpa w
ĠTom my
Ġp re
Ġc aught
un a
e re
us h
o l
Ġst re
! âĢĿ
Ġapp les
Ġpudd le
i ble
m e
ve l
Ġpa ss
Ġe gg
Ġm ad
Mom my
Ġt eddy
Ġthink s
Ġst one
a ss
Ġf an
ask et
Ġb asket
Ġdelic ious
u b
Ġwh ist
a pp
ph ant
s et
bo ard
Ġyear s
ck s
Ġl etter
ĠB l
Ġm ine
Ġw ings
Ġfarm er
Ġco at
f ish
Ġsa me
Ġst and
Ġbel ie
Ġf it
Ġstar t
ig h
Ġse ar
u bb
it ch
Ġfin ally
Ġcr ay
Ġto m
Ġp ill
Ġday s
Ġno se
c hes
Ġk ite
ĠM imi
Ġgent le
Ġsc ream
ig g
Ġtast y
Ġhop ed
Ġele phant
Ġch o
Ġbr ing
Ġh or
Ġv ill
Ġsing ing
Ġw ore
Ġsw ings
Ġb at
is k
ell a
in ed
i er
P lease
Ġb en
Ġdrag on
s w
s c
s y
ar m
Ġshe ll
Ġcar rot
Ġtr ou
Ġan sw
Ġbel ong
Ġher self
Ġco ll
Ġbus h
Ġp h
b ow
Ġte ach
Ġsh ap
Ġpus h
Ġsa ck
Ġc our
Ġar ri
Ġhid ing
aught y
e my
Ġdro pped
Ġn aughty
ra ct
' ll
ll ie
Ġte ac
er ry
Ġwo ke
Ġsee m
Ġp ile
Ġto uc
Ġcour se
isk ers
Ġm in
Ġl unch
Ġchee se
Ġju ice
Ġgre w
Ġshap es
f used
is a
am a
ir th
irth day
ĠJ en
Ġpu ppy
Ġtw ins
Ġrain bow
id ge
i pped
Ġb ow
O K
Ġp ers
Ġche ered
b all
Ġro pe
Ġvill age
Ġf ence
ĠF red
Ġsh ook
J ack
Ġsound s
Ġro b
Ġc orn
Ġsp oon
Ġben ch
Ġp ower
Ġstre et
Ġcar ry
Ġtouc hed
Ġsp in
Ġbe ll
Ġpr ob
Ġw ra
co l
Ġwa r
Ġe as
Ġj oy
ĠBl ue
Ġfe w
Ġd es
e b
Ġsp o
Ġpl ane
Ġb irthday
Ġab le
Ġse ed
Ġcut e
Ġmo st
Ġfore ver
um b
Ġarri ved
G ood
ll a
le m
Ġwonder ful
Ġfeel s
Ġn ut
Ġteac her
Ġprob lem
Ġin c
il k
Ġne ck
Ġk iss
Ġbus y
ĠEm ma
Ġbug s
ĠWh iskers
Fin ally
b r
Ġdoll s
Ġm ilk
Ġsh ake
Ġrob ot
Ġpo cket
i an
et er
Ġsh y
ĠTh ank
Ġhear t
Ġprom ise
Ġc ave
at o
Ġbre ad
Ġhelp ful
g ly
Ġo b
Ġre c
Ġstor m
e ared
ount ain
Ġb and
Ġsh r
Ġp op
Ġslow ly
ir t
ir p
Ġbelie ve
Ġtow ards
ar p
Ġu gly
Ġco ver
Ġpat ient
Ġli ve
urt le
Ġbuck et
Ġhold ing
Ġh oney
Ġup set
Ġdis app
ump y
Ġc ir
Ġsh arp
ĠR emy
re ad
Ġdir t
Ġs uc
Ġno ises
o ve
Ġse at
Ġsp ark
ad ow
ĠB ella
Ġgl ow
ĠL e
Ġstor ies
Ġgr ay
Ġtreat s
Ġl ate
og gy
Ġamaz ed
Ġt urtle
o st
Ġd ist
Ġsee k
Ġz oom
our n
Ġmagic al
Ġme et
Ġyou ng
Ġdri ver
Ġball s
Ġj ourn
Ġk itten
Ġle m
at or
Ġm ark
Ġm ist
al m
Ġsand w
Ġpar t
Ġhor se
u nt
fort able
Ġcook ie
Ġspl as
Ġwhe el
Ġtri p
l ing
en s
Ġhug s
pp ing
il ing
um ber
S ure
Ġhug e
Ġm ach
Ġsp id
Ġs ug
Ġprin cess
Ġdro ve
Ġt aking
Ġstr ing
Ġfo ld
B e
ĠL isa
Ġw ild
Ġwhist le
Ġstar s
Ġbu bb
Ġfight ing
Ġn et
ep end
Ġpu zz
O f
Ġin stead
Ġcl oth
Ġsp icy
He y
un g
Ġl ucky
Ġd i
Ġc ou
ĠGra ndma
n ot
Ġcra w
Ġp ath
Ġsa l
ĠJ im
Ġru de
Ġb one
Ġor gan
Ġfor get
ĠM ark
Ġco in
Ġcan not
Ġin v
ĠFin ally
Ġc a
Ġgi ant
Ġs ick
Ġpill ow
oo se
Ġc ard
oo p
ul ar
or s
pp er
L ila
Ġw ide
e st
ĠJ ust
Ġli fe
Ġfix ed
Ġjo ke
er t
Ġno d
Ġwa ve
a ur
L ater
Ġpe ace
ĠA nn
Ġfo ot
Ġgra b
iz e
Ġsnow man
Ġla st
Ġcom es
er y
Ġth in
ri ll
Ġsong s
Ġbo ss
Ġch ange
Ġas h
l ower
Ġwas n
d en
Ġspid er
Ġmach ine
op h
Ġdri ve
Ġmo on
Ġ On
Ġdad dy
Ġcon fused
ĠC ome
Ġb an
ĠLe o
Ġs er
Ġch ased
Ġland ed
Ġhid den
Ġwor m
Ġwr ite
op e
Ġs our
Ġgr umpy
it y
Ġsmo oth
Ġtake s
Ġv al
Ġs uddenly
Ġmy ster
Ġtast e
Ġs el
Ġr ad
Ġmess y
Ġadventure s
Ġr ing
Ġo ven
Ġste pped
Ġ N
Ġac ross
ere st
Ġshe lf
Ġb ark
Ġcar t
Ġte a
Ġ ent
Ġint erest
Ġmiss ed
Ġex p
Ġd rew
Ġf il
Ġf le
Ġc e
et h
Ġstick s
Ġj og
T o
Ġsel fish
Ġl ater
S t
ĠM olly
t o
Ġfruit s
k in
Ġgr ate
Ġt ie
ell y
e ver
Ġban an
Ġst ep
Ġz oo
Ġshe ep
Ġp our
Ġem p
Ġp an
Ġemp ty
Ġl ay
Ġb ought
pec t
Ġwas h
am ed
Ġhop e
Ġduck s
Ġgrate ful
Ġwo lf
Ġbe ak
Ġfe ather
ĠL una
bo x
Ġch ick
Ġsa ve
? âĢĿ
Ġleg s
Ġsp e
ĠJ ill
ar s
Ġdr um
ĠC at
y ard
ug g
Ġlem on
Ġspl ash
if e
S oon
ion s
Ġim ag
Ġb a
Ġsl id
Ġcle ver
irp y
Ġback yard
o se
Ġsmell y
Ġsleep y
C ome
Ġc alm
Ġt id
m er
Ġseem ed
Ġsh ip
Ġpl ate
Ġface s
d ge
Ġph one
Ġwatch ing
Ġcloud s
Ġli ft
Ġ ign
Ġinterest ing
Ġspr ay
Ġf ing
Ġhe althy
le t
Ġth ough
Ġpr ot
Ġs u
Ġa ct
iz zy
Ġeas y
Ġcray ons
Ġm ot
Ġexpl ain
Ġl ine
ĠDad dy
Ġsc ar
er ly
w ard
Ġwho le
Ġque st
Ġm aybe
iz z
Ġm ed
Ġfin ish
Ġarm s
Ġgive s
Ġsu pp
on t
Ġem b
Ġfan cy
w el
u ally
Ġtid y
Ġal ong
Ġdog s
ar ge
ĠJ erry
Ġs uch
ur se
Ġp ract
Ġp ool
ll o
Ġp ack
Ġany one
ĠO llie
Ġfr ont
ig er
o cked
Ġlong er
Ġj elly
ra ss
one st
Ġpuzz le
ar rass
Ġwonder ed
Ġnot hing
Ġemb arrass
Ġje wel
Ġsa ved
Ġprin ce
Ġrock et
Ġwor king
ĠB e
Ġf ake
Ġtrou ble
Ġa v
Ġne igh
m ent
ĠD oggy
Ġm ind
Ġboss y
Ġk ick
Ġexpl or
Ġpoin ted
it ing
Ġput s
or k
ĠCh irpy
Ġsmell ed
Ġh onest
Ġl arge
ĠW ith
Ġmist ake
un k
m ing
Ġv an
Ġa f
Ġplant s
Ġneigh b
Ġsh irt
Ġforg ive
s p
Ġlo ck
ĠB unny
Ġco zy
Ġwe ak
Ġwait ing
or row
Ġche er
Ġcou ch
om an
aught er
ir r
Ġp in
ĠMom o
o c
Ġche w
Ġw oman
Ġso l
Ġc ross
Ġst ood
on es
Ġw ing
Ġgent ly
Ġs ur
Ġon to
ĠM y
Ġjump ing
Ġque en
A nd
ul t
Ġre t
Ġbuild ing
ĠThe ir
ĠWh y
ra id
Ġaf raid
Ġl ad
Ġplace s
Ġte eth
Ġlove ly
Ġy og
Ġboun ce
er a
Ġla w
oom y
ĠM ary
Ġde er
Ġret urn
Ġclean ed
Ġd aughter
Ġst ret
Ġri ch
Ġscar f
Ġsandw ich
Ġd ish
oo f
ge st
Ġant s
Ġtom orrow
Ġpretend ed
Ġb al
n ed
Ġtr ue
Ġswim ming
Ġg ather
ac ed
Ġscream ed
u ce
Ġlove s
S ally
Ġmat ch
Ġst ra
ĠTo gether
Ġbor ing
Ġpower ful
Ġash amed
a w
Ġlad der
Ġsear ch
K itty
Ġw ip
ĠS t
Ġgo es
Ġh um
Ġsplas hed
M y
ĠS omet
Ġpers on
Ġwa nd
Ġansw er
Ġcl own
e k
Ġfur ry
Ġg en
Ġtr ust
Ġapp eared
o ppy
Ġla zy
Ġp ri
Ġe ag
Ġp izz
Ġnear by
Ġcreat ive
Ġfl ag
Ġso ld
Ġcho col
Ġha ng
Ġsuc cess
Ġwe aring
Ġn umber
Ġmot or
ĠI f
Ġfe ar
Ġru b
Ġch ase
m b
v ous
Ġpizz a
Ġtoo l
ĠT V
Ġd ig
Ġsa f
Ġsm iling
ic ked
Ġtri es
Ġcir cle
Ġmat ter
in a
Ġc and
ad o
Ġno isy
Ġst u
el p
Ġwe ird
Ġchocol ate
Ġballoon s
Ġhe llo
Ġm ap
if f
Ġdr ank
Ġn er
Ġt ent
Ġba ld
Ġso ap
Ġimp ress
Ġc ri
Ġner vous
ar l
ens ive
Ġmar ch
p a
Ġexp ensive
Ġkne e
ĠB ird
Ġgen er
St op
Ġgo ld
Ġ icy
Ġpol ite
Ġh ar
ĠP lease
Ġprot ect
Ġr are
Ġp ump
Ġte st
ĠBob by
Ġcar ried
Ġmyster ious
Ġg un
Ġjourn ey
ĠBen ny
Ġres pect
ĠG o
Ġg ate
Ġgl ue
itt er
Ġpre s
vent ually
ra g
ĠT iny
Ġt ape
Ġre g
n ic
ĠD on
Ġnot e
Ġpo or
Ġpic nic
Ġher o
Ġtow el
Ġbr idge
ut e
Ġfe et
Ġembarrass ed
Ġcla ss
Ġsn ee
Ġm ic
sc ape
Ġa p
Ġsh adow
Ġm irr
ĠS p
n ess
Ġte le
Ġwh ale
Ġpeace ful
Ġst ir
Ġclos et
Ġgener ous
H elp
Ġsug ar
Ġthe se
Ġle ad
im p
Tom my
Ġmirr or
Ġbo ot
Ġdec or
os aur
ĠB ear
Ġc ap
Ġd izzy
iss ors
Ġsc are
air s
Ġl amp
Ġh ur
Ġyell ed
Ġr ough
is p
Ġtast ed
Ġt ick
ow ed
um e
Ġs que
Ġdin osaur
l ves
Ġdanc ing
ot e
Ġcr own
Ġwra p
Ġdis co
ĠH ow
Ġprin t
Ġe ld
Ġsc issors
c ed
Ġg igg
s er
Ġcl ap
Ġlo g
r ob
Ġth ick
get able
nd pa
ĠB u
Ġsp read
u al
Ġbr ush
ĠSomet imes
Ġwh isp
Ġve getable
Ġsc o
Ġf at
Ġbl ow
Ġmix ed
Ġp ay
Ġv ase
le br
Ġlo se
Ġso ck
Ġk icked
an y
Ġw is
Ġkn ocked
Ġf ine
Ġwould n
ust r
Ġce lebr
Ġm el
Ġdraw ing
Ġbe an
Ġ 3
Ġb ake
Ġrel ie
Ġy arn
Ġc age
Ġad m
ĠD ucky
rob e
Ġpain ted
D ad
Ġcle ar
Ġfam ous
Ġgo at
Ġcl ay
Ġbec ome
Ġeld erly
on y
Ġcorn er
Ġmight y
Ġro ar
Ġfr ustr
Ġinc red
Ġm ountain
as p
er ries
Ġgl ass
Ġb erries
Ġign or
r ay
Ġh orn
Ġwh ich
Ġsh ark
Ġho se
p ort
ig hed
Ġsp ace
Ġclo ck
Ġf ool
Ġpres ent
Ġmom s
rag ile
W here
Ġincred ible
Ġsp ent
al ous
Ġgr oup
Ġbran ches
Ġpol ice
Ġn orm
Ġt aught
Ġje alous
Ġfrustr ated
Ġt er
Ġf ragile
Ġc ab
Ġh oop
Ġwag on
Ġfr ight
Ġm is
Ġnorm al
Ġgu ess
Ġfe ed
ĠS ome
Ġte am
c ient
ĠB r
Ġb arn
ĠM ama
Ġspo iled
Ġuse ful
Ġbre ath
Ġc one
Ġunderst ood
Ġst ubb
Ġcab in
Ġex am
Ġexplor ing
l ace
Ġbal ance
Ġwa ves
Ġb urn
k n
Ġtell s
Ġcreat ure
Ġche st
Ġstubb orn
Ġter ri
Ġan cient
Ġstra w
Ġbo ard
Ġpr ay
Ġorgan ized
Ġneck lace
Ġhear s
Ġcom fortable
Ġfool ish
Ġwa ke
Ġegg s
Ġpump kin
or ry
o nd
kn own
d le
y m
Ġme asure
Ġno sy
Ġrelie ved
Ġsqu are
Ġj am
Ġd ug
Ġsear ched
Ġwr ote
Ġfind ing
al k
Ġac orn
Ġse ll
ĠP e
Ġfright ened
Ġsho e
i que
Ġun known
Ġas king
Ġtw ist
Ġsw ord
c il
Ġun ique
Ġun us
Ġto ug
Ġor d
Ġp ir
Ġunus ual
Ġbath room
To gether
Ġpen cil
Ġdisco ver
Ġwas hed
Ġtom ato
Ġme al
Ġcl um
Ġb itter
Ġpaw s
Ġfi er
Ġbubb les
Ġfier ce
Ġcover ed
Ġsun f
an ged
Ġm ask
an ut
Ġc her
Ġtoug h
Ġde ad
Ġclum sy
Ġthank ful
Ġchick en
Ġ ind
ber ry
Ġdis g
Ġbanan a
Ġd ull
Ġbl oom
a pped
Ġj et
Ġjoin ed
Ġmo v
Ġwe althy
f ic
Ġw itch
Ġdif fic
un n
Ġyour s
ĠE lla
Ġ '
M e
Ġsal ad
Ġsw an
Ġdisg ust
Ġdiffic ult
Ġdr op
Ġro se
Ġt iger
Ġcra zy
Ġr at
Ġterri ble
Ġun l
Ġcat s
i ant
irst y
b led
Ġhair y
se lves
Ġgl oomy
Ġrem ind
Ġend ing
y al
He re
Ġval ue
Ġ U
Ġs uit
Ġco st
c om
Ġyour self
Ġto ast
Ġsho ot
Ġnod s
Ġdisgust ing
Ġexc iting
Ġknow ing
Ġbor ed
Ġa dd
Ġcu be
Ġnut s
Ġst uff
Ġth irsty
Ġfing er
g round
Ġsmall er
up id
Ġdo ve
ĠJim my
ĠR ex
Ġch anged
Ġsh ore
l ive
Ġadvent ur
Ġst at
or y
orm ous
x ible
Ġrec ord
Ġpot ato
Ġlo yal
l ight
Ġadventur ous
Ġb rill
id ent
Ġsnack s
Ġen ormous
Ġz ip
Ġfr own
Ġche ap
Ġbrill iant
Ġcount ed
Ġpe pper
Ġbo dy
Ġdelic ate
re en
Ġjo lly
Ġmo ving
er p
Ġfr idge
ĠA l
ĠAnd y
mb re
Ġha m
ĠM any
Ġu mbre
Ġmark et
ed ient
Ġcr ane
Ġtri ck
l and
Ġneighb or
Ġhat s
Ġsol ve
E very
Ġfle xible
Ġperf orm
sh ine
p es
Ġst ri
Ġexplain ed
u nd
Ġas leep
Ġpe anut
Ġst upid
Ġcoll ect
Ġg em
ĠW ill
Ġla b
Ġsunf lower
ĠSam my
J im
Ġt imes
ĠBr own
Ġd ough
Ġseed s
Wh o
M um
f ted
Ġc ries
Ġsto ve
Ġsh iver
Ġob edient
Ġsque e
at es
Ġg uit
Ġhe al
Ġg ar
ung le
Ġf our
id dle
A re
Ġj ungle
In side
ack et
Ġc ro
ĠWh ile
Ġs ighed
Ġrel ax
Ġh arm
Ġkn ife
Ġsun shine
Ġcarrot s
Ġstat ue
Ġst age
Ġind epend
Ġsh ine
in ess
Ġvegetable s
il t
c orn
Ġj acket
Ġstu dy
al s
I f
Ġcare less
ĠIn stead
m ost
erp ill
Ġcat erpill
Ġ No
ĠT r
in al
ic t
Ġpar rot
Ġmag n
Ġfil thy
Ġumbre lla
Ġal most
Ġindepend ent
Ġguit ar
Ġis land
y ing
Ġc am
Ġmail box
Ġst ones
Ġbor row
ig inal
Ġfl ash
Ġm iddle
Ġsc r
H ow
S orry
Ġcomp et
m et
Ġd epend
Ġsa uce
Ġspr ing
Ġe scape
Ġr h
Ġsuccess ful
g u
Ġser ious
er able
Ġra ven
Ġf ountain
Ġpop corn
The re
Ġhel met
Ġbed room
Ġje ep
Ġmis erable
Ġbat ter
Ġcom b
Ġmed ic
Ġde st
Ġbelong ed
Ġor iginal
Ġhouse s
Ġeag er
ag es
Ġste al
ak en
Ġcaterpill ar
M olly
Ġget s
Ġfear ful
Ġh ay
Ġdes ign
our s
ia ble
Ġen g
Ġimpress ive
Ġstand ing
Ġmedic ine
Ġgar age
ĠT w
i o
Ġst amp
Ġsl ipped
Ġr aced
Ġcheer ful
Ġthought ful
Ġspot ted
ĠYou r
Ġmo le
Ġcraw led
Ġch oose
Ġcray on
Ġli fted
Ġt aken
Ġt ied
Ġa unt
Ġpain ting
op ter
ic opter
Ġpe bb
ink y
Ġpri ze
Ġmov ie
Ġqu ar
Ġmagn et
Ġt ank
Ġan g
l ph
Ġto r
Ġhel icopter
Ġbel t
d ile
Ġp ian
co dile
Ġj ug
Ġcra ck
Ġbu ilt
Ġsmo ke
Ġmu sh
Ġcry st
Ġhurt s
Ġwa ff
Ġbott om
Ġdepend able
Ġpian o
Ġsqu ash
Ġpick s
Ġfor k
ip e
en ny
Ġli z
am ond
Ġrel iable
ber ries
Ġdo lph
Ġbra ce
Ġpop ular
Ġquar rel
c ream
Ġsw e
Ġho pping
Ġre f
ce an
Ġs il
o in
Ġdi amond
Ġmu ff
Ġp ress
Ġo cean
Ġf ig
Ġpast a
Ġmo der
Ġcompet it
in ary
Ġg oose
Ġg um
Ġshow s
Ġkiss ed
Tim my
Ġwa nder
Ġtri cks
Ġmush room
Ġar row
Ġcand le
Ġwra pped
Ġcro codile
Ġmoder n
Ġp ant
Ġbe et
Ġcoll ar
Ġhelp s
Ġt ax
Ġus ing
Ġsh ape
Ġcam era
Ġr ug
Ġboat s
op l
er opl
p ack
Ġw ire
Ġliz ard
Ġhum ble
Ġfl ute
i v
Ġa eropl
Ġboy s
Ġl ow
Ġan x
c ident
Ġb ull
The ir
ip op
ll ipop
Ġru ined
Ġc ere
Ġanx ious
Ġtax i
Ġon es
ed y
Ġtw ig
Ġpig e
Ġneed s
ĠS n
Ġtor n
Ġlo llipop
c les
Ġeng ine
Ġgra ce
Ġham mer
Ġs ink
Ġtrou bled
Ġmel on
Ġle an
ie f
Ġlo cked
Ġcryst al
Ġtri ang
at ter
Ġdisapp oin
c ut
Ġpers ist
at ch
Ġplay ful
Ġin se
Ġcomp ass
Ġde af
unn el
il ty
Ġwalk s
Ġgu ilty
a ppy
Ġt unnel
Ġhelp less
Ġsc ale
Ġoff ice
Ġen v
com fortable
Ġcomp ut
Ġpass ed
ĠE ven
Ġr id
Ġun comfortable
Ġharm less
Ġc omet
Ġn ail
u be
Ġcere al
Ġte ars
Ġli cked
Ġfl uffy
M ama
ex t
a ff
Ġ er
ubb y
Ġcompass ion
co a
t t
Ġm op
Ġf is
Ġt ire
ot o
Ġbeet le
Ġhard er
Ġb icy
z ed
ut h
Ġgif ted
Ġshr imp
Ġme ant
ĠJen ny
Ġang el
Ġac cident
Ġstret ch
Ġhapp iness
Ġpant s
Ġm ug
Ġre p
Ġpersist ent
Ġav oc
Ġinse ct
Ġdel ight
Ġbe es
h ost
Ġrad io
Ġpour ed
ump et
Bob o
Ġto oth
Ġsp end
as ses
Ġord inary
Ġp ow
Ġsp ill
Ġcomput er
umb ers
Ġinv ited
Ġco coa
Ġsco ot
Ġt ur
Ġtr umpet
Ġear s
Ġl it
Ġgi ving
Ġch ubby
he tt
Ġra ft
hett i
ag hetti
Ġt ag
Ġg host
Ġca ct
Ġsa iled
lc an
Ġpa le
Ġdisappoin ted
Ġro de
Ġhar sh
Ġwhisp ered
Ġpr o
lcan o
Ġdes k
it her
Ġansw ered
Ġlo ad
Ġm elt
Ġtur key
Ġt ube
Ġbar ber
Ġbrace let
Ġtra p
Ġcre ate
az z
Ġreg ular
Ġm ill
Ġaeropl ane
ell ig
az e
Ġquest ions
Ġd ust
Ġth read
Ġsp aghetti
Ġint ellig
col i
c coli
Ġn umbers
Ġth ief
Ġha lf
Ġst ream
Ġgl ove
Ġp ipe
J ane
Ġfor ward
Ġflash light
Ġc ush
as er
Ġcact us
rew ork
ess ie
at s
Ġch arm
Ġvo lcano
Ġsold ier
Ġv ine
Ġrest less
h ip
an ger
Ġv ide
Ġtra ck
Ġpige on
Ġtr unk
ul if
Ġy aw
Ġm itten
Ġdel iver
Ġc oo
Ġsh ade
Ġloo p
Ġlearn ing
Ġloud er
Ġv i
Ġpract iced
Ġenv ious
Ġc op
ĠEm ily
Ġsc reen
Ġt ap
Ġri ce
g ing
Ġli br
y e
Ġhair cut
Ġbar rel
Ġp urse
Ġintellig ent
Ġfi rework
Ġc ase
Ġtick et
ac he
Ġh unt
Ġca ulif
Ġyog urt
Ġe ventually
Ġb ri
Ġspe ed
Ġhappen ing
Ġkn ot
Ġdec ide
Ġstrong er
Ġfeather s
Ġfriends hip
Ġcompassion ate
Ġfig ure
Ġun iver
Ġr oof
cy cle
Ġexc ite
Ġbro ccoli
Ġsor t
Ġbox es
Ġs le
Ġcraw l
om es
Ġcri cket
Ġcar p
ĠJ ake
Ġdream s
Ġcompetit ive
Ġbicy cle
Ġbubb le
Ġshe et
as ing
Ġen vel
Ġdest ro
Ġco ins
ĠO K
ul b
Ġcharm ing
Ġreturn ed
Ġsp un
Ġwheel s
Ġcarp et
Ġch alk
Ġcaulif lower
is ted
Ġy ach
Ġtriang le
at ient
Ġgrace ful
Ġtr uth
Ġsleep ing
Ġju dge
Ġp it
Ġac ce
ol in
ig ator
Ġdolph in
Ġth u
Ġsp ell
it al
Ġho sp
Ġad or
Ġyach t
Ġal ert
Ġwhe at
ĠTo day
Ġb ulb
ĠBu zz
Ġhosp ital
is ion
Ġnice ly
Ġpebb le
Ġp ony
Ġscoot er
el ery
Ġpar ade
Ġru bbed
t en
ĠTr ue
Ġgr own
ter n
Ġor der
Ġway s
Ġtra vel
Ġte m
urt ain
Ġsc atter
Ġcelebr ate
Ġc urtain
Ġfor th
Ġfil m
Ġboun ced
Ġatt ract
Ġro d
Ġador able
G o
Ġr ag
Ġsk in
Ġl ying
Ġall igator
Ġwall et
Ġcount ing
ĠP oppy
Ġpo em
eb ra
Ġplan et
Ġo y
et e
Ġsa us
Ġimp atient
Ġclean ing
Ġc elery
Ġattract ive
Ġwall s
Ġneed le
Ġpr un
Ġthem selves
Ġon ion
Ġbus hes
b ul
Ġtr ay
Ġvi olin
Ġent h
Ġh ook
Ġle op
Ġquest ion
Ġmar ry
ra ge
Ġrad ish
Ġso ar
Ġpo le
Ġimp ro
Ġz ebra
Ġenth us
Ġignor ant
Ġenthus ia
z zy
bul ance
Ġam bulance
ĠF r
Ġsh ut
Ġshell s
Ġs end
Ġcush ion
Ġmotor cycle
Ġ ed
d om
ill a
ul u
at ing
Ġcoo ked
Ġlive ly
Ġen c
Ġf u
Ġwe ek
Ġmet al
Ġh omes
Ġpat tern
Sara h
ĠP ipp
Ġspe ak
Ġdist ant
Ġavoc ado
Ġsc rew
Ġdestro y
Ġd eter
Ġsay ing
Ġb ase
Ġenvel ope
Ġsn iff
Ġt ummy
Ġspin ning
Ġlight s
Ġsle pt
Ġin k
n ger
Ġpen gu
Ġste ak
Ġstr anger
Ġleop ard
Ġsur f
Ġbig gest
Ġdeter m
Ġband age
j ect
Ġlaugh s
ent ion
Ġd ive
Ġer aser
Ġbag s
Ġshow ing
ag ed
Ġun cle
de st
am ent
Ġdecor ate
ĠP eter
Ġsk ipped
Ġbeh ave
Ġdi ary
eb ook
Ġf ather
Ġb in
Ġnot ebook
Ġtem p
Ġl ime
Ġk ay
Ġpe ach
Ġh ipp
Ġbutton s
Ġme at
Ġsk ull
it o
Ġunl ock
v ator
Ġch ain
ch air
Ġve st
Ġpo st
Ġele vator
G ive
n ament
Ġpir ate
ĠS h
Ġgather ed
Ġor nament
ur b
qu ito
Ġwip ed
Ġsk ip
le ton
ke leton
l ies
Ġn urse
Ġfall s
Ġloud ly
Ġarm chair
ĠF o
Ġst ation
Ġkay ak
Ġmo s
Ġgu ard
us ie
Ġjourn al
Ġse al
ĠT ina
Ġear th
Ġm ild
Ġc ord
Ġplay ground
Ġmos quito
Ġknow s
Ġswe ater
Ġdist urb
Ġdisapp eared
Ġtruck s
G ra
Ġc ity
Ġon ce
Ġmo dest
Ġmiss ile
w e
Ġb ump
Ġwhen ever
Ġdri ving
Ġfold er
Ġpre p
Ġcom pl
ct op
Ġa ut
B illy
Ġs keleton
Ġp le
Ġsh ield
Ġcup board
Ġl ed
Ġspl it
Ġstraw berry
ak y
Ġlibr ary
Ġpoin ting
Ġres c
Ġoy ster
Ġhipp o
ce ed
Ġmar ble
Ġglow ing
Ġy et
st ic
ir it
ctop us
Ġsun g
umb led
Ġed ge
W ell
Ġwis hes
Ġpol ish
Ġcup s
us hed
Ġm ath
ob y
Ġenthusia stic
Ġbrother s
Ġg ear
Ġc ob
ur ing
Ġha ll
ĠBird y
ob ile
Ġfl ame
ur ch
Ġcl ub
Ġcall ing
Ġthu nder
om obile
Ġsal t
Ġjelly fish
Ġit ch
Ġkind ness
ĠB et
Ġmuff in
Ġgr owl
ĠL ulu
Ġsug gest
Ġaut omobile
w eb
Ġread ing
Ġmag az
l a
Ġtri pped
Ġo ctopus
Ġp ine
ĠM um
Ġfoot ball
Ġsupp ort
Ġd ess
Ġatt ic
Ġpo ke
Ġro ot
l asses
Ġsuc ceed
?" .
Ġmean s
Ġg or
Ġtele ph
ipp er
Ġcob web
Ġsung lasses
Ġrep air
Ġst ack
Ġenc ou
Ġa dded
Ġgra pes
ist ol
Ġche ss
Ġcost ume
p ar
Ġteleph one
Ġvide o
Ġpa cked
Ġme adow
Ġpow der
Ġcart oon
Ġyog a
Ġst airs
Ġmix er
ĠTw eet
Ġre pe
at ure
Ġhe dge
ro sc
Ġcomp let
ut es
ri c
Ġdraw ings
Ġit self
ĠP olly
Ġfle a
B ye
Ġp istol
Ġmat t
Ġch urch
rosc ope
Ġmake up
a ving
Jim my
o ld
Ġroll ing
Ġpen ny
Ġsw itch
Ġp un
in es
Ġan ch
ĠPe ople
Ġwaff le
a it
t ime
Ġgo lf
, âĢĿ
Ġpack age
Ġman aged
Ġcol our
ĠL ittle
Ġo il
Ġdraw er
Ġve il
Ġc able
Ġtr oph
Ġcompl ain
Ġla ser
Ġsnee ze
ke ep
Ġher b
R e
Ġsp ear
Ġpast ry
Ġdeterm ined
Ġsho cked
Ġmatt ress
Ġanch or
Ġr ot
Ġm aze
w ork
oph one
Ġhot el
Ġar g
Ġkn ight
Ġc amp
Ġc ell
Ġco al
S ee
Ġmin utes
he ad
Ġey e
Ġsaf ely
Ġper m
Ġbanan as
Ġte ar
Ġtroph y
Ġear ly
Ġse par
Ġs ight
ht ray
Ġstep s
Ġgigg led
Ġdess ert
Ġf ile
ĠM iss
Ġg asp
Ġgor illa
Ġfire man
Ġstr ugg
J ill
Ġo k
Ġmin t
Ġve nd
Ġpretend ing
Ġbasket ball
Ġle ash
Ġcool er
Ġ ow
Ġpe ar
Ġw ool
Ġth ose
Ġtemp le
Ġhand le
Ġho c
Ġhoc key
c ing
Ġtra sh
Ġhunt er
ie w
Ġt ask
Ġsn e
Ġbark ing
ĠP ete
ht ub
il ot
Ġt en
Ġbat htub
Ġcook ing
ĠL ook
Ġf ive
Ġv iew
Ġfr ame
Ġvend or
Ġmar ched
Ġcabin et
ir on
Ġri bb
Ġmic r
Ġre ver
Ġpe e
Ġslid es
Ġme m
n ey
ĠB essie
Ġw ife
Ġr ise
Ġtool s
Ġha nger
' d
Ġof ten
Ġas htray
ĠZ oom
Ġwar d
A l
Ġmic roscope
Ġfl our
Ġward robe
Ġh ours
ctor y
ĠD an
Ġblack board
Ġthin king
Ġe ither
Ġsand box
fe e
Ġmicr ophone
keep er
Ġwe ep
f fee
Ġst aff
and a
es day
Ġopen s
Ġche ck
Ġset t
ot ter
Ġfa ctory
Ġhold s
Ġcher ries
Ġ otter
at ely
Ġwh ip
Ġsp irit
Ġsail or
up er
ug ged
Ġnew sp
im ney
ar oo
ĠG ive
w as
ang aroo
pl ay
ĠEvery where
Ġm ay
Ġp ilot
Ġch imney
pl ace
c ase
was her
ile t
Ġu r
Ġlot ion
v ision
Ġsh ort
Ġre ward
Ġkn ock
Ġqu it
Ġall owed
Ġa x
Ġexcite ment
re ady
Ġmess age
Ġpat ch
Ġk angaroo
Ġo ats
ap ers
Ġto ilet
Ġph oto
Ġreal ised
Ġla und
Ġtow ers
ail able
Ġpract ice
se um
Ġsaus age
Ġfu el
Ġdish washer
Ġmed al
Ġlaund ry
Ġimag ine
Ġbatter y
Ġtele vision
Ġs ize
Ġmagaz ine
Ġpass port
E m
Ġmu seum
Ġrem ain
Ġr ake
Ġo ak
Ġal ready
Ġdis play
Ġbat he
Ġval u
Ġfree z
Ġdream ed
Ġm en
Ġju icy
Ġh ive
e er
Ġg rill
ĠSp ike
Ġav ailable
Ġcow s
Ġhur ry
Ġtell ing
Ġax e
Ġtorn ado
in ation
az or
Ġimpro ve
h ic
Ġve hic
ur ed
Ġco ffee
Ġfire place
Ġbase ball
Ġcard board
Ġf og
Ġfast est
ĠBet ty
Ġrh in
Ġp al
Ġg ain
Ġorgan ize
Ġhang ing
Ġfing ers
Ġnot ice
bo dy
Ġst umbled
Ġsil ver
ĠPipp in
Ġenjoy ing
Jo e
Ġfall ing
Ġt una
Ġ iron
ĠHe re
Ġgra ndpa
Ġcan e
Ġb ill
l oo
ĠR ose
en se
Ġspill ed
a id
ĠK im
c ome
Ġno vel
Ġboot s
W ait
Ġpal ace
Ġob ject
Ġre ind
Ġmin er
st airs
Ġstar ed
Ġl end
Ġstop s
Ġshr ink
F luffy
ĠS unny
r on
ig loo
Ġho les
Ġ igloo
O w
ar ian
Ġbath robe
uc et
Ġpick ing
Ġm ummy
Ġz ipper
ĠZ ip
Ġn ature
Ġpro v
Ġs on
ac hes
Ġfis her
Ġreind eer
Ġfa ucet
ĠSn ow
Ġhapp ier
Ġpengu in
l u
Ġlisten ing
Ġjoke s
c u
ar ry
af fe
Ġro ared
Ġcomplet e
Ġp ed
Ġpress ed
aur ant
Ġs ub
Ġnap kin
ict ion
Ġrest aurant
Ġjump s
v ice
Ġbu ry
Ġnam es
Ġp or
Ġcom fort
Ġs ym
Ġtall er
f a
Ġdiscover ed
iction ary
Ġs uper
I s
L ittle
Ġbutterf lies
Ġbike s
ie st
Ġvalu able
Ġperf ume
Ġnewsp aper
oc er
Ġsk irt
ĠR ob
bo l
Ġne at
ĠA re
Ġre ce
ree k
Ġtra il
Ġspark ly
Ġsym bol
Ġstret ched
amp oo
Ġsh aking
Ġgrow ing
Ġclimb ing
Ġbl in
Ġc reek
Ġjewel ry
Ġt ub
ocer os
M r
Ġspo ke
Ġgasp ed
Ġoff ered
Ġletter s
Ġli p
Ġsn ap
Ġsweet ie
Ġatt ach
Ġinc lu
Ġfisher man
M ummy
Ġp apers
Ġbl ouse
Ġsquirrel s
d el
Ġbe ep
ic hes
Ġc ards
Ġli e
ĠT oby
z ag
Ġswam p
Ġfreez er
Ġsandw iches
ale nd
Ġcho se
ĠM ar
Ġo live
Ġd ictionary
Ġcl iff
ĠS usie
Ġun pack
i k
Ġwe igh
Ġrhin oceros
Ġhun g
Ġc alend
Ġex t
Ġgir affe
Ġfrog s
Ġres ist
Ġbill board
Ġal arm
Ġsh ampoo
Ġtight ly
Ġhelp er
Ġbooks he
ig zag
Ġpo pped
Ġair port
st ri
Ġdist ance
l ter
Ġh ut
Ġany way
Ġag ree
Ġpor ch
Ġmu le
Ġstir red
g en
Ġshe lter
Ġbookshe lf
Ġstick ers
Ġr azor
Ġso il
Ġso fa
Ġcri b
Ġsub way
Ġcalend ar
om ed
Ġmo del
Ġpain ter
f ast
Ġad vice
Ġg ym
Ġrub ber
Ġop era
Ġagain st
Ġg as
O uch
og n
Ġbreak fast
Ġrec ogn
iv al
Ġbelong s
Ġswing ing
Ġfe st
Ġdis ag
Ġt ut
Ġob ser
Ġsl ipp
Ġpin ch
Ġrever se
Ġmust ache
Ġdoes n
Ġbuck le
Ġp age
Ġce iling
Ġle aving
Ġext ra
Ġhat e
Ġcir cles
Ġple ased
Ġo stri
Ġpee ked
Ġkn ob
Ġtut or
Ġblue berries
Ġa head
Ġsepar ate
ĠT eddy
Ġlight ning
Ġch ance
um mer
Ġre fused
ĠP andy
D aisy
Ġmusic ian
as is
Ġser ve
Ġdisapp ear
ol a
Ġfest ival
Ġrid ing
Ġhappen s
ĠGra ndpa
Ġvehic le
Ġru les
Ġlaw y
t e
Ġtrain s
Ġun if
Ġdanc er
Ġunif orm
rm omet
Ġo asis
Ġany where
rmomet er
Ġp anda
e or
Ġlaw n
Ġj unk
Ġwip e
asp oon
Ġte ase
Ġpoin t
Ġin s
Ġfor t
re nder
e f
Ġwe ather
Ġsquee ze
Ġl umber
Ġdream ing
Ġwin ter
Ġpast el
Ġlean ed
Ġresc ue
Ġpo ked
Ġaccident ally
ĠL ee
Ġbri ck
i ence
Ġtr ade
Ġte aspoon
Ġdra in
Ġsw ung
Ġbee f
n ight
ĠDo lly
a ked
Ġgo al
Ġst om
Ġcarry ing
Ġr ail
Ġadm ire
re s
Ġmeet ing
Ġostri ch
x y
Ġmistake s
Ġb et
Ġsound ed
Ġrem ove
Ġinv ite
Ġpe ek
Ġbird c
Ġlawy er
Ġqu iz
Ġs uff
ĠMr s
ĠC o
Ġstar ts
Ġgra pe
!" .
Ġbirdc age
Ġbook case
Ġcar ing
n a
Ġmiss ing
eor ge
Ġp ages
Ġch asing
i um
Ġthe rmometer
Ġthe ater
Ġproblem s
Ġf urn
it ure
Ġwindow s
Ġfurn iture
Ġmonkey s
Ġl id
Ġblin ked
Ġs ummer
ĠB ubb
Ġimag ined
ĠC l
ĠW here
Ġwar ned
Ġacce pt
Ġspo il
Ġshout s
Ġtw ir
Ġrespect ful
Ġold er
Ġlab el
l ow
r iger
riger ator
Ġre ef
Ġb ent
Ġw igg
Ġchair s
ĠB ow
Ġsad ly
Ġref rigerator
Ġsun set
Ġclass room
Ġfrown ed
ĠU n
ĠC arl
Ġwas te
Ġsuggest ed
Ġste am
Ġsl ip
Ġab ove
m ed
Ġzoom ed
Ġli c
ast ic
Ġ V
Ġeven ing
Ġc udd
am ber
Ġdel ay
ĠS pe
Ġst able
Ġbright ly
Ġpre vent
ec ted
Ġun ite
Ġproud ly
Ġfav our
Ġgrab s
Ġgra nd
Ġs ent
Ġf ought
Ġcho ice
ang u
ation s
D id
Ġhand ed
ik i
ad ium
Ġpa ir
Ġst adium
Ġfix ing
Ġfind s
ĠB ig
Ġsearch ing
Ġlion s
Ġpudd les
Ġl angu
Ġshow er
Ġb erry
ĠB ill
Ġfavour ite
Ġj ail
Ġin f
s ity
ro d
Ġlic ense
Ġw ine
ĠHe l
Ġap ron
Ġsur render
Ġremind ed
Ġsupp ly
Ġrest ore
cu ss
C h
is on
Ġch amber
in arian
eter inarian
Ġint rod
Ġexcited ly
Ġran ch
ugg age
m end
You r
Ġcar ed
Ġv eterinarian
Ġsurpr ises
Ġl uggage
ĠB oun
Ġsa ving
ve al
Ġinc re
Ġflo at
Ġmat ches
Ġhar b
ol og
Ġr ac
om mend
Ġminer al
Ġdis cuss
Ġadm ired
Ġrec ommend
Ġstick er
v et
le x
Ġpus hing
Ġhum an
Ġar t
el come
Ġslipp ery
Ġarg ue
Ġplay er
Ġre veal
Ġdoor s
Ġc ur
her o
Ġr ushed
Ġpull s
Ġap olog
Ġharb or
Ġra ise
Ġpl ates
Ġsuper hero
Ġign ore
a ul
ĠAl ice
uc ture
Ġa w
ĠN ext
Ġstr ucture
Ġbe g
Ġapp l
Ġrepl ace
Ġforg ave
Ġm all
Ġg ro
Ġsnee zed
Ġpan ic
Ġreg ret
Ġpu p
Ġs udden
th ank
Ġribb on
Ġsp ade
Ġli ves
all ey
Ġy ield
ric ane
Ġdelight ed
ĠJ azz
Ġchick ens
Ġmyster y
Ġme as
Ġv alley
ec ause
Ġcolour ful
Ġwe ap
ĠR ed
Ġsho vel
Ġso cks
Ġsniff ed
Ġput ting
Ġshiver ing
Ġe vent
Ġstri p
Ġshake s
Ġprep are
Ġmen u
ĠBu zzy
Ġpoin ts
ĠFred dy
Y uck
Ġpl astic
Ġbark s
ĠBubb les
Ġsh one
ĠM ike
ĠD ave
Ġrain ed
Ġw re
Ġle ak
ĠO w
Ġf re
id ay
Ġcount ry
ĠO live
Ġpus hes
c er
ĠE llie
ick y
Ġspray ed
Ġend ed
Ġn avy
r ise
Ġinf ant
Ġthank s
Y ay
ĠSpe edy
Ġbright er
au d
as on
Ġdis hes
Ġsoft ly
Gra ndma
Ġkeep ing
Ġshould er
Ġkne el
Ġkind s
Ġfree ze
Ġt ip
Ġ âĢ
im ed
Ġp ort
ch an
Ġhop ing
Ġbre at
Ġhead s
Ġsun rise
er o
Ġcla w
Ġcher ry
ic er
Ġho l
Ġhol iday
ĠW ould
c ast
Ġhur ricane
Ġbe nd
Ġsuff er
Ġcast les
Ġgigg le
ĠB inky
ar i
Ġprov ide
Ġsc ore
Ġsand cast
co nd
ĠF l
W ill
Ġthrow ing
Ġent er
Ġme owed
w ards
Ġsmell s
Ġuniver se
Ġse cond
Ġde ar
Ġlangu age
ĠO r
M ary
Ġplan es
Ġlaug ht
Ġstick y
Ġsplas hing
Ġlaught er
ĠP at
Ġun h
Ġwre ck
Ġroom s
ĠE nd
in ce
N ext
Ġfre sh
chan ic
em ent
Ġappl aud
Ġtrust ed
Ġme chanic
ac ked
Ġcou rage
Ġr ow
ig i
Ġbreak s
Ġfl ies
y ear
Ġto e
Ġcla pping
Ġpar ts
Ġ x
. .
Ġth umb
Ġd em
Ġs igh
Ġrepe at
Ġprun e
Ġsome where
Ġfeel ings
Ġco pper
o e
Ġcont ent
Ġunh appy
Ġm ass
Ġd are
Ġweap on
Q u
ĠT ed
ĠK iki
Ġlet ting
Ġsp ort
ĠHel p
Ġm ention
B uddy
Ġr ush
Ġjog ged
Re ady
er c
Ġfl ood
que st
oph ie
Ġstre ng
Ġrain ing
Ġen er
Ġste el
app ing
Ġstreng th
Ġmy self
Ġcoat s
Ġthrow s
Em ma
Ġre quest
Ġgre edy
Ġch irp
Ġinv it
Ġdem and
Ġsk ill
Ġwar n
A nn
Ġpig s
he art
Ġle ather
ĠS que
Ġyaw ned
Ġstar ting
Ġpa id
en ry
Ġsco ld
Ġex erc
Ġup stairs
Ġeat en
Ġshr ugged
Ġcross ed
Ġal ive
ĠH oppy
Ġexam ine
Ġuniver sity
Ġboun cing
Ġpir ates
Ġdrop s
Ġfl apped
i ally
Ġpun ish
Ġbear s
Ġimpress ed
Al ice
Ġstraw berries
Ġn ation
Ġtra cks
Ġpo ison
Ġyaw n
arl ie
Ġgi ven
Ġsquee zed
b les
ĠR u
Ġ Y
Ġsett le
Ġscr atch
ĠL ola
Ġe qu
L isa
A ll
Ġpl aced
Ġmin ute
s pec
Ġstu d
Ġst y
ĠJohn ny
Ġsweet heart
Ġexplor ed
Ġspark led
Ġrabbit s
Ġlemon ade
spec ially
Ġbump ed
m are
Dad dy
Ġsn ugg
Ġsandcast le
g es
Ġbu zz
ĠS m
in king
Ġche cked
Ġpray ed
Ġchee k
Ġspot s
ĠM andy
we en
M ark
Ġnew s
Ġt ide
Ġhor ses
Ġbet ween
Ġbelie ved
Ġwhist led
Ġclaw s
re at
Ġped al
Ġv ac
Ġbad ly
Ġwa ving
Ġhe at
ĠG igi
Ġv room
Ġhill s
ipp ing
ĠZ oomy
Ġex pect
Ġe specially
Ġobser ve
Ġso ak
Ġhis t
ĠFo x
Ġblue berry
S h
Ġstom ach
Ġhist ory
Ġsc oop
Ġnight mare
Ġeas ily
n oon
ĠB ee
Ġbeaut y
Ġoff er
Ġafter noon
y th
iz es
Be fore
ott en
Ġacorn s
Ġp ad
ĠG eorge
Ġent ered
Ġignor ed
Ġtw isted
Ġcall s
Ġener gy
yth m
ĠS ee
ĠU nder
m en
Ġbra in
ree ze
Ġb other
ĠS k
Ġto ur
Ġno body
Ġlem ons
Ġins isted
Ġsnow ball
Ġimag ination
Ġd aisy
Ġburn ed
Ġprun es
Ġblow ing
F red
Ġperm it
Ġmass age
ĠGra ce
Ġhear ts
Ġbean s
he st
Ġinclu de
t ain
Ġincre ase
Ġy ucky
ĠM ummy
qu ake
ip ment
Ġbu ried
Ġvac ation
Ġrh ythm
Ġt ug
Ġequ ipment
Ġ ing
W elcome
m ble
ĠL illy
Ġcra sh
Ġs ir
Ġpri ce
Ġp alm
Ġcand les
Ġsaf ari
Ġnet work
Ġb aking
ĠFin n
Ġg az
Ġencou rage
er ation
Ġing red
Ġingred ient
ĠA lex
ill ie
Ġp itch
Ġfollow ing
ap a
Ġshop keeper
Ġtre mble
Ġearth quake
Ġse w
J enny
Ġintrod uce
Ġmove s
Ġbel ow
Ġflo ated
Ġwr iting
Ġst air
la imed
Ġpo ppy
Ġmail man
Ġchew ed
Ġl uck
Ġf urt
ec ting
Ġgrowl ed
Ġfollow s
Ġback pack
Ġstri ke
Ġle ar
Ġpeanut s
Ġlear nt
Ġexc laimed
ed n
edn esday
Ġhop es
W oof
Ġsl ap
L e
Ġch ore
Ġwe ight
Ġwag s
ri age
ang es
Ġatt ention
Ġrecogn ize
Ġteach ing
Ġplan ned
Ġfurt her
ĠE lly
Ġshout ing
ĠSnow y
h ouse
Ġcom f
Ġclose ly
W ith
ĠD og
ĠWh o
c ery
ĠFin ny
Ġgro cery
res ses
Ġhe el
ĠSque aky
Ġfold ed
Ġcon f
Ġrac ing
Ġboun cy
Ġpull ing
Ġm ama
Ġchore s
Ġingredient s
und ay
Ġim age
Ġz igzag
em ember
Ġsp ike
Ġland scape
ĠP aul
l ook
Ġelephant s
Ġc ape
is ty
Ġexerc ise
ĠW ednesday
ĠS unday
Ġbl ood
Ġmar bles
Ġwis dom
Ġsty le
Ġplan ted
ĠP ip
M imi
ĠOw l
Ġscr at
Ġb le
re c
Ġdeep er
ĠSh aring
uc t
Ġcu b
Ġstrugg le
Ġop eration
h ood
Ġpuzz les
Ċ Ġč
xy gen
Ġexp er
igg ing
os ie
Ġur ge
ĠWhen ever
ĠI s
Ġd igging
ĠH ave
Ġwin ning
Ġwhisp er
Ġdress ed
Ġap art
or ies
Ġhurt ing
Ġag re
ĠZ ara
dd y
Ġplay s
Ġwas hing
Ġcreature s
ĠR ock
Ġwar ning
ff ic
Ġmar riage
Ġd resses
ĠCo co
itten s
Ġquiet ly
Ġp ur
ec ture
uc ked
Ġl ecture
ĠL ucky
Ġsn ail
i ppy
Ġfa sh
Ġgif ts
Ġinvit ation
look ing
Ġunder ground
Ġtre mb
Ġre aches
Ġworm s
ĠBoun ce
Every one
Ġre lease
Ġj azz
Ġfall en
Ġspr ink
Ġtra ffic
Ġw ob
ĠFr oggy
Ġs izes
Ġs imp
Ġqu ite
Ġcap tain
Ġwor th
Ġeag erly
Ġli cks
Ġvan ished
Ġman age
Ġfash ion
ĠT illy
ĠR o
ĠâĢ ĵ
Ġd ried
or al
Ġbreat he
rec i
Ġide as
Ġh on
Ġsol ved
ĠS u
ĠJoe y
Ġprin ter
ĠDan ny
et ch
Ġsail ing
Ġpa used
s ed
Ġcount er
Ġsnugg led
ĠP enny
Ġm ice
Ġapp reci
ĠG ood
ip s
Ġmem ory
Ġbl ink
Ġshin ed
Ġbal an
Ġwater ed
p ted
Ġfl ap
un ately
ĠS ophie
r ight
Ġtw isty
B ella
st ers
Ġo h
Ġmu ddy
is ses
Ġmar ried
Ġk isses
Ġgl o
Ġres p
bb ing
B ecause
g ie
Ġpillow s
c cer
Ġbr ings
Ġneighb our
Ġdestroy ed
ĠBlue y
Ġvan ish
Ġsee ing
Ġacce pted
ra ged
The se
Ġin st
m m
Ġwander ed
Ġtomato es
N ot
Ġmem ories
Ġso ccer
Ġwag ging
Ġd uring
Ġprin ts
Ġsor ts
Ġbri cks
Ġseat s
Ġsit s
ĠE ventually
Ġfirework s
To day
up s
Ġwor se
u esday
Ġher s
Ġapp ear
B l
Ġglo ves
op s
Ġrece ive
Ġb ones
Ġscold ed
igg ly
R emy
Ġsn apped
Ġex it
ĠAnn ie
Ġb ur
Ġs i
ĠT ony
if i
Ġeas ier
i ved
d o
Ġhit s
ĠEvery thing
ĠM ittens
Ġz ipped
Ġcatch ing
Ġgaz ed
Ġscatter ed
in o
u x
n ce
S urpr
is ing
Ġd ared
ĠT uesday
Y um
Ġwe b
Ġall ow
u ry
Ġtreasure s
ch ie
ĠR osie
ĠP apa
ĠCh arlie
r r
bb y
a h
Ġbed s
Ġve l
Ġclimb s
Ġmarch ing
Ġpet als
Ġhad n
Ġvel vet
Ġto ng
Ġsign s
Ġra ised
Ġgold en
Ġsh ot
Ġunl ocked
Ġpe ars
Ġblanket s
Ġtra ve
Ġse ason
Ġcre ated
Ġble ed
Ġbit es
ĠH arry
Ġk itty
un e
Ġran g
Ġskill s
Ġor anges
Ġo xygen
Ġpret t
Ġpin ched
ap ed
Ġp ies
Ġwa ist
Ġvis ited
Ġstuff ed
Ġflo ating
Ġdiffere nce
i ers
Ġspoon s
d ing
Ġcelebr ated
ak er
ch oo
Ġl ux
Ġdisag ree
Ġsor ting
Ġslid ing
Ġtwir led
ĠMar ia
Ġst itch
Ġfr o
Ġforg otten
ss ible
Ġba ked
ĠH enry
Ġnow here
Ġcake s
ĠP inky
Ġking dom
Ġjog ging
O k
e ster
Ġcut ting
ester day
Ġguess ed
Ġsold iers
Surpr ise
or ted
ag gie
Ġpe arl
Ġwelc omed
Ġstra ight
Ġru in
Ġbow ed
Ġcr ow
um ble
Ġl ung
med i
Ġkick ing
Ġis n
ĠK ate
medi ately
Ġur ged
Ġcoll ected
ĠGo d
Ġunderstand ing
ct ion
' ve
Ġac ted
Ġwaff les
fort unately
Ġsl ice
Ġshould n
ĠF ifi
Ġto es
Ġsimp le
Ġlux ury
Ġf etch
Ġpattern s
Ġmus cles
ĠL iz
Ġl ined
Ġfire f
um es
Ġto re
Ġshe d
Ġs ince
Ġprin ted
Ġb reeze
Ġsell ing
Ġem er
Ġwin ner
Ġencou raged
Ġb ang
s it
c us
Ġpet s
Ġpun ished
Ġmeas ured
Ġcra s
Ġv ict
Ġl ily
Ġby e
Ġpresent s
M oral
Ġtra pped
Ġweep ing
Ġtong ue
omed ay
ake s
ĠSp ark
e ath
Ġgr ant
Ġour s
Ġatt ached
Ġw iz
Ġjewel s
Ġcost umes
ĠSt e
Ġbre aking
ĠB aby
ĠW iggly
Ġpup il
Ġolive s
Ġcollect ion
r in
Ġvoice s
Ġrece ived
Ġme ow
ĠE ach
Ġfam il
Ġs ip
ĠK ing
Ġmel ted
Ġgr in
Ġ Qu
ĠSm ith
Good bye
os ed
k ins
ĠM illie
Ġs omeday
Ġdrink s
an ny
Ġbeg ged
ĠBe fore
Ġp ra
ent s
Ġlip s
ĠS andy
e ep
Ġwe st
ĠRu by
Ġmouth s
Ġfis hing
ad ed
Ġmention ed
Ġn one
Ġsur round
ĠT una
Ġdr inking
ĠB o
Ġwhist ling
r ing
Ġwiz ard
Ġperfect ly
Me ow
Ġexper ience
is hing
Ġfl at
Le o
Ġdisag reed
Ġsp it
Ġlady b
Ġsor ted
Ġshadow s
Ġsk ipping
Ġapp ro
ĠUn cle
Ġvict ory
ve st
J en
Ġring ing
ĠB oo
Ġto night
Ġe sc
ut ter
Ġpe aches
Ġrelax ed
Ġr ul
Ġcr unch
iss ion
Ġte asing
Ġz ero
Bl ue
Bob by
Ġhur ried
ĠW ally
w alk
t her
Ġstr o
Ġperm ission
Ġsh ock
ache l
ĠRock y
o ved
Ġlet s
Ġag o
Ġtremb ling
Ġkneel ed
ĠT oto
č ĊĠč
Ġside walk
Ġhig hest
Ġsupp osed
Ġsne ak
Ġcol ours
Ġcartoon s
Ġwat ches
Ġs ix
ĠFo llow
Ġroot s
Ġpaint s
ĠThe se
Re ally
Ġwarm th
Ġmelt ing
Ġherb s
Ġbr us
et y
Ġtw ink
Ġpotato es
Ġstud ied
!" ,
Ġmoment s
Ġhead ed
Ġkn own
Sam my
H a
Ġim mediately
Ġwork s
Ġt ucked
Ġland s
Ġf ed
Ġstr ang
ĠD ino
ĠA b
Ġscream s
Ġscrat ched
ĠG r
Ġl ines
ĠD r
b oo
B ird
" ,
Ġfield s
av id
d ed
v a
Ġsett led
Ġwigg le
Ġli ck
Ġtwig s
Ġla id
ĠS low
Ġdecor ations
sh ip
Ġladyb ug
ic ing
Ġremain ed
ĠJ ames
Ġstrang ers
Ġinst r
And y
Ġgirl s
Ġe ast
ĠM ay
Ġwait s
Ġsteal ing
Ġbro om
ist en
Ġstamp s
Ġplay time
Ġop in
s ing
Ġrest ed
irr ing
ĠIt s
Ġsl apped
Ġsucceed ed
ĠC he
M andy
Ġtheir s
Ġri pped
Ġal right
or ed
Ġrest ing
Ġhe n
Ġnail s
Ġbr id
Ġare a
ĠB oth
Ġin vest
Ġmuff ins
Ġset ting
ĠCh icky
Ġoff icer
at ie
P eter
Ġinvest ig
Ġth reat
ab ies
Ġemer gen
Ġsil ence
Ġa chie
W ould
Ġesc aped
p lease
B oo
Ġw ink
Ġmat ched
ĠPe pper
Ġsaf ety
Ġgu y
Ġburn ing
' .
Ġord ered
ig ail
Ġtw in
is hes
Ġbrid ges
os ity
ĠSk y
Ġrul er
Ġm ister
Ġeat s
Ġpile s
Ġmark s
Ġinvestig ate
Ġcont est
ĠH op
x ture
Ġwr it
Ġte xture
Ġser ved
id es
Ġappreci ate
Ġst irring
id s
Ġb abies
Ġamaz ement
Ġbrave ly
Ġmix ing
ĠSome one
Ġturn ing
z ing
Ġpu pp
Ġimport ance
Ġkey s
Ġansw ers
Ġmon sters
Ġtrip s
Ġso aked
Ġrecord ed
b ers
Ġqu ack
ĠSt ar
Ġtouch ing
Ġadm ir
h a
Ġyou th
Ġd ire
H appy
Ġso re
Ġsho pping
M mm
E ventually
Ġkeep s
Ġhe sit
ĠCl ara
Ġsister s
Ġdad s
Ġcon es
Ġpra ised
Ġglow ed
Ġfood s
Ġo at
Ġin ch
ant ly
Ġso ared
Ġreveal ed
ĠL ater
pl ash
u zz
all en
Mom o
Ġchew ing
an na
Ġspark le
Ġch allen
ĠH ope
Ġwood en
ĠSu zy
Ġcrunch y
Ġit em
C at
ĠA n
Ġcur led
iz ing
Ġticket s
Ġrid es
Ġemergen cy
Ġha ted
he llo
Ġshoot ing
Ġf ut
E lla
a les
f ied
Ġfut ure
Ġv et
Ġfl av
ĠZ igzag
ĠSomet hing
Ġtick le
Ġdown stairs
unn ies
Ġsprink les
Ġpe el
ĠJ ul
Ġs ings
ĠM o
Ġbe amed
Ġbe at
ĠF irst
Ġrem em
Ġsne aky
Ġtast es
Ġremem bers
ĠB ug
T w
Ġswim s
Ġstudy ing
Ġbring ing
Ġche f
Ġappro ached
C l
ĠFr og
Ġb unnies
ĠD id
Ġbleed ing
ĠN ot
Ġth rill
ĠO ut
Ġsees aw
Ġlead er
Ġdinosaur s
h ind
Ġstr ings
a ct
Ġneighbor hood
l s
ir ts
Ġpr ide
Ġdisturb ed
Ġg ust
Ġcraw ling
u es
Ġwonder s
Ġkeep er
a ved
O r
Ġres ult
Ġmitten s
Em ily
Ġcoll ecting
Ġe ff
Ġdog gy
Ġapolog ized
i bb
Ġmeas uring
ĠR abbit
Ġh i
ĠM e
Ġsne aked
Ġn icer
ĠR ay
Ġd ot
aff es
U n
J ake
Ġown ed
! '
Ġyell ing
Ġany time
ĠR achel
Ġresp ons
Ġmot ion
Ġgir affes
Ġpo king
Ġgain ed
. '
Ġgre y
Ġloo se
Ġsl im
Ġn apping
ig gy
Ġscoop ed
Ġfire men
Ġcudd led
H ave
Ġspace ship
Ġprep ared
ĠH appy
Ġpoem s
Ġo be
Ġa we
og o
Ġzoom ing
Ġdraw s
ĠAl ways
i en
O llie
Ġsi ren
Ġped als
Ġchirp ed
S omet
Ġwrit es
Ġcras hed
en a
ay s
Ġpo ssible
Ġsc aring
Ġhapp iest
Ġcont ain
Ġbo om
Ġfamil ies
ĠSt op
id ed
Ġwork er
ind y
Ġsecret s
Ġwe ighed
Ġtri cked
Ġpre c
Ġnap s
Ġcir cus
Ġstr uck
pp ers
ĠZ oe
el vet
Ġhorn s
Ġspark ling
Ġbrus hes
p ed
ĠH o
Ġbeh aved
Ġwant ing
Ġrecogn ized
Ġgrin ned
n ie
Ġobe y
ĠSlow ly
Ġeff ort
ĠJ oy
Ġno on
Ġw oof
Ġslim y
Ġkn elt
l ier
Ġt ugged
ĠC ar
Ġtall est
Ġgood night
Ġclap s
o h
Ġdecid es
ĠA m
Ġsweet ies
R emember
A h
Ġpr op
Ġdecor ated
Ġagre ement
u d
Ġour selves
ĠS qu
Ġs ides
ĠBe ep
Ġp ause
Ġre le
F irst
Ġzoo keeper
Ġrepe ated
Ġact ing
S p
Ġbloom ed
ĠL izzy
an ted
Ġprec ious
Ġhis sed
oy s
Ġsnowball s
Ġbr ushed
Ġhard ly
Ġpot s
Ġspend ing
Ġstay ing
Ġstri pes
Ġrock ing
T r
Ġpocket s
Ġopin ion
all ow
Ġro cked
Ġseem s
z en
riend s
Ġtrave led
Ġpaint ings
ĠSte ve
Ġbuzz ing
Ġbe lly
Ġb oo
ĠV elvet
Ġrem oved
Ġopen ing
ĠD avid
r s
Ġcomf y
om ing
Ġr ust
Ġfr ost
m other
Ġbalan cing
ur ry
Ġear lier
Ġgo als
Ġdec ision
om as
ĠM aggie
Ġkind ly
Ġg aze
R ex
Ġsurround ed
Ġsad ness
Ġpow ers
Ġfro zen
Ġthrill ed
Ġpol ished
Ġcuri osity
Ġcra cked
Ġstrugg ling
Ġpengu ins
Ġcomp le
l oe
ĠK eep
Y ummy
Ġwigg led
ĠL ike
Ġadmir ing
ed ding
Ġwire s
Ġspray ing
Ġgr anted
it ies
Ġcr umb
Ġbucket s
ĠS plash
w h
S usie
ĠL ou
D ucky
ĠAb igail
Ġex pected
Ġsaf er
Ġlo ving
ĠFr ank
ĠA unt
Ġfrost ing
Ġdrag ons
Ġpart ies
Ġd ipped
Ġrad ishes
Ġpet ted
is dom
Ġste ep
Ġneighb ors
Ġhon k
Ġe ight
Ġpour ing
Ġcomf orted
Ġwhat ever
Ġto ss
Ġru bbing
Ġdes er
Ġcat ches
Ġload ed
Ġapolog ize
Ġri p
Ġli ed
ĠBird ie
ĠCh r
Ġsaus ages
E x
u se
Ġro aring
Ġfa sc
Ġrele ased
Ġpe ppers
Ġpad d
Ġarg ued
i b
ĠG ogo
Ġsigh s
D uring
Ġchase s
u ke
Ġst are
Ġy esterday
Ġfold ing
Somet imes
Ġmatch ing
Ġbuild ings
R o
Ġroad s
Ġman e
Thank s
Ġgather ing
Ġst ing
Ġhug ging
Ġeag le
Ġcut s
Ġbe side
ĠW atch
ĠEvery day
Ġprot ected
Ġplanet s
ĠPipp a
Ġsun light
Ġquarrel ing
Ġdrag ged
Ġbe ard
ĠM illy
ĠW ater
Ġw edding
Ġkit es
Ġc aut
Ġribb ons
Ġpe ered
Ġcontin ue
ar th
Ġun ited
Ġplay room
Ġorgan izing
Ġcle aring
low ers
Ġt im
er n
an a
Ġteac hes
Ġspark les
Ġmach ines
Ġdemand ed
ĠRob by
John ny
Ġb aker
Ġcrab s
Ġsl ed
Ġflag s
Ġfasc in
Ġair pl
Wh iskers
Ġfl utter
Ġsplas hes
Ġdi ving
Ġan n
ĠE n
Ġstrugg led
Ġpastel s
Ġdisco very
Ġsmile y
Ġph ot
ĠO lly
am ie
ĠLe ave
Ġw id
Ġsit u
Ġar gu
Ġpretend s
Ġpol ishing
Ġmov ies
Ġcudd le
Ġargu ing
Ġact ually
Ġvill ag
ĠB ree
Ġm a
Ġcub es
um m
Ġpebb les
Ġshiver ed
Ġsh irts
F r
Ġspid ers
Ġcomp any
ĠR emember
Ġsat is
Ġhero es
ĠJ u
Ġfa ult
ĠZ ero
Ġ X
Ġwonder ing
Ġshr ug
ĠD are
ĠBoun cy
Ġsmall est
Ġr ings
ĠG reen
Ġcont ro
Ġchallen ge
as hed
U h
Ġref res
Ġpack ing
ĠK atie
Ġvillag ers
Ġtal ent
Ġfiref ight
Ġb ank
Ġrespons ible
se ek
Ġpencil s
Ġgot ten
aw s
Ġtowel s
Ġte ased
Ġremind er
Ġcre pt
Ġbed time
j am
A choo
Ġdust y
D ave
Ġbott les
d am
Ġvide os
Ġpur red
anna h
Ġfe ars
Ġcomple ted
joy ed
Ġstretch ing
Ġon wards
ĠJ e
s ses
Ġover joyed
Ġwas ted
Ġpat ience
L una
Ġprett iest
Ġl imes
Ġknight s
Ġreal ize
Ġdri ves
ĠJ ess
Ġmountain s
ind a
S illy
Ġso aring
Ġpe as
Ġwhere ver
Ġw ound
la ire
Ġwin s
Ġstick ing
ĠB eth
ĠB ecause
Ġheal ed
Ġbeg in
Ġweek s
Ġrep ly
ĠBe ing
ath y
Ġgrand mother
Ġdest ination
Ġbe ad
Ġuse s
Ġbowl s
ĠM at
Ġsc ales
D oggy
Ġdark er
in ing
Ġd ied
Ġprot ecting
ĠSt itch
ant a
ĠW isdom
ent y
T iny
he e
Ġvisit ing
Ġapplaud ed
Ġth ird
Ġshe lves
Ġagre es
Ġact ions
Ġac com
Ġtail s
Ġd am
ĠM oo
u zzy
ic orn
Ġper ched
âĢĿ .
c akes
Ġun icorn
Ġphot os
u bbed
Ġscr ubbed
Ġgun s
Ġd ent
Ġch ips
le y
ĠP ut
Ġwr ist
Ġsnake s
Ġlog s
uck ily
G eorge
Ġexam ined
.. .
Ġpump kins
Ġaccom pl
ĠP rin
ue st
Ġinstr uct
Ġhelmet s
Ġb unch
Ġaw ake
il o
Ġmask s
Ġex act
Ġcontro l
ic a
Ġpar ked
Ġcrumb s
Ġhe av
Ġal ien
Ġshould ers
Ġlearn s
Ġg uest
B unny
ĠBrown ie
Ġimpro ved
Ġbatter ies
W atch
Ġh itting
Ġchirp ing
n ers
ĠSp ring
Ġro ses
ir a
Ġscream ing
Ġblow s
ĠF ish
Ġgl itter
ĠBe hind
ĠC ra
at y
Ġwere n
Ġjo king
Ġlollipop s
Ġachie ve
M ar
Ġairpl ane
Ġwho se
Ġpro ject
Ġla p
g o
Ġfair ies
R ob
Ġrequest ed
Ġout do
St ay
Ġru le
Ġc ause
ir m
P oppy
F o
Ġval ued
ac ob
T ime
Ġcre ation
L ola
Ġitem s
Ġc ough
Ġse as
Ġpray er
Ġbalan ced
Ġinstruct ions
Ġforg i
ĠCat ty
Ġpupp et
Ġdolph ins
ĠF riends
ĠEn joy
Ġbra nd
Ben ny
Ġtask s
Ġpatient ly
Ġfill ing
Ġlisten s
Ġcop y
ĠA bby
Ġsight s
Ġpan s
jam as
Ġne ither
ĠBl ink
Ġstar ing
Ġrepl aced
Ġref use
Ġact iv
ĠHo ot
ĠH ippy
Ġst ern
Ġben eath
z es
Ġsw oop
Ġreach ing
ay la
M ike
Ġresc ued
ĠE arth
d ie
Ġprett ier
ĠB y
Ġpolice man
P ete
Ġv ent
ĠO ur
ang led
ĠS un
uct antly
B ad
Ġcurtain s
ĠB op
Ġsto le
Ġclose s
y ou
Ġrem ote
Ġcaut ious
Ġarri ve
Ġrub s
Ġpass ing
Ġfar ther
Ġcomplain ing
Ġ 1
Ġguy s
Ġbead s
Ġcan s
ĠA va
ke lly
Ġt une
Ġpract icing
g ers
d ies
Gra ndpa
Ġcheer ing
Ġteam work
M iss
Ġp out
b ie
ara way
Ġrainbow s
ĠS anta
z ie
Ġtim er
Ġse ven
Ġintrod uc
ĠD ee
Ġwob bled
Ġqu acked
Ġconf l
b l
Ġpat ted
ĠHow ever
Z oom
ĠD ot
o dy
n eath
Ġexact ly
ĠQu ick
Ġbloom ing
Ġa st
D ays
Ġremember ing
Ġprom ises
Ġfa ced
Ġf araway
ĠL ove
ast er
Ġobser ved
ĠB ye
Ġfascin ated
l ay
S ome
Ġsnee zing
Ġf irm
Ġbit ing
ĠJ an
es ome
Ġwin ked
Ġsuperhero es
Ġinclu ded
P aul
Ġroll s
Ġpast ries
Ġinv iting
Ġwind y
Ġhelp ers
G reat
Ġus ually
Ġmiss ion
Ġm es
ag ull
Ġgem s
Ġwork ers
Ġoutdo ors
Ġca used
Ġpa jamas
Ġconfl ict
Ġ Once
u ly
Ġsitu ation
Ġrocket s
Ġmis ses
Ġevery day
Ġdoctor s
Ġcand ies
O ops
Ġst umble
R un
e ah
Ġins ist
Ġdes p
l er
Ch irpy
Ġinsect s
Ġaw esome
ĠTh omas
ĠS orry
H enry
Ġste ady
Ġtable s
ĠSqu irrel
ĠCh loe
Ġneighbour hood
Ġgl asses
Ġun f
Ġrel uctantly
Ġdrum s
Ġstay s
Ġscar ves
Ġse agull
Ġpad dle
Ġload ing
Ġyour selves
Ġunt ie
Ġtr uly
ĠUn fortunately
Ġrecord ing
ĠG et
v in
Ġdot s
ĠO l
ugg les
s m
Ġso bbed
Ġbec oming
Ġus ual
Ġtr aded
Ġsurf ace
ĠS ure
Ġgrowl ing
Ġb are
ĠChe w
Ġro pes
Ġwarn ings
Ġth ro
ĠW ant
Ġde al
ĠH enny
ĠSt ay
ĠS ad
D og
Ġsol ut
Ġstar fish
Ġsnow men
Ġpoin ty
Ġcrow d
ĠS kelly
ĠJ illy
ist le
Ġclown s
Ġyou nger
Ġsatis fied
ĠSn uggles
ĠM ix
ĠDo do
c oon
A n
th ough
Ġsl am
Ġsal ty
Ġminer als
Ġhome work
Ġitch y
Ġdes ert
F ine
Ġconf ident
ink le
J ames
i ar
P olly
ĠF or
Ġbad ge
ĠPrin cess
udd les
T ina
Ġunder neath
Ġarrow s
ĠS w
Y eah
Ġcur ly
Ġch oo
Ġlibr arian
ĠK ids
Gra ce
Ġno ses
Ġcrack ers
ĠL ion
ĠD izzy
B uzz
Ġstart led
an es
T oby
.. ."
Ġpadd led
ĠRo ver
ĠM on
Ann ie
Ġthro at
Ġgigg ling
ar ter
E w
Ġ Yes
Ġjacket s
Ġd ar
ĠD uck
Ġwip es
Ġprince sses
Ġornament s
Ġkick s
P e
Ġtwir l
Ġsm arter
ĠM ouse
ĠJ ones
a a
Ġdi ved
Ġcover s
ĠTw o
Ġwander ing
Ġgear s
ĠW elcome
f it
Ġdeliver ed
ĠQu ack
O ur
Ġswoop ed
Ġdire ction
Ġrest ored
Ġknow led
ĠJe ff
Ġt angled
Ġknowled ge
av i
Sh h
Ġri pe
Ġv owed
H old
Ġfork s
Ġadd ing
Ġtra ctor
Ġcobweb s
ĠZ iggy
Th ose
Ġtrave ll
Ġprov ided
Ġpay ing
Ġth orn
Ġsquare s
Ġpig gy
ad os
Ro ar
Ġwear s
in t
D anny
us an
t uce
Ġcomplain ed
ĠP o
ĠJul ie
a is
Mr s
Ġsp ong
Ġout fit
ĠC uddles
Ġchoice s
Ġchef s
Ġb umpy
Ġslow er
Ġlead ing
Ġsupp lies
Ġhid er
ul ts
Ġvent ured
Ġseek er
Ġcreat ing
t le
Ġun p
Ġst em
e ed
Ġref le
Ġdecor ating
ĠAnn e
rr r
Ġlet tuce
ol ine
Ġread s
ĠP r
Ġw ow
Ġguess ing
Ġbuzz ed
Ġavoc ados
id o
cu se
ang ing
ĠGr umpy
T eddy
L isten
Ġhid es
Ġent ire
Ġcom m
Ġch uck
ĠJo sh
Ġwis hing
ĠA lly
Ġrain y
Ġmar ked
ct ar
Tr ue
Ġne ctar
Ġc ous
ĠS c
oph ia
k y
Un fortunately
Ġsque al
Ġsc ur
Ġrefres hed
Ġn ine
Ġtick led
Ġjo ked
ĠA nt
Ġyell s
Ġown ers
Ġv ines
Ġspe aking
Ġbeh aving
Tw eet
Ġtip to
Ġscur ried
Ġintroduc ed
Ġexplore rs
Ġspong e
ĠJ amie
ĠC athy
v room
ou ch
ĠSk ip
Ġr isk
Ġpray ing
Ġch at
ĠM ilo
ĠE l
c her
ĠFo xy
l en
b ric
Ġwait er
Ġfa bric
Ġdeser ve
How ever
Ġlo sing
Ġcl ick
ust ed
Ġsign ed
Ġfro ze
ss ss
Ġmagnet s
ĠP aws
Ġbare ly
ĠL uke
Ex cuse
?" ,
Ġp ec
Ġknock s
Ġdiscover ing
Ġbra very
ĠC laire
izz ie
s on
Ġdark ness
ĠD ara
Ġprop erly
Ġkne es
Ġtoast er
Ġgre et
Ġaccompl ish
am b
Ġtrick y
Ġperform ed
Ġcautious ly
Ġ Q
Ch arlie
Ġsing er
Ġjob s
Ġcompetit ion
Ġb ak
ep t
ĠL inda
or a
it ely
A lex
Ġwr itten
Ġav o
ell e
H arry
Ġlift ing
au ra
Ġthu d
Ġplay ers
Ġheav ier
Ġdent ist
Ġbur st
Ġpassport s
Ġnap kins
Ġmus cle
Jo ey
Ġscrew s
Ġimag es
Ġhow ever
Ġbuy ing
M aggie
Ġruin ing
Ġlean ing
Ġfl ames
o ke
h og
b ly
Ġsword s
Ġran ger
Ġmushroom s
ĠWh istle
ĠAs h
ĠSn ap
ue en
br ush
Ġrot ting
Ġex ha
r ance
Fo llow
Be ep
Ġfig ured
? '
S ophie
B ig
Ġsolut ion
Ġsil ent
Ġle ap
Ġc ent
Ġtire s
Ġrace s
Ġgra bbing
Ġdance s
Ġb acked
ĠR e
J erry
Ġst ain
Ġpart ic
Ġcow b
Ġsw ept
Ġlight er
bb ie
Ġsew ed
Ġdesign ed
Ġblock ing
Ġgrowl s
Ġflav or
Ġwrap s
Ġst ung
Ġrain co
Ġon ions
f l
Ġsuffer ing
Ġnecklace s
ĠJ essie
Ġsn at
Ġle ast
ĠTh ose
ĠL ena
Ġ Ġč
Ġpen s
Ġgrow s
Ġst ool
Ġre ason
ĠA dam
Ġsuit case
Ġsto len
Ġmatter s
Ġchuck led
Ġbo dies
ĠNot hing
W hee
Ġcudd ly
ver s
A b
Ġn ibb
Ġmeal s
ĠGood bye
Ġunp acked
Ġma iled
Ġwip ing
Ġbase ment
le e
Ġforget s
n o
igg ie
ag ic
Ġfore head
Ġf reed
ĠSu zie
ence s
Ġpan cakes
le phant
Ġtwir ling
Ġt apped
Ġhesit ated
ĠL isten
Ġcon n
Ġcolor ed
Ġplay house
Ġent rance
ĠJ acob
Ġscrat ches
se qu
it ches
Ġstom ped
ab el
Ġun s
Ġnest s
Ġcon sequ
Ġbar s
ĠMat t
i very
L illy
Ġexha usted
st ep
r ink
b and
Ġsweet s
Ġm er
Ġg ri
Ġfilm s
ĠRo llie
ater ial
Ġpartic ular
Ġm aterial
Ġfa ct
Ġann oy
ĠCo pper
Ġwor ries
Ġre pa
Ġbump s
ĠH old
Ġwra pping
Ġgen ie
Ġdire ct
Ġcomplet ely
ĠJen na
ĠG ina
are n
Ġneed les
Ġback ward
ĠT ree
Ġste er
Ġr otten
Ġhedge hog
Ġcheek s
Ġc ash
ĠT ry
Ġrelie f
Ġmin ts
Ġcount s
Ġbu dge
F or
Ġhand ful
id ing
Ġbak ery
ĠH annah
st y
ri ver
n ies
Ġtwink ling
Ġpl enty
Ġloop s
le ts
Ġfe ast
ĠQ ueen
Ġs ense
Ġpur r
Ġinterest ed
Ġfu zzy
Ġcamp ing
Ġac he
Ġtunnel s
Ġsc ra
we ed
Ġspread ing
Ġrepa ired
Ġdar ling
Ġcelebr ation
m as
it ched
Ġsea weed
Ġh us
ĠN ana
ig ning
S n
Ġsunf lowers
Ġr ising
Ġconsequ ences
K ate
Ġlung s
ĠW ink
Ġtriang les
ĠBet sy
ĠB all
Ġprin ting
Ġl ower
u de
bo at
Ġtalk s
Ġswims uit
Ġbeh avi
Ġactiv ities
ĠBug gy
ck y
Ġtw ice
ĠOl iver
ĠF ido
ile s
Ġsqueal ed
Ġpee king
Ġsepar ated
Ġhop s
ĠT ara
ĠChr ist
Ġmon th
Ġch anging
Ġbu ses
Ġast ron
ind r
P at
Ġsew ing
Ġra indr
Ġl amb
Ġforget ting
r ig
Ġbath s
ĠP up
Ġt y
Ġdel ivery
ĠJess ica
ĠC ara
er ate
Ġpath s
Ġfe ver
Ġc ott
ĠM ic
y es
o ssible
ais ies
Ġastron aut
Ġunt ied
Ġfire s
ĠM ad
am my
ĠE lephant
Ġtr amp
L uckily
Ġsnat ched
Ġpen nies
Ġshop s
Ġpec ked
Ġimp ossible
Ġhus band
Ġd aisies
n e
Ġslam med
ĠSnow man
ĠB iggie
Ġsqu ish
Ġshr inking
ĠW oof
bl ings
air y
T ake
Ġswan s
ll en
iver sity
Ġspike s
Ġsi blings
Ġbegin ning
Ġag e
Ġwake s
Ġreward ed
Ġnot es
Ġfeed ing
p en
Ġd en
ĠB irthday
rig ued
Ġp ins
Ġlift s
Ġgroup s
Ġcalm ed
ĠChrist mas
Ġfiref ly
ĠC indy
Ġč ĊĠč
Ġo pp
Ġlead s
Ġcountry side
Ġborrow ed
ter s
Ġpout ed
Ġhear ing
Ġa imed
ĠTw inkle
b ut
R u
ri ous
el ia
Ġtramp oline
Ġheal th
Ġevery body
Ġdro pping
Ġcl ues
c l
Ġrefle ction
Ġcold er
Ġbow s
Ġrust y
Ġstro ll
Ġdanc ers
Ġcre ations
an s
Ġtouc hes
Ġdirect ions
B ill
Ġdeterm ination
Ġcelebr ating
Ġcash ier
ĠTr ust
y ond
st ick
j o
iv ity
M illie
Ġthr own
Ġbe yond
ĠOn ly
Ġstro ked
Ġk ings
Ġdo d
ara c
Ġhon ked
Ġfl apping
Ġc ust
ĠR olly
ĠJ une
M ay
ĠY esterday
ĠK ayla
S andy
Ġtwink le
Ġmes mer
Ġinstr um
ĠS usan
ĠL aser
h o
c ope
Ġsk unk
Ġsh oo
Ġregret ted
Ġplan ning
Ġli qu
Ġbell s
ĠBl oom
S unny
Ġsp at
Ġcust om
ro sty
ret ch
B et
Ġm oo
Ġfrown ing
C o
Al ways
Ġpres ses
ĠN ina
us ing
R ose
Ġwob bly
Ġfin s
ĠR ain
ĠâĢ ĺ
Ġs way
Ġtwist ing
Ġch arac
a el
Ġwarm er
Ġsour ce
Ġobject s
Ġt ies
Ġguest s
Ġa ff
ark y
U nder
Ġgl ued
Ġbrace lets
ĠO ther
ĠMike y
Ġg ross
Ġfar t
Ġcreat ivity
Ġbl ocked
ive s
Ġch op
Ġad ult
Ġaccomplish ment
ĠWith out
ant ha
Ġwhisp ers
Ġpupp ies
Ġstore keeper
Ġslip s
Ġrac coon
ĠR ich
u ing
it ude
im mer
Ġy elp
Ġsuff ered
Ġdam age
Ġcous in
ĠM el
it i
ee se
Ġsa n
Ġhope ful
ĠB ones
P ipp
J ump
B ear
Ġzebra s
Ġstrong est
ĠF ire
ich ael
ch o
Ġtipto ed
Ġliqu id
ĠE ls
e al
at ur
Ġtw eet
Ġpo ster
Ġfart hest
Ġdoll house
ĠL izzie
u ess
Ġsp ins
Ġe arn
ĠJ on
ll e
itt ed
ie ce
Ġrain s
Ġlabel s
ĠJul ia
Ġsw ir
Ġsan k
ĠL aura
h i
ad es
Ġsto pping
Ġshap ed
Ġinclu ding
arm er
Ġstud ents
Ġstreet s
Ġrobot s
Ġrec ipe
Ġmagaz ines
ill ed
il ity
D an
Ġsail ors
ĠJ ump
c row
Ġvehic les
Ġsome body
Ġslow ed
Ġpl ain
Ġfit s
âĢ Ķ
d river
all owed
Qu ack
Ġsw allowed
Ġspark s
Ġimag ining
Ġflav ors
Ġvan illa
Ġsniff s
Ġrecommend ed
Ġincre ased
Ġgro cer
Ġencou rag
Ġd ie
ĠS ophia
ĠPe anut
Ġt iss
ob ody
O ut
M ine
Ġrainco at
Ġfirefight ers
end y
Ġg eese
ang le
M oo
Ġt ipped
Ġr umble
Ġkitten s
Ġend s
Ġe cho
ĠTweet ie
ĠCh irp
y an
on ies
Ġdoll ars
im on
Ġch ip
i am
Ġdis ob
ĠBe aky
V room
Ġsurf board
Ġscrew driver
Ġavo id
ĠS leep
ĠRob ert
ĠF uzzy
ĠF rosty
e ve
Ġsing le
Ġhoop s
Ġcream y
Ġwid ened
Ġwater ing
Ġtree house
Ġdeliver ing
Ġc oop
ĠW oo
ĠRu dy
p rin
Ġun w
Ġtremb led
Ġtalent ed
Ġspell s
Ġscare crow
Ġm aker
ĠSt ella
Ġart ist
ĠSo f
Ġwe e
Ġro ars
Ġhall way
Ġwill ing
Ġsnow fl
Ġpass en
Ġm ate
Ġlay ing
Ġcurious ly
Ġangel s
ĠU p
Ġwa king
Ġachie ved
ig ers
Ġwe pt
Ġt ying
Ġsa le
Ġforgi ving
ĠEm my
Ġpop s
ĠP am
umm ies
Z ip
Ġy um
Ġraindr ops
Ġprep aring
Ġa is
ĠSp irit
Ġsque ak
Ġsend ing
Ġpr ove
Ġover come
N ina
Ġz ipping
Ġp onies
Ġg lee
Ġe v
ĠSpark y
ĠM ira
aw n
Ġp uff
Ġcolour ed
Ġt ummies
Ġmer ma
Ġbr u
ĠT ake
w k
Ġwob ble
Ġfirefight er
Ġdriver s
t he
oun ce
on i
Fr ank
Ġknot s
Ġgrocer ies
Ġgri p
Ġsail boat
Ġmagic ian
ĠT ia
Ġtight er
Ġsecond s
Ġrob ber
Ġhead ing
Ġbur row
ĠCra b
Mar ia
Ġsupp orted
Ġstand s
Ġsc ored
Ġint rigued
ibb it
Ġuns ure
Ġr ather
Ġc oup
ĠP lay
ight ing
Qu ick
Ġsurpr ising
Ġseas ons
Ġbel ts
ĠMiss y
u ppy
Ġtiss ue
Ġsp ed
Ġcorn ers
Ġbe am
Ġas ide
ĠT iti
V ery
Ġmark ers
Ġmark er
Ġcush ions
ĠM oon
Ġque ens
Ġple asure
Ġplan s
Ġoy sters
Ġhot ter
Ġhor iz
Ġafter wards
P ut
M illy
Ġsuit s
Ġpour s
Ġhoriz on
Ġd et
th a
ing o
ert ain
Ġsymbol s
Ġswe at
Ġhaircut s
Ġband ages
Ġa ud
Ġshovel s
Ġfl ipped
Ġd ip
Ġ 2
ild a
Ġtoss ed
Ġind eed
umb ling
a ven
Ġso fter
Ġpedal ed
Ġdraw n
ĠUn iversity
ile y
g gy
E llie
Ġlend ing
Ġblin king
it a
B aby
ĠMar tha
und red
Cl ara
Ġyield ed
Ġsec ure
Ġha wk
ĠL arry
o ey
c ited
D olly
Ġperform ing
Ġbulb s
ĠTo ot
Ġc or
ĠS l
pec ting
dd ie
Ġslipp ing
Ġsh own
Ġback wards
ĠK ip
ĠA ng
L ike
Ġslice s
Ġpupil s
Ġmind ed
Ġfamil iar
Ġdisturb ing
ĠI zzy
ion a
e en
Ġsquish y
Ġh our
Ġcross ing
ĠT ess
Sp ike
G et
Ġfigure s
us hing
ad ing
B ang
Ġignor ing
Ġgrace fully
Ġfirm ly
Ġcoup le
ĠChr is
L ulu
Ġsquee zing
Ġpe ck
Ġencourag ing
Ġam ong
Ġev il
Ġdesign s
ed s
K im
Ġwis ely
Ġswe ep
Ġshark s
Ġresp ond
Ġpay s
Ġdraw ers
ĠRob o
ĠF armer
u el
C ar
A m
Ġsheet s
Ġc rew
Ġaud ience
ĠW ell
č Ċ
K atie
Ġpige ons
Ġneighb ours
Ġexp ress
Ġel bow
G uess
Ġtub es
Ġperform ance
Ġm erry
Ġh undred
Ġar r
Ġfrown s
or ing
S u
Al right
Ġrever sed
Ġpaint brush
Ġjar s
Ġclean er
Ġbit s
ĠZ ee
ĠA bbie
Ġfl ip
Ġbee h
ĠJack y
Ġ icing
ab ly
Ġmerma id
Ġcent er
be ep
- -
Ġfill s
ĠE x
ĠB ally
is c
Ġenthusia sm
Ġt igers
Ġgigg les
Ġflutter ed
Ġexpl o
Ġbat hing
ĠSt retch
r at
he w
am boo
al ph
Ġriver s
ĠZ ipper
S ad
B essie
Ġt il
Ġs ill
ĠAl ong
urt les
Fred dy
Ġn apped
Ġhesit ant
ĠP atch
Ġnervous ly
Ġd aring
ĠF ighting
os en
Bet ty
Ġwr ink
Ġsprink led
Ġch osen
ĠW illy
ment s
es p
ch ild
Ġgrass y
ĠJ ay
Ġbl own
Ġbeeh ive
Ġtravell ed
Ġt urtles
Ġspr ang
Ġn uzz
ĠN ear
K eep
J azz
Ġsport s
Ġli es
ĠT urtle
ust y
c ake
Ru by
Ġto dd
Ġsweet est
Ġd ump
Ġbel oved
ent ly
bb led
ĠW o
f all
Ġres pected
Ġnightmare s
Ġmaterial s
Ġencourage ment
ver ed
f orm
Ġscatter ing
ĠSad ly
D ear
Ġstro ke
Ġpan icked
Ġfle as
Ġan ger
Ġterri fied
Ġswim mer
Ġsp ice
Ġla ce
Ġcam el
Ġare n
dd ing
arl ings
Ġst itches
Ġd arlings
Ġcloud y
ĠSpark le
rat ul
ong ratul
c used
Ġtest ed
Ġremind s
Ġfl as
Ġcell s
rom ise
f ly
After wards
Ġsurround ings
Ġde f
ĠLou ise
Z oomy
? !"
Ġsand y
Ġman ners
Ġgrand child
ĠB arky
u rious
iv i
Ġsp ies
Ġlip stick
Ġbicy cles
Ġb ully
ĠH olly
b age
Un cle
Ġlick ing
Ġgarden er
ĠR yan
ra c
Bird y
Ġstor ed
Ġspeed ing
Ġam ount
ĠZ oey
step s
S pe
R ibbit
P enny
!âĢĿ .
Ġspit s
Ġgreet ed
Ġdiscuss ed
Ġaeropl anes
Ġsail s
Ġmix ture
Ġfoot steps
ĠG ary
ĠDo ctor
nt il
ke nd
Ġwee kend
p arent
Ġspoon ful
Ġso aking
Ġship s
Ġrepe ating
Ġcras hing
Ġbreat hed
er m
B inky
Ġpuzz led
ĠThank s
on na
immer ing
Ġpol itely
Ġlong est
ĠSh ow
esp ite
T ony
Ġunderstand s
Ġthought s
Ġsh ady
Ġn ur
Ġlo ses
ĠR on
ĠN obody
Ġte aring
Ġdelay ed
ĠZ ippy
ĠN ick
wh ile
oun ced
ce pt
' ."
Ġdon key
ast y
E ven
Ġsniff ing
Ġpost man
Ġgrand parent
ĠJu dge
ab by
J ul
Be hind
Ġsol ving
Ġmesmer ized
Ġbra ver
Ġb amboo
Ġflo ats
Ġtemp er
Ġm iles
Ġfo cused
Ġbury ing
B ow
Ġspill s
Ġpurp ose
Ġjoin ing
ĠO kay
Ġthorn s
Ġse als
Ġre ass
Ġpinch ing
Ġno dding
Ġforgi ven
D avid
Ġwor n
Ġquiet er
Ġkn ives
ĠP h
ĠP en
ar row
B oys
Ġwa dd
Ġsnee zes
Ġg est
Pipp in
Ġwigg ly
Ġunw ra
Ġr ushing
Ġlesson s
Ġhang ers
Ġgu ide
Ġfor ce
Ġch anges
Ġc oug
a e
Le ave
Ġworry ing
Ġcharac ters
og a
Ġg onna
Ġdisob ey
z oom
O pen
Ġsl ither
Ġquarrel ed
Ġfl ight
ĠE ddie
b ird
Ġbasket s
Ġr amp
Ġne are
Ġcl ue
ĠTo dd
Ġlangu ages
Ġexplore r
ĠV ivi
Ġ1 0
re ct
ous y
Ġst acked
Ġpeace fully
Ġmind s
op es
P andy
Good night
Ġteam s
Ġhand ing
ĠIs n
ĠAb i
om p
B ee
Ġsm ashed
Ġl ent
Ġhe ight
Ġbur nt
Ġban ged
ĠW in
ĠS imon
year s
B ack
Ġwas ting
Ġpunish ment
Ġm ast
Ġfreed om
ĠN ice
re y
f reeze
an while
Wh ich
C arl
Ġwound s
In stead
Ġdress ing
ĠMix y
ĠK it
ĠK aren
ĠA na
an ie
Ġs y
Ġheal ing
Ġfo cus
Ġdri fted
Ġcor rect
Ġcolor ing
Ġhis s
Ġexplain s
Ġdri pping
Ġdam aged
ĠR ia
is ions
K iki
Ġsurf ing
Ġcover ing
Ġben ches
ĠD ina
ood les
ib i
H urry
Ġres isted
Ġremind ing
Ġpol ar
Ġpeel ed
Ġcowb oy
ĠEl iz
prin ts
c a
B uzzy
Ġsn uck
Ġscra ped
Ġscare s
Ġm aster
Ġjo ins
Ġe ase
Ġad ults
ĠSh adow
ĠMar ie
c c
T ry
Ġsc ient
Ġp ound
ĠM int
Ġ ouch
Ġsc en
Ġg erm
Ġdream t
r up
Ġtow ard
Ġsnowfl akes
Ġgaz ing
Ġbehavi or
ĠJo jo
d a
B y
Ġsw itched
Ġscoot ers
Ġneat ly
Ġmate y
Ġch arge
Ġbl ast
ĠAng el
l ine
K ids
Ġscient ist
Ġe lf
atter ed
ain t
ab elle
L iz
Ġtodd ler
Ġplant ing
Ġperm itted
Ġdisplay ed
Ġcare s
ĠU ntil
W ake
Ġla pt
Ġinstrum ents
ĠR oo
ĠH ug
Ġt uck
Ġprop er
Ġleap t
Ġfa iled
Ġb itten
ĠPo or
ĠN ut
ĠF airy
ĠC ow
isc uit
bb ers
Ġrelax ing
Ġm ood
Ġcra cks
ĠSam antha
sh m
shm allow
Z ara
S low
M at
Ġswe aty
Ġdress er
Ġdec isions
Ġcoll ap
ĠV room
ĠHer b
ig hing
Ġsc amp
Ġhuman s
Ġfl own
Ġf aded
Ġeffort s
Ġecho ed
Ġais le
ĠW ise
Ġu nd
Ġtreat ed
Ġstern ly
Ġo cc
Ġlapt op
Ġbother ing
e vin
Ġresc uing
Ġrat s
Ġcrown s
Ġche ers
Ġbackpack s
ĠR azor
ĠGr anny
ĠF iona
ĠAl i
om b
ip es
Ġtast ing
Ġmel ons
Ġbeep ed
ĠR uff
Ġsell er
Ġro bbers
Ġpot ion
Ġple aded
Ġaccident s
ĠR ita
ri er
ott e
Ab igail
Ġprob ably
Ġmonth s
un ched
or ter
it ion
f ound
Tw o
Ġthrough out
Ġrisk s
Ġman ag
Ġbird house
Ġapolog ised
ĠL uckily
ĠL ia
ĠBl inky
uff in
og er
Some one
L ena
Ġy umm
Ġstom p
Ġhands ome
Ġde ars
ĠM ichael
ĠChe ss
Ġ 5
re st
Ġtwink led
Ġtil ted
Ġres ults
Ġeng ines
ĠTim e
Ġtrust ing
Ġtemper ature
Ġspr out
Ġsing ers
Ġopin ions
Ġdes igning
ĠPr ince
ĠM ousy
el ie
and as
T oo
R ock
Fin n
Ġstamp ed
Ġsnap s
Ġn asty
Ġin sp
Ġact ion
ĠW endy
ĠMay a
ĠM ake
w ise
or king
Ġzoom s
Ġpl ucked
Ġcrawl s
Ġbelie ving
ĠL oop
ĠFl utter
ĠA r
m ates
eth os
en ing
arl otte
T ed
Ġtest ing
Ġst ethos
Ġm unch
Ġdoor way
Ġant ic
ĠEvery body
o llen
ec ca
T illy
A dam
Ġwid er
Ġsw ollen
Ġshin es
Ġscold s
Ġenc ount
ĠS ay
M agic
A unt
Ġtr ot
Ġsweat ers
Ġh oo
Ġdrive way
Ġdesp ite
Ġcream s
Ġannoy ed
ĠJo lly
ĠJack ie
ĠChew y
u nder
Sn ow
Ġtal ents
Ġsmell ing
Ġha ird
Ġfoot prints
Ġbrus hing
R ed
Ġstethos cope
Ġplay d
Ġgo bbled
Ġdestro ying
oo sh
P ip
Ġwh imp
Ġsw ap
Ġpray ers
Ġgar bage
Ġbrave st
Ġback s
un ity
atur day
Sh rink
P lay
Ġsp y
Ġs ens
Ġp uck
Ġmar shmallow
Ġflap s
Ġenvel opes
Spe edy
Ġyelp ed
Ġwr igg
Ġwhist les
Ġpill s
Ġmosquito es
Ġcar ries
pp ies
Ġrust ling
Ġpassen gers
Ġnewsp apers
Ġn oodles
Ġgest ure
Ġbother ed
Ġbell ies
Ġatt ack
ĠW ait
ĠSt an
t ock
ssss ssss
b ell
H oppy
Ġteacher s
Ġrow s
Ġpl ug
Ġduck ling
Ġaw are
ĠS aturday
Ġse ver
Ġon ward
Ġmagn if
Ġconn ected
ĠT ri
D r
Ġwar ri
Ġuniform s
Ġsque aked
Ġsever al
Ġnew found
Ġgrandparent s
Ġc ertain
Ġastronaut s
ĠR icky
ĠE lle
r ily
m ies
f ire
ac y
St eve
Ġwater fall
Ġg oo
Ġfl ips
Ġed ges
ĠY et
ĠL enny
ĠB ibi
R achel
Ġpur rs
Ġfloor s
ĠFish y
r ons
ear s
J amie
Ġtap ed
Ġsimp ly
Ġfin ishing
Ġal though
ĠM abel
ur render
H annah
Ġord ers
Ġin ches
Ġantic ip
ĠSpe ed
ĠSh are
ĠFl o
ri an
Ġspray s
Ġmug s
Ġap rons
ĠAm elia
Ġyaw ning
Ġsa cks
Ġcra ft
Ġbreat hing
ĠL uc
ĠI m
art led
Th omas
O live
Ġtool box
Ġste pping
Ġser ving
Ġin j
Ġgoat s
Ġfox es
Ġca using
ĠY oga
ĠT aking
v ant
.' "
Ġdemand ing
Ġbuck led
ĠP uppy
ĠN avy
Ġwith in
Ġp andas
Ġk illed
Ġfriendship s
Ġdiscuss ing
Ġb omb
ĠRe ady
ĠN e
wh at
ul p
l ied
N ice
Co co
Ġwin ners
Ġnear ly
Ġjoy ful
Ġgerm s
Ġex cept
Ġunpack ing
Ġgl itt
Ġcl icked
Ġbus iness
ĠG ir
Ġstat ues
Ġsqu ir
Ġsh orter
Ġr ays
Ġmind ing
Ġmeow s
Ġknock ing
Ġer ase
Ġdoor bell
Ġcon s
Ġadd ress
ri e
R ay
E lly
Ġtw enty
Ġshin ier
Ġscamp ered
Ġsandcast les
Ġforgive s
Ġde ed
Ġclos ing
ĠB ad
ig ger
by es
ail s
Ch loe
Ġra ising
Ġpri ck
