Ġ t
Ġ a
h e
i n
r e
Ġt he
o n
e r
Ġ s
Ġ w
a t
Ġ o
e n
Ġ c
i t
i s
a n
o r
Ġ b
e s
e d
Ġ f
in g
Ġ p
o u
Ġa n
a l
Ġt o
a r
Ġ m
Ġ in
Ġo f
Ġ d
Ġ h
č Ċ
čĊ č
â Ģ
a s
i c
Ġan d
Ġt h
l e
o m
i on
l l
en t
Ġ n
Ġ l
Ġ re
s t
v e
l y
Ġ e
r o
Ġb e
Ġ g
i d
u t
a c
o t
Ġ T
Ġ I
Ġth at
Ġ on
a y
Ġ S
Ġ is
e t
i m
a m
a d
o w
s e
i g
Ġf or
âĢ Ļ
Ġ A
v er
u r
c t
l d
Ġ C
Ġ u
Ġs t
Ġ y
Ġ it
Ġ he
i r
at ion
it h
Ġw h
Ġ M
c e
t er
o l
Ġw e
i l
Ġw ith
Ġa s
Ġ B
c h
i ll
n d
Ġ P
Ġw as
er s
Ġy ou
k e
Ġ âĢ
Ġc on
Ġd e
Ġ r
i f
he r
at e
a g
Ġa t
Ġh a
Ġ W
Ġs e
Ġ H
o re
Ġp ro
u l
p p
m ent
r i
Ġa re
Ġ D
Ġ 1
u s
es t
is t
Ġc om
an d
Ġ R
o p
a in
ĠT he
Ġ 2
ig h
r om
Ġ (
or t
o d
Ġn e
Ġ F
u m
u n
Ġe x
re s
a b
âĢ Ŀ
Ġn ot
Ġ N
Ġ v
es s
Ġha ve
it y
e m
ou ld
Ġo r
t h
Ġb y
o s
an t
Ġ G
i ve
Ġf rom
Ġa l
e l
' s
o c
ar t
Ġs u
Ġ L
Ġs h
Ġth is
n t
q u
igh t
p e
u st
Ġ le
i es
Ġ E
en d
Ġc h
Ġs a
ou t
Ġa b
T he
al l
i e
ac k
0 0
re d
ĠâĢ ľ
Ġh as
al ly
Ġ J
Ġp l
Ġg o
ar d
i v
Ġh is
om e
a p
o st
g h
e ar
Ġ O
ou r
Ġt r
as t
Ġ j
a k
u d
Ġd o
Ġthe y
Ġb ut
Ġw or
r ou
Ġc an
g e
Ġw ill
Ġsa id
Ġw he
Ġ U
Ġ k
ic h
Ġa ll
o k
Ġ "
id e
Ġwh o
Ġin t
am e
an s
t her
i al
Ġo ut
f f
Ġthe ir
on g
e ct
ic e
p l
u re
p t
on e
Ġm ore
ag e
ion s
ac t
i ke
Ġm e
Ġu p
ou s
in e
Ġa d
Ġab out
at ed
r a
b er
Ġon e
Ġwe re
Ġs o
Ġu s
o g
im e
Ġ K
e p
i a
a re
Ġh ad
u b
c c
Ġw ould
Ġc l
Ġ2 0
Ġ im
in d
Ġwh ich
u e
a ke
Ġcon t
i z
ver y
Ġa g
Ġt e
Ġof f
Ġcom p
Ġu n
Ġbe en
ĠS t
s o
Ġ en
p er
ig n
a u
ĠT h
ar y
ac e
Ġy ear
i p
e w
Ġl ike
e re
v en
o ok
Ġin c
ay s
Ġm an
Ġp e
r y
o se
Ġre s
Ġp er
it e
ab le
as s
or d
Ġs p
i re
ĠI n
Ġo ther
m er
Ġs ome
i le
i b
en ce
op le
Ġ20 1
k s
ation s
ic al
Ġo ver
Ġthe re
res s
Ġd is
ul t
in t
Ġne w
ow n
Ġal so
Ġth an
Ġa r
Ġbe c
an ce
r u
Ġthe m
ou nt
ou gh
p ort
Ġa pp
a il
Ġp art
Ġyou r
Ġwhe n
re e
Ġwh at
or m
on d
Ġpe ople
f ter
Ġs c
ĠC h
Ġ qu
a v
as e
Ġan y
Ġj ust
Ġit s
Ġ Y
ac h
Ġt ime
ĠI t
Ġk n
Ġhe r
Ġ 3
l ic
en s
Ġre c
re at
Ġm y
Ġg et
Ġ if
Ġ V
i an
. âĢĿ
Ġint o
ou nd
Ġwor k
ir st
Ġt w
ve l
ct ion
Ġn o
d u
ing s
or y
ic k
or s
id ent
Ġo ur
it ion
Ġ -
o b
Ġp re
o ve
Ġpl ay
an g
in k
au se
w n
t e
am p
ad e
h ing
at es
ar k
Ġ ro
Ġs he
Ġp ol
ver s
Ġc o
, âĢĿ
Ġa fter
n e
Ġf irst
Ġc ould
ĠH e
Ġh ow
Ġ1 9
i ous
nd er
Ġa cc
i ld
a w
Ġh im
' t
on s
Ġp o
Ġon ly
Ġf e
Ġat t
ic t
he d
Ġp r
o v
Ġtw o
r it
is h
Ġcom m
f orm
Ġs pe
âĢ ľ
Ġa ct
er v
w e
f t
Ġb l
Ġbe t
Ġde c
. "
n ing
Ġb ack
Ġm ost
c es
o od
c k
ĠâĢ ĵ
o y
Ġa m
Ġd id
if f
rou gh
rou nd
at er
Ġag ain
Ġ 4
u al
d ay
is e
Ġu nder
Ġw ant
Ġd es
u ll
se l
Ġcon s
ĠâĢ Ķ
Ġbec ause
l ud
Ġn ow
ent s
Ġyear s
m an
. .
ub lic
e c
ter n
Ġne ed
Ġe ven
Ġ $
is s
Ġin v
Ġkn ow
ĠW e
Ġse e
ment s
Ġad d
c ed
, "
t ing
o ld
Ġin d
Ġse c
f ore
u ch
Ġe very
ur n
Ġ 5
Ġsu pp
Ġm ake
pe ct
ĠU n
Ġe m
oc k
Ġthe se
o ll
Ġwhe re
j ect
I n
ver n
ation al
x t
Ġb u
Ġl ook
T h
ĠA nd
os s
Ġd on
um p
Ġe v
at ing
Ġw ay
Ġbe ing
Ġre m
Ġr ight
i ly
Ġm ay
n g
ie w
ro w
Ġthe n
le ct
Ġman y
Ġ [
Ġd iff
Ġde f
as on
Ġc all
Ġre l
ĠT r
ĠB ut
on t
i ed
as ed
l es
Ġinc lud
Ġth ink
ak ing
) .
Ġre g
mer ic
Ġim p
Ġth rough
ri b
at h
it ed
Ġs y
Ġp res
Ġsh ould
Ġs ay
e ll
ur ing
Ġf l
ow er
Ġl ast
Ġth ose
Ġ very
ot her
t y
Ġm uch
if ic
it ies
Ġst ate
ĠTh is
Ġsh ow
at ive
he n
s s
t le
Ġb r
ar g
Ġwe ll
ot h
ĠW h
Ġp h
Ġc ount
u nd
al s
Ġ2 00
Ġdo es
Ġd own
ar ly
Ġ end
Ġo wn
Ġas s
ic s
Ġbe l
Ġu se
an ge
t s
- -
ĠA meric
Ġl ong
ter s
in ce
Ġbe fore
g r
om et
Ġm on
Ġgo vern
w ard
Ġre port
Ġst art
u p
ib le
Ġ ke
u es
ĠN ew
Ġf in
Ġte am
b le
if e
Ġm ade
ol og
) ,
en er
c om
Ġsu ch
re n
ou n
ers on
e k
i x
il ity
Ġs m
l p
âĢ Ķ
Ġgo ing
f ul
is m
Ġwor ld
u ally
Ġst ud
ist s
Ġgo od
Ġa c
t ain
I t
Ġsu b
Ġe ff
Ġs ur
Ġagain st
it s
Ġs et
or k
Ġg ame
Ġ 6
Ġg u
Ġpo int
Ġ ent
y s
00 0
ar s
g an
l i
st em
Ġpro v
Ġst ill
rou p
ill ion
Ġwh ile
Ġhe lp
Ġle ad
we en
Ġm in
e f
a x
al k
an k
im es
Ġs ays
Ġo b
m s
c y
Ġpro du
Ġin ter
Ġg r
Ġst r
Ġin st
c ess
Ġs im
sel f
Ġcon f
i o
Ġc ol
Ġt ake
u res
ar ch
Ġs ame
Ġth ough
Ġbet ween
oll ow
Ġoff ic
e ver
Ġdiff ere
Ġc r
us s
o ol
ut ion
Ġdis c
l and
a ir
Ġo p
Ġ ed
a h
Ġh igh
Ġl aw
re ad
Ġs ign
Ġn um
w ay
Ġgovern ment
ĠR e
l ed
g g
h ip
n er
at ch
am es
he s
an y
c ent
Ġt er
Ġs omet
vel op
t ed
Ġre f
Ġtr ans
W e
t en
Ġin s
Ġs er
Ġr un
Ġf ound
iv es
Ġth ree
a ve
Ġm em
Ġa round
Ġhe re
at her
Ġm ed
Ġre al
Ġus ed
ou se
Ġ1 0
v ed
Ġex p
a z
ĠA r
ce pt
o ot
Ġsy stem
ĠY ou
c i
Ġre ally
Ġm od
v ing
c on
c er
Ġg roup
Ġsupp ort
Ġ 7
Ġc our
et s
al e
in s
Ġre t
Ġh and
Ġp ublic
p r
Ġspe c
ĠL e
y ing
Ġg reat
Ġc ar
. [
en se
Ġex t
t on
ire ct
Ġc ur
Ġf am
al th
ĠC om
Ġha pp
ĠTr ump
Ġf act
Ġex per
p h
Ġw om
ĠThe y
Ġf r
ĠI s
Ġc ap
Ġb oth
Ġd ay
Ġf ind
ĠA l
Ġre ad
in es
ul ar
Ġd et
ic es
Ġl it
Ġs l
o h
Ġre p
ut h
ĠS h
Ġd uring
e red
ĠA s
Ġs erv
t he
m in
Ġmon th
is ion
Ġb ig
Ġc re
Ġde velop
Ġ 0
Ġ 8
Ġp erson
Ġf ollow
ak es
ĠC l
Ġis s
Ġto ld
e x
Ġs ince
a red
m ed
ic ally
Ġwe ek
ag es
i vers
Ġw ar
Ġf ew
ord ing
ort h
Ġc ent
a j
Ġle g
g et
Ġpol it
v es
as h
Ġex pl
Ġl ot
Ġbel ie
r ic
Ġg ener
ĠS e
Ġto o
Ġ 9
re nt
d er
at a
Ġo pp
W h
Ġre qu
Ġcont in
Ġpro t
i et
b ers
an c
Ġf il
ent ion
n ess
2 0
Ġc le
Ġres p
Ġp ut
iz ed
ĠI f
Ġan other
Ġin f
ch ool
Ġsomet hing
ĠD e
Ġdiffere nt
Ġc or
Ġl oc
ut e
Ġinv est
Ġp ower
Ġs oc
Ġc he
u c
Ġ '
ĠF r
Ġcomm un
Ġp ass
Ġl ife
od y
Ġpl an
Ġre le
Ġhe ad
i ence
Ġth ings
Ġar t
n ed
Ġf ar
Ġp oss
o x
th ing
Ġm et
ere st
Ġc amp
ro ss
Ġv ot
ar ge
i er
Th is
v iew
Ġch ild
Ġas k
ant s
Ġm ight
iz e
Ġ .
in ess
Ġe ach
Ġde p
Ġne ver
Ġne xt
t t
i k
Ġqu est
Ġm ark
ie ld
Ġb us
Ġsec ond
Ġad v
Ġde m
ĠA n
Ġcom e
ĠF or
Ġg ot
ĠâĢ ĺ
Ġb est
Ġop en
i ent
it al
Ġall ow
ĠTh at
r at
Ġse em
p le
Ġp ost
n ce
Ġfe el
ĠP ro
ĠU S
Ġp ri
gr am
Ġper cent
u g
c l
Ġh ome
Ġd irect
Ġd ist
i red
Ġinc re
Ġcont ro
ĠR ep
s on
l ess
or n
os ed
Ġres ult
Ġh ard
Ġc are
Ġm illion
ate ly
ch n
Ġcomp le
Ġwith out
Ġin form
Ġpl ace
Ġim port
Ġinclud ing
Ġa v
con om
Ġh um
Ġ ide
Ġpro ble
Ġbu ild
Ġto p
am a
Ġcount ry
Ġnum ber
one y
a im
g y
ĠB l
re t
r al
ab ly
u ro
Ġe l
Ġst and
is hed
ri end
Ġg l
Ġf our
Ġpart ic
w ays
Ġbet ter
c o
Ġt ri
Ġrec ent
B ut
Ġm ov
Ġint erest
Ġle t
r ation
e ad
Ġl ess
Ġt urn
Ġse ason
Ġm il
Ġbe h
Ġlit tle
l ine
r act
Ġapp ro
l ing
Ġb ro
1 0
is ed
Ġcall ed
a pp
Ġc ase
Ġd r
ĠI nd
Ġle ft
Ġre st
Ġan n
Ġ Z
Ġp op
Ġatt ack
od e
en cy
Ġm ove
in a
_ _
ĠThe re
Ġke ep
Ġf ull
er ing
Ġdid n
b e
Ġm ain
aj or
Ġf un
in al
Ġeff ect
le g
m e
Ġpro gram
Ġpre v
Ġus ing
Ġt est
Ġp ay
at ure
Ġe ar
t o
Ġv al
Ġpol ice
Ġw rit
Ġfor m
Ġe conom
Ġnew s
Ġd ata
Ġp os
Ġw in
Ġle vel
ĠAmeric an
Ġs it
Ġch ar
ain s
iv ing
u ck
in ed
read y
Ġsm all
H e
Ġs chool
Ġl ist
olog y
r ap
m it
id ed
pl oy
g er
' re
Ġpro cess
Ġe as
ir d
Ġch ange
Ġwom en
Ġcur rent
Ġre ce
Ġp rom
i ans
Ġpres ident
Ġh ist
Ġd ri
re en
Ġcomp any
Ġ =
ĠS o
us ed
Ġm at
ru ct
Ġal ready
oh n
ĠUn ited
Ġt y
Ġwh y
w it
Ġu nt
Ġm oney
Ġb re
Ġex pect
Ġbus iness
Ġal ways
ĠH ow
Ġs ol
Ġoffic ial
Ġl ater
Ġte chn
r on
ĠO b
st and
Ġ Q
Ġb o
Ġb ook
ivers ity
ĠP h
a ign
Ġth ing
Ġcl ass
as es
Ġcl aim
Ġj ob
Ġpro ject
Ġinform ation
Ġor gan
ĠS he
a ff
ard s
Ġt alk
Ġdes ign
ĠB e
Ġst ory
Ġm ajor
Ġ- -
Ġch ang
le ction
Ġab le
Ġpro f
iv en
Ġhe alth
.. .
er tain
Ġre se
Ġv is
ĠA d
ur s
Ġp ast
Ġf ree
ou th
he re
Ġo per
pt ion
Ġa way
i or
ĠC an
Ġm ust
Ġc ity
amp le
ur al
Ġ1 8
r ist
s c
Ġhapp en
ur ity
uth or
Ġimport ant
Ġk ill
ac y
Ġ est
Ġs k
u red
Ġo ld
Ġp at
ur y
end ing
Ġdoes n
Ġle ast
iss ion
Ġg row
S t
Ġed it
Ġv ar
Ġc ost
ne y
ain ed
ĠG o
id er
id es
Ġd ays
Ġst re
Ġte ll
el s
Ġh op
Ġcamp aign
s ide
Ġm en
Ġ1 2
Ġa ff
Ġc ame
res ident
Ġcon st
Ġv iew
Ġen ough
cc ess
Ġk ind
ĠM ar
ĠS p
er n
Ġm aking
o ad
5 0
Ġl arge
Ġrec ord
âĢ ¦
us h
Ġm ar
Ġf riend
Ġfam ily
Ġe lect
le y
er al
Ġpol ic
Ġt ax
is ing
pp ed
b y
al ity
if ied
at or
iv ed
A s
r or
are nt
Ġv ide
Ġpolit ical
Ġunt il
Ġde al
ion al
e e
al f
Ġ ve
ĠRep ublic
ri es
au gh
Ġwork ing
u ed
Ġde b
b s
Ġto ok
Ġl ine
I f
is ter
ĠJ ohn
Ġ es
ain ing
i ol
Ġin tern
oc rat
Ġf ore
Ġa ir
-- --
Ġact ually
Ġbec ome
an e
w ork
on y
ap s
w are
ĠS c
Ġme an
Ġf und
1 9
em ber
Ġfor mer
Ġof ten
ĠP l
ot t
ĠE uro
an n
o int
Ġw on
Ġg ive
Ġacc ording
Ġe ver
en g
y ear
m ost
w h
ar ing
Ġg ames
is on
Ġhum an
Ġwor d
Ġb as
ĠR uss
1 1
iz ation
Ġret urn
Ġor der
ĠD em
Ġt imes
Ġn ame
Ġb it
g in
Ġse ver
ĠA ll
ic le
Ġde v
f or
it her
ut ure
Ġp ar
i qu
Ġ19 9
ĠM c
Ġw r
ĠC on
Ġs ing
ra ft
Ġper form
ĠS y
Ġchar ac
id d
The re
Ġf ac
Ġmark et
ĠO r
ĠA t
ĠM ay
Ġdo ing
Ġapp ear
E R
Ġr a
c hed
Ġplay ers
Ġn ight
ak en
m ber
Ġl a
Ġle ar
Ġ ,
at s
ro p
Ġto day
Ġ1 5
Ġe arly
Ġse en
/ /
Ġp ot
Ġha ving
Ġchild ren
Ġmed ia
Ġev ent
ĠP resident
Ġc rit
Ġwhe ther
Ġsever al
Ġcontro l
Ġsoc ial
id ence
Ġmil it
Ġme et
Ġp ress
s h
art ment
Ġw ent
or ies
Ġpro p
Ġsu re
Ġf ive
en e
Ġyou ng
ious ly
Ġquest ion
Ġe qu
ver t
Ġlike ly
Ġo cc
un e
Ġmem bers
and s
ĠY ork
b r
Ġc ertain
Ġen g
i um
Ġex ample
Ġw ater
ot s
Ġar g
Ġan t
Ġs ide
Ġd one
ĠC ol
Ġ vers
en n
ĠM r
Ġinv ol
Ġal ong
le t
end ed
Ġsh ort
ĠSt ates
Ġsu ccess
Ġmonth s
ĠEuro pe
ent ial
b all
Ġh our
Ġ1 1
i ally
Ġse x
i ver
A nd
l f
em pt
Ġwith in
im ate
Ġdes c
ub l
Ġcour se
ur ch
Ġf ight
Ġact iv
Ġam ong
ag ue
st er
Ġon ce
u ff
Ġinvest ig
ĠOb ama
Ġf uture
ul ation
Ġposs ible
Ġch o
Ġcon cer
Ġunder stand
n ect
it ing
re w
âĢ ĵ
ĠO n
on es
ort un
ĠB r
Ġ ]
ĠN o
Ġv iol
Ġproble m
Ġpri v
Ġme ans
it ive
gg est
ĠC ar
Ġa uthor
oc i
Ġav ail
our n
m y
Ġkn own
Ġn on
Ġprodu ct
Ġthough t
iv id
Ġy et
g ress
Ġac ross
al d
Ġprot ect
Ġh old
l er
Ġloc al
Ġf ail
ĠW hen
ĠSt ate
in c
Ġor ig
Ġcommun ity
Ġre ason
ĠT e
1 2
Ġ &
Ġsu ggest
Ġm akes
ver age
n ot
Ġ i
Ġ201 6
p or
b ack
Ġask ed
b ook
ed eral
Ġreport ed
or ld
Ġg iven
ens ive
ag ed
Y ou
Ġstr ong
Ġpro b
Ġvide o
Ġother s
Ġm us
Ġbelie ve
i ber
Ġb en
Ġget ting
an ces
ĠH ouse
Ġann oun
Ġl ight
o ber
ore d
Ġ3 0
it ions
Ġc ut
Ġ ident
ĠUn iversity
Ġl im
Ġs ent
ir on
Ġc a
iet y
ĠCh rist
ĠC o
3 0
ur ther
Ġs our
Ġc reat
Ġcon d
Ġ X
Ġn et
' ve
as hing
re st
am s
am ent
Ġb at
Ġn ational
Ġsa f
. ,
Ġcl ose
Ġstart ed
as ter
Ġde ath
Ġavail able
ar m
ĠDem ocrat
F or
Ġiss ue
Ġh ig
Ġb ased
o f
Ġind ust
Ġl ow
Ġfollow ing
ĠM in
Ġacc ount
Ġem ploy
res ent
ĠC ent
u se
Ġl and
Ġ201 5
Ġl ove
ort s
Ġag o
sel ves
Ġ #
Ġm om
Ġhist ory
Ġpart y
ab ility
Ġser ies
Ġcom es
Ġtr ying
A T
u ly
ut es
e b
ĠA m
u ment
Ġal most
in ation
p ro
get her
Ġto gether
ĠAmeric a
Ġide a
ie f
Ġacc ess
Ġf oc
her s
il ar
ĠF l
ail s
re ed
ĠS en
Ġcomm it
ition al
Ġis n
Ġ1 6
Ġcle ar
Ġtr ad
ĠO ne
r ing
ĠWh at
1 5
Ġpr act
th ough
Ġfil m
Ġadd ed
Ġimp ro
ere nce
Ġexper ience
Ġh alf
ust om
ĠB ro
g ed
a f
wit ter
Ġan al
Ġ201 4
int on
r ict
og rap
Ġh it
Ġr ul
un ch
Ġs ix
ivid ual
Ġlook ing
Ġl ive
Ġany thing
er man
min ist
Ġcomple te
ra el
Ġare a
Ġm iss
ĠE x
Ġf av
n es
Ġr is
a i
ĠCom m
Ġpres ent
ru g
ot e
ra w
Ġsay ing
ĠCan ad
I N
ci ally
a id
Ġv ict
Ġb ad
Ġt aken
ow s
u ge
Ġent ire
at ors
er t
ot o
Ġb ill
ĠP r
e v
Ġcomp et
Ġm or
i en
Ġcour t
Ġbeh ind
Ġa ut
ĠT o
Ġ z
' m
Ġmilit ary
ĠE ng
Ġt re
pl ay
Ġtr y
Ġne ar
Wh at
Ġsec urity
Ġ1 4
Ġf ace
Ġ er
os p
ward s
ĠP ol
Ġm ult
s y
Ġpro per
Ġdisc uss
Ġto t
Ġth reat
Ġsing le
tt p
Ġr ather
Ġ |
Ġstud y
Ġind ividual
Ġ Â
ĠB rit
ĠD on
ĠW ar
le ment
Ġqu ick
ĠA f
Ġm ind
Ġp ubl
al es
ĠS ec
at ic
ap er
am ed
Ġm ess
Ġpolic y
A n
r is
ĠN orth
Ġwant ed
Ġf all
p ar
ir c
o ff
Ġbl ack
Ġs um
Ġf ood
Ġ /
ll ing
Ġsome one
id s
O n
Ġspec ial
Ġcom b
Ġc ult
Ġplay er
ĠM an
Ġke y
Ġre du
Ġbr ing
ĠG r
Ġcomp an
Ġ1 3
Ġ1 7
p ly
ĠD ep
Ġatt empt
ĠN ational
Ġt aking
ĠB ar
W hen
Ġ :
if y
: //
O N
v iron
Ġf oot
Ġel se
ol ution
* *
Ġb ody
ro te
ĠC al
Ġpre t
. )
el t
1 6
1 4
o ver
Ġsp ace
ic ult
Ġfr ont
Ġprob ably
Ġnot hing
d d
ĠI m
Ġc ou
ashing ton
Ġs w
Ġcon nect
Ġrese arch
c hes
ĠCl inton
m ing
ĠC ity
ĠW orld
Ġcom ing
ĠIs rael
R E
Ġpoint s
g o
Ġdesc rib
Ġhow ever
Ġsign ific
Ġj o
Ġsim ilar
y n
re me
c ing
Ġben ef
li er
Ġdec ision
Ġe ither
a ult
Ġc oun
ĠA ust
ac es
S o
an a
Ġm ass
ull y
ĠH ar
Ġt arg
Ġs us
Ġfe at
m b
Th at
Ġcon v
Ġex ist
Ġim m
Ġ201 3
Ġen c
ir l
w w
I S
Ġright s
un g
Ġserv ice
as ing
ĠS u
s w
Ġw rote
Ġd oc
Ġf urther
Ġf ire
ro du
Ġf ig
Ġth ird
Ġch all
Ġh ouse
Ġb an
Ġw a
Ġst op
Ġcre ate
A N
Ġp ick
n ow
ive ly
a pe
Ġf ield
Ġcom pl
Ġme as
Ġiss ues
Ġre pl
ĠW ith
ri ed
Ġbe gin
Ġsu per
pp ing
Ġst ep
am er
Ġwho le
ent ly
Ġrel ations
Ġseem s
Ġc and
Ġ )
Ġex ec
Ġcompan ies
Ġd ue
pe cially
Ġevery thing
Ġf ederal
1 3
a ul
Ġw atch
Ġst ates
Ġe y
ĠG u
Ġtr a
Ġlead ers
Ġro om
u ation
ĠG e
Ġc ustom
ĠJ an
Ġse lf
ĠHow ever
ĠW ashington
r an
o on
l am
p ite
C h
Ġro le
il t
he ad
at t
Ġofficial s
iv il
ib ility
Ġd am
id ay
Ġrele ased
Ġ201 2
Ġl ab
Ġst ri
e al
Ġs ound
l u
ĠIn st
Ġbe gan
ĠA pp
ĠD av
Ġstud ents
ĠS outh
Ġo pt
end er
ob al
Ġcharac ter
Ġt reat
Ġmat ter
Ġfin al
Ġpos ition
se c
l im
Ġen er
Ġd ou
er y
Ġout side
viron ment
Ã ©
Ġdevelop ment
Ġstate ment
Ġhim self
ad es
Ġin it
Ġ201 7
l ike
Ġst at
Ġ1 00
Ġprov ide
Ġab ove
Ġam ount
Ġhour s
Ġbre ak
Ġit self
Ġoff ice
Ġa ction
ĠP art
Ġthem selves
Ġd i
Ġrep resent
Ġgener al
Ġ19 8
Ġbec ame
Ġcontin ue
ĠIn tern
Ġne g
Ġadd ress
Ġg un
Ġ2 5
i od
Ġcount ries
Ġtr ue
ac ed
Ġspec ific
ograp h
as k
um b
ar ter
Ġsignific ant
Ġl arg
l ish
ĠA ss
Ġsim ply
re g
' ll
ĠR es
Ġwas n
Ġinter view
ace book
og n
Ġg round
Ġr ad
Ġdiff icult
il i
B C
1 7
o id
ĠJ ust
Ġad minist
Ġev idence
Ġrun ning
Ġd rug
Ġvers ion
Ġc op
re am
ĠE d
og le
Ġb ar
Ġag ree
Ġbuild ing
idd le
e ks
ĠCh ina
Ġneed s
r ight
Ġty p
Ġprof ess
ang u
Ġgroup s
Ġresp ons
Ġshow s
Ġcomm on
Ġd om
Ġevery one
Ġd est
Ġneed ed
Ġwom an
Ġl at
ĠG erman
Ġb all
Ġbel ow
ourn al
l ight
Ġt em
Ġmus ic
if t
Ġex c
ĠM ed
Ġrele ase
Ġin j
ĠA b
A R
rib ut
Ġpret ty
Ġsa w
Ġinclud e
Ġde ep
1 8
b ody
Ġa p
Ġplay ed
Ġqu ite
Ġm ag
Ġindust ry
Ġch arg
Ġener gy
Ġm ot
Ġcand id
Ġ5 0
Ġs ense
Ġplay ing
ĠH is
Ġph ys
Ġal leg
Ġwh ite
Ġl ate
Ġleg al
iv al
Ġg en
Ġfriend s
is c
A S
Ġan im
at ur
ĠA fter
y le
H ow
Ġb illion
le v
w here
Ġinst ead
b o
Ġre d
Ġab s
Ġl ost
Ġes pecially
ĠM us
Ġval ue
Ġh ost
ĠW est
os ing
ĠNew s
ĠN ot
Ġh om
t ime
or ing
ist ic
Ġp le
ep end
ag er
Ġwe eks
cc ording
Ġfor ward
om m
Ġe lection
Ġdet er
iqu e
Ġj ud
Ġrecent ly
Ġvot e
ir t
l t
Ġsu ff
__ __
ĠT witter
med i
Ġtr ack
Ġper iod
Ġchang es
ĠWh ite
Ġob ject
Ġopp ortun
ĠO ct
Ġ {
e ed
Ġl o
ar c
Ġs ite
Ġp ain
o ke
Ġlong er
Ġso on
ac hed
Ġac cept
h od
ĠC ong
ri pt
Ġeconom ic
Ġe p
Ġsh oot
Ġhop e
ir m
o e
Ġdec l
Ġmom ent
Ġp ie
op h
ĠW ill
Ġche ck
Ġt it
Ġcons um
i j
ĠM arch
du ct
Ġbl ock
ĠSe pt
Ġpot ential
Ġwr ong
o le
le ge
n ers
ĠDep artment
anc ial
Ġed uc
Ġon line
Ġc red
Ġhig her
Ġ2 4
Ġfoc us
on se
ke y
Ġcons ider
ĠM y
id ing
Ġsh are
n s
2 5
Ġhe ld
Ġc irc
Ġwor ks
Ġrel ig
Ġp arent
c ial
Ġw alk
Ġp red
Ġwe bs
Ġre ve
Ġl ed
ĠD r
ul arly
al t
Ġst ay
le ar
ĠRepublic an
ĠThe se
ove red
= =
Ġword s
Ġcont ract
ic ro
Ġst ru
ĠA ug
Ġris k
Ġso ld
Ġserv ices
Ġlaw s
Ġre v
Ġresult s
Ġre view
Ġc ode
The y
c il
ĠM ich
ĠSy ri
Ġw ind
Ġtot al
Ġa ud
Ġc e
Ġfun ction
Ġart icle
p ut
f ect
a ut
Ġapp lic
Ġa ge
ĠM e
Ġperson al
Ġmin utes
il ities
u ary
ur d
i ents
Ġany one
ĠJ une
it ution
as ons
A d
ate g
Ġtarg et
Ġd en
f er
ĠSt e
Ġear lier
Ġpr im
Ġexp ress
Ġde ad
ang er
Ġcomp ut
Ġfav or
h aps
u le
h am
pr il
c he
Ġan sw
Ġpop ular
Ġne cess
Ġv ol
Ġup d
ag ing
Ġtechn ology
Ġres pect
Ġr ate
ĠP e
Ġh y
v al
Ġen vironment
Ġrece ived
P h
ĠP ar
ap an
Ġexpect ed
Ġ201 1
ud e
end s
Ġsur pr
Ġant i
Ġcre ated
Ġgo al
Ġb ase
ĠJ uly
ĠS m
re et
te e
E S
Ġp ort
Ġproble ms
ip le
Ġw ays
Ġpriv ate
Ġcom ment
et er
b it
u el
ĠD o
Ġincre ase
Ġsc ient
Ġannoun ced
act ion
r ay
is l
ĠCong ress
Ġcan not
Ġeas y
Ġsh ot
A l
Ġquest ions
Ġfor ce
Ġ +
her n
ĠM ond
ater ial
Ġimp act
Ġp ack
n a
Ġe t
pl es
ĠF acebook
om b
Ġp ur
at ives
Ġl angu
ĠE n
6 0
ĠG od
Ġinvol ved
ill s
av ing
h ood
le x
ĠAust ral
Ġd iv
ues day
Ġexec ut
on st
Ġs en
Ġst aff
ct or
Ġc ivil
it iz
Ġex act
Ġne arly
Ġspe ak
Ġty pe
Ġmod el
i res
our t
Ġorig inal
ok es
Ġter ror
e es
Ġc ases
Ġcont ent
Ġrelations hip
ĠFr iday
ĠGo ogle
Ġ19 7
Ġle ave
T o
Ġins ide
Ġresp onse
Ġcap t
re m
ĠA pril
e ch
Ġf ans
Ġph ot
ll ed
c ast
ĠR ed
Ġintern ational
Ġa verage
Ġco ll
Ġar rest
Ġbro ad
Ġhe art
A t
ĠC ount
Ġso ft
Ġc al
Ġc ell
Ġus ers
re l
b or
Ġkill ed
Ġreport s
k y
Ġw orth
Ġ201 0
Ġl iving
ip s
Ġ ur
Ġn ation
ĠT uesday
Ġbec om
g ing
ĠMond ay
Ġsour ce
E N
ĠE m
Ġsub ject
Ġwork ed
at ural
Ġresp ond
est s
Ġest ab
Ġim medi
Ġass oci
j oy
ĠAmeric ans
op s
ĠP al
ell ig
Ġcl ub
it es
Ġgl obal
ĠP er
a el
ĠA ct
Ġob s
Ġab ility
Ġch ance
Ġ <
Ġt akes
ĠN e
Ġo il
Ġpr ice
Ġdirect or
he l
Ġwe ap
rough t
Ġph one
r ain
iz ing
olog ical
Ġter ms
Ġpubl ished
Ġro ad
m on
Ġde l
Ġfin ancial
ĠWh ile
ĠRuss ia
ĠJ apan
Ġwork ers
Ġcol lect
O R
Ġm other
os ition
Ġt ou
ĠW ed
Ġm id
Ġdec ided
ĠS ome
is es
Ġl ack
ove mber
Ġdef in
Ġs qu
Ġ4 0
Ġg ave
Ġg irl
Ġst ore
in o
Ġbu y
Ġhappen ed
Ġinf lu
ĠN ow
Ġrequ ire
Ġl og
Ġf em
ĠCal if
Ġe mer
cl us
" .
Ġcap ital
ĠO ff
Ġfore ign
b ased
Ġcurrent ly
ĠS an
ov ed
vert ise
Ġsit uation
Ġind ic
Ġoff er
Ġgo es
ĠB y
ĠGe or
Ġt al
Ġwho se
Ġl ives
nes day
Ġaff ect
un t
ro wn
ough t
Ġm aterial
Ġ @
Ġpl ans
Ġp ict
Ġar ri
urs day
Ġpartic ip
ĠH ill
Ġmem ber
Ġrec ogn
ĠJan uary
Ġnet work
Ġev ents
O ne
4 0
Ġmet hod
Ġturn ed
ru ction
ct ions
Ġmeet ing
ĠF eb
ĠS und
Ġb ank
f ully
Ġn orm
Ġint rodu
Ġteam s
Ġsim ple
Ġreg ard
ĠSept ember
ĠA g
ĠIs lam
Ġh uge
Ġ ill
ĠC or
Ġare as
Ġc y
ou d
ord er
ĠT V
a ur
es e
Ġappro ach
Ġcare er
" ,
Ġcou ple
ĠG l
Ġde li
et y
Ġperform ance
ĠN ovember
Ġr ace
ĠAf ric
ap t
Ġp age
l oad
l in
Ġnum bers
ĠDav id
Ġm is
Ġto ol
Ġor d
Ġf elt
o or
Ġquick ly
Ġem ail
a ily
Ġ2 1
ã ģ
ĠE l
ĠWed nesday
ĠP aul
Ġadminist ration
Ġh on
Ġv ia
Ġimpro ve
ch ie
Ġvict im
Ġeng ine
---- ----
Ġp ull
ist an
Ġr ound
Ġ2 2
Ġf re
ĠA ng
Ġp ers
Ġbu ilt
ĠTh ursday
b l
Ġd ig
Ġl oss
en ed
ĠEurope an
Ġf ather
Ġth ous
Ġb oy
Ġh ttp
av y
ruct ure
Ġprodu ction
um e
orn ia
d own
Ġhe ard
S h
A L
Ġeconom y
Ġen joy
Ġtr ade
ĠS ch
âĢĿ .
Ġreve al
Ġsec ret
ĠAug ust
Ġbo ard
Ġwebs ite
Ġco ver
Ġw ide
im ent
Ġm atch
Ġsp ent
Ġpo ll
ĠC ourt
f ace
Ġallow ed
Ġhand s
Ġtra vel
Ġinclud ed
Ġre pe
ce mber
Ġl ower
at ory
Ġne igh
Ġst e
Ġleg isl
ĠOct ober
or ters
us es
Ġbeh av
ict ion
Ġkn ew
Ġwant s
Ġte xt
Ġse par
Ġto wn
ĠBrit ish
ight s
es tern
Ġvis it
re ct
ĠCanad a
an ks
ess ion
Ġget s
W ith
en ces
is hing
Ġmove ment
g round
Ġper fect
z e
age ment
? âĢĿ
g est
Ġtri ed
Ġc ause
ĠSund ay
Ġen s
Ġfor ces
Ġ }
Â Ń
] [
for ce
ce ed
A fter
Ġatt ention
Ġb ud
Ġve h
Ġpartic ular
Ġb i
en ing
Ġf ear
Ġvar ious
Ġre ach
ĠU K
Ġl ink
Ġlook s
Ġ2 3
Ġb rought
Ġpop ulation
E D
m a
ib ly
ĠK ore
ĠRuss ian
ar ily
ĠCalif ornia
Ġv o
9 9
2 00
Ġprev ious
ur ning
Ġm ention
) ;
Ġmor ning
Ġf air
ĠI S
e g
' d
ide red
ĠS w
ak er
Ġgrow th
Ġfe ll
se qu
Ġpro gress
ĠQ u
y ond
c le
und red
all ed
ĠC ont
ra z
A C
Ġs ong
i am
Ġs ize
f ield
h old
ĠDe cember
u k
ĠH er
Ġtr aining
led ge
Ġdem and
Ġcont act
c ies
ĠBl ack
ident s
ific ation
Ġlead er
Ġh or
Wh ile
O S
Ġim age
Ġl iber
ec ause
Ġr ac
s et
Ġh ot
Ġpre p
Ġrul es
Ġse arch
Ġ ess
ĠSt reet
U S
ĠP ost
c ome
Ġc itiz
u ments
Ġlat est
Ġind epend
Ġup on
ĠP ark
Ġstru gg
ar th
Ġfeat ures
in ks
i ant
T r
Ġco ach
Ġf ast
Ġtalk ing
ĠJ ew
sy ch
ond on
ĠSen ate
Ġadd ition
om p
g es
Ġw ond
ĠP at
o o
ic les
Ġspe ed
Ġst ar
I T
Ġex am
Ġcons idered
ar ies
ra q
Ġre b
et h
b ed
ĠT imes
2 2
Ġlevel s
Ġsl ow
p s
Ġinvestig ation
ellig ence
Ġcon duct
ap h
ĠPart y
ĠCount y
il le
Ġc ard
Ġmed ical
Ġm ach
Ġa chie
im ately
v ent
Ġu nd
ĠK ing
Ġcrit ic
Ġlangu age
ĠCent er
atur day
un k
op e
Ġs ort
Ġ200 8
ĠT ex
Ġs n
Ġcons erv
ĠInd ia
Ġp en
Ġp aper
ys is
p ir
I C
Ġsex ual
im in
w o
Ġparent s
Ġsystem s
Ġpri or
as c
Ġdo ll
u it
Ġb ox
Ġwrit ten
Ġsp okes
u f
h a
he t
id ge
Ġsee k
ig r
Ġincre asing
Ġdoc ument
Ġs ens
Ġse ven
an i
at form
e ared
Ġd raw
ĠMus lim
ĠI ran
Ġhe ar
Ġeff ort
Ġjob s
ru ary
Ġs on
in ing
Ġprev ent
Ġext reme
Ġlear n
Ġser ious
Ġin n
r ast
O P
Ġreg ul
Ġ ...
8 0
ĠM ark
ro om
Ġr ange
Ġviol ence
Ġe ight
Ġsur ve
Ġcon c
ĠI raq
our ces
Ġ200 9
Ġmess age
Ġcomplete ly
Ġsc reen
it ch
ĠK e
ic o
Ġob v
2 4
Ġopportun ity
e ff
Ġ â
Ġinterest ing
ab or
S he
Ġcl imate
reed om
Ġmajor ity
Ġdou b
t r
Ġpartic ularly
Ġclaim s
ĠR om
Ġj ournal
e xt
an ced
Ġdes pite
Ġansw er
Ġsoc iety
Ġcar ry
m p
ĠCh ar
Ġdef ense
ĠDon ald
ĠM ore
ren ch
ent ially
ĠL ondon
Ġgu y
ill ed
am ing
Ġattack s
vertise ment
is ions
Ġrequ ired
Ġext ra
Ġbig gest
er ve
i ers
Ġexper ien
ĠE ast
Ġexact ly
Ġp aid
uc lear
Ġmod ern
Ġare n
Ġrem ain
ines e
ens ion
ly ing
ib r
Ġex cept
Ġqu arter
Ġc ross
ar i
Ġoffic ers
Ġpract ice
Ġn atural
Ġh undred
et t
in ally
Ġm iddle
ut ions
Ġt able
er c
Ġcertain ly
Ġ2 7
Ġd ro
Ġst ories
os es
Ġg as
Ġsur v
Ġhist or
ad d
Ġlook ed
n ces
Ġsomet imes
ĠN et
ĠS aturday
A M
Ġproduct s
Ġsc ience
Ġus er
Ġst uff
Ġmov ie
Ġfin ally
Ġbl ood
Ġsum mer
Ġr out
Ġl ay
osp ital
Ġon es
Ġlead ing
Ġcommun ic
ous ly
ĠS and
Ġdescrib ed
av es
Ġa w
Ġim ag
Ġchang ed
f l
Ġter m
ic ks
Ġcon vers
ĠFeb ruary
Ġpr ison
Ġdet ails
ĠS pe
Ġqu ality
Ġp an
Ġstart ing
Ġg iving
n y
Ġshow ed
Ġocc ur
Ġn amed
Ġrem ains
h ib
Ġreg ion
ak ers
u ing
Ġcost s
pp er
ĠS oc
Ġu lt
Ġprov ided
ĠMc C
ĠT ur
ar r
Ġdam age
Ġp ath
Ġeduc ation
Ġch ief
Ġm ob
ĠI nt
augh t
Ġd anger
Ġf it
Ġpo or
Ġmult iple
en ge
ĠM or
id a
Ġgrow ing
Ġcontin ued
Ġdem onst
y l
N o
Ġ *
Ġcom ments
Ġpart s
Ġ2 8
Ġwrit ing
ĠRepublic ans
Ġmain tain
Ġm ent
Ġsaf e
Ġ2 6
Ġass ist
ĠC he
ĠT H
in ary
Ġthink ing
ĠDemocrat ic
ĠD es
ĠE ven
Ġrequ est
Ġwr ite
2 3
Ġit em
Ġpur p
ĠC oun
Ġf ix
F L
Ġp urch
Ġread y
co in
ag o
Ġimp lement
Ġeff orts
ab les
Ġd ied
Ġincre ased
Ġvot ers
f ort
Ġwould n
Ġcult ure
p re
al y
Ġm ill
op er
im inal
Ġread ing
Ġf ile
mit ted
Ġcall s
Ġeffect s
z z
Ġus ually
Ġc amer
I m
Ġsp ot
ĠG ener
u x
Ġper haps
Ġal one
b an
ar ian
ĠF irst
Ġal though
Ġcons ist
Ġse lect
Ġto wards
ĠLe ague
d e
Ġstand ard
Ġ( @
Ġce le
Ġpl atform
ĠB ill
ĠTex as
Ġgu ys
il es
ĠCh inese
ĠMich ael
Ġreal ity
Ġbe yond
Ġdirect ly
Ġspe ech
us ing
ic ated
Ġsub st
it ute
Ġk ids
Ġstud ent
Ġav oid
Ġh ous
ĠJ ames
Ġthrough out
ar a
B I
Ġun f
Ġcould n
row d
Ġfoot ball
ou l
f ord
Ġimmedi ately
Ġinclud es
Ġc at
s p
Ġcho ice
Ġcon cept
an ch
e gr
Ġcent er
ĠC ons
Ġadd itional
Ġsc ene
Ġw ife
Ġro b
Ġcomple x
Ġchall eng
ĠM on
ur t
Ġt ro
Ġ ver
Ġcl os
Ġrese arc
it or
Ġsoft ware
he st
Ġrec omm
R e
ĠMin ister
ĠâĢ ¦
Ġcor por
.. ..
ĠInd ian
A ll
Ġsaf ety
Ġ il
ĠS er
Ġg one
Ġdesign ed
Ġrem ember
w ise
ast ic
ur g
Ġbr ain
ag on
Ġs le
Ġt en
Ġse ll
Ġag ency
Ġto ward
Ġc ast
Ġep is
port s
om en
ĠJ ack
Ġfig ure
Ġdeb ate
Ġpie ce
ac hes
Ġoffic er
ad em
st on
Ġcoun ter
m en
Ġs we
Ġop in
Ġbat tle
ru pt
Ġthous ands
Ġa head
ress ion
air s
ic ient
Ġlet ter
Ġrel ative
ir th
N ow
o es
im um
Ġbl og
il ies
Ġ Ð
Ġpress ure
Ġrece ive
Ġmov ed
Ġappear s
Ġla unch
Ġpass ed
2 7
Ġpre c
Ġs il
Ġo ption
amp ions
Ġst age
Ġ ut
ĠB o
Ġ6 0
ro y
O T
Ġcle an
ate ver
am b
ol ute
ĠS erv
ĠApp le
ĠPl ay
ber g
ĠI I
Ġdri ve
n ew
Ġhelp ed
ĠG reen
Ġalleg ed
Ġproper ty
j ust
Ġt our
Ġtw e
ĠDemocrat s
Ġmean ing
Ġdo g
Ġdis app
Ġ x
Ġd ate
Ġcr is
Ġro ck
Ġbud get
ĠR ich
ĠAss oci
Ġmov ing
it ation
Ġsc ore
Ġsus pect
augh ter
Ġorgan ization
Ġcomm and
Ġs at
Ġcond itions
ĠThe n
Ġp ark
Ġn uclear
Ġd ark
Ġ ign
Ġtou ch
Ġn om
Ġre asons
ĠS im
m ore
Ġn ature
? "
Ġdev ice
Ġde g
Ġdiffere nce
Ġmy self
Ġ >
Ġhapp y
A D
ch an
Ġcomput er
Ġmay be
y an
Ġcharac ters
ri ef
Ġfail ed
Ġcop y
w ood
Ġbegin ning
Ġf an
Ġa im
Ġenc our
Ġcomp ared
Ġle ague
iv ity
ock ed
ĠSu per
ĠM art
Ġtit le
Ġest im
Ġw all
ĠSt ar
ĠD ay
Ġcol lege
ĠV al
Ġey es
Ġsh own
Ġpower ful
ĠEng lish
Ġcent ury
Ġy es
Ġlim ited
our ce
ain t
Ġb al
Ġpos itive
Ġref er
Ġcont ribut
le ase
3 5
Ġsc he
Ġst ra
Ġnecess ary
Ġcandid ate
Ġfor ced
Ġdis p
Ġb and
ĠF rench
2 6
Ġtr ust
A P
Ġar ch
Ġbook s
4 5
Ġsp ending
Ġconf erence
Ġlarg est
Ġs al
ent y
ĠR ober
Ġschool s
ĠH ere
a ud
ĠO f
uf act
Ġanal ysis
Ġnot e
Ġpresident ial
ci ent
or ks
Ġcitiz ens
ven ue
ĠSyri a
Ġa ware
Ġexecut ive
Ġth row
Ġevent ually
Ġme ant
Ġfollow ed
Ġphys ical
ig ration
ĠT or
ĠD is
Ġfe ature
ĠW ind
ĠB en
M y
Ġstre ng
Ġc rowd
) :
Ġconf ir
Ġtreat ment
or ney
B e
Ġf irm
a res
Ġgr ad
Ġm ix
Ġb ott
Ġ2 9
Ġrelig ious
er o
et ro
b and
I s
ĠÂ £
Ġp us
Ġeas ily
Ġes c
Ġaut om
Ġact ions
Ġfam ilies
Ġil leg
ĠM ex
Ġco ol
ress ed
Ġ19 6
Ġover all
bo ard
c ul
c raft
Ġallow s
Ġg ives
r ated
ub e
Ġfe ed
ĠA ir
B y
Ġsus p
b um
k en
Ġyour self
Ġd raft
Ġinc ome
Ġdet ail
Ġapp eared
N ew
Ġanal y
Ġsign ed
Ġsm art
ir ing
ĠGo vern
Ġide as
E C
en cies
Ġsen ior
ĠB el
Ġan g
Ġcent ral
Ad vertisement
I D
ĠB re
Ġh ar
Ġprom ot
Ġfre qu
Ġweap ons
D on
Ġn ice
Ġdis play
Ġcred it
O M
Ġdec ades
Ġpolit ics
Ġcr ime
Ġp sych
2 8
Ġdis e
in n
Ġus es
Ġdo or
ut y
ĠIntern ational
ur ance
m ar
Ġs ales
Ġconf lic
A ccording
Ġbenef its
Ġcustom ers
Ġd rop
Ġl if
res h
Ġun ique
Ġdevelop ed
Ġal tern
r s
Ġrel ated
Ġcris is
b ox
ĠC ap
Ġnot ed
ot i
E T
Ġm ist
2 9
Ġpred ict
Ġtr uth
ĠUn ion
ĠS chool
ĠE U
Ġgo als
er ry
ĠAustral ia
Ġch arge
Ġcontin ues
Ġindividual s
in y
p art
ĠE arth
ĠAr ab
Ġapp arent
Ġchall enge
Ġbe aut
Ġr ap
on ents
Ġpe ace
Ġst o
erv ed
ite ly
n own
ĠSm ith
Ġmeas ure
ĠAng el
Ġl ic
ĠPol ice
Ġproject s
n et
Ġcor rect
Ġprev iously
Ġman ager
Ġint elligence
ch ange
ĠGerman y
Ġfull y
i able
Ġr ule
Ġre form
Ġl ines
Ġexp and
Ġr ates
ĠChrist ian
Ġcle arly
Ġadv ant
2 1
i ance
U n
ound s
Ġsuccess ful
Ġbro ther
Ġhigh ly
Ġlarg er
Ġseem ed
Ġstra ight
ic ed
S ome
ĠCoun cil
ri age
ĠFr anc
Ġsp read
Ġcr iminal
ĠGeor ge
Ġmin or
Ġtr aff
Ġprogram s
ow ers
k i
at tle
I A
Ġinc ident
ĠCom p
Ġres ources
Ġgreat er
Ġem b
ant ly
Ġknow ledge
wh ile
e an
Ġprim ary
ĠT om
ate gy
in ated
Ġke pt
Ġem ot
Ġwe b
Ġatt ract
Ġsa ve
Ġcol or
Ġstud ies
or ter
d om
P ro
ĠFl or
Ġsp ir
ol ic
sec ut
qu e
Ġfe et
ĠC r
Ġar m
Ġr are
od ay
ĠH igh
lev ision
Ġre ached
ĠIntern et
ĠR ec
se y
ĠBro wn
ĠA nt
1 00
id ers
A r
os h
Ġpl aces
Ġreg ular
ĠH am
w ide
Ġfavor ite
Ġman ufact
ve re
ot a
Ġs end
ĠD ef
Ġpre m
ro ll
ic it
Ġla un
Ġactiv ity
lic k
Ġknow s
Ġnorm al
Ġp un
ic ago
Ġshoot ing
Ġsour ces
b on
Ġr ise
ing ly
ter m
Ġown ers
Ġstat us
Ġf ine
Ġfight ing
v ille
Ġca used
oc ks
ĠGener al
Ġen em
Ġclaim ed
s er
Ġlit er
on ent
Ġvo ice
ĠU p
Ġopt ions
eng th
Ġ200 7
a ith
E O
ĠR ob
ĠG old
us ion
Ġsp end
ĠM ac
Ġint egr
m iss
Ġorgan iz
ad o
7 0
IN G
Ġend ed
Ġc ities
ww w
il ed
Ġresearc hers
Ġsh ut
âĢĿ ,
ro id
m ark
Ġref lect
ĠL a
Ġcall ing
m ission
ol es
or g
3 3
Ġal bum
Ġemploy ees
ĠE very
ĠF rom
Ġpr ices
if ying
Ġfem ale
u ana
mit tee
Ġv irt
Ġra ised
y a
it ness
Ġha ven
Ġsupp osed
Ġhapp ens
Ġe le
ĠEng land
Ġpolic ies
Ġj ump
Ġadd ing
Ġn ames
Ġcharg es
iver se
Ġpro s
Ġconcer ns
N ot
ĠM ag
Ġpl ant
rib ution
Ġbas ic
ic a
Ġwa it
um an
Ġtrad itional
Ġtr ou
ing er
Ġac qu
Ġabs olute
Ġpat ients
Ġh ospital
Ġfund ing
ĠB ay
Ġcom mer
Ġsl ight
Ġmin ister
Ġauthor ities
ro l
r am
ĠM o
Ġcreat ing
Ġf reedom
ĠSc ott
ĠA P
Ġpr int
Ġsee ing
Ġme chan
Ġsc en
Ġgr and
S c
. âĢĻ
Ġst yle
Ġl ik
Ġc ry
ij uana
ri an
Ġbe at
Ġp ush
Ġim pl
Ġbe g
Ġst ation
on a
Ġbehav ior
Ġ ir
Ġb irth
so ft
Ġle aving
Ġens ure
se e
Ġact ual
Ġoff ered
Ġagree ment
E L
Ġe th
ĠFlor ida
p en
ĠHill ary
ĠRe g
âĢ ¢
ĠM ost
ĠWe ll
Ġad ult
Ġg reen
Ġgo ld
h ttp
ĠS un
al se
Ġweek end
Ġwe ight
Ġreveal ed
ĠB er
H ere
Ġdeter min
Ġapplic ation
Ġprop os
Ġwill ing
ear ch
Ġpost ed
. '
Ġmost ly
it ude
Ġval ues
ĠA lex
ĠA ccording
ab y
O U
Ġr ank
Ġad op
ac ing
Ġestab l
Ġey e
ect ion
Ġv ac
Ġrecord s
Ġpict ure
5 00
Ġen force
Ġbelie ved
Ġm er
p ri
S A
Ġb rief
u ild
ĠL et
Ġlear ned
Ġstr ategy
Ġlaw y
ĠL aw
Ġd ire
Ġqu al
c her
Ġapp l
Ġcho ose
Ġwond er
ign ed
Ġpart ies
Ġun s
ist ry
ĠPe ople
Ġinst all
Ġc ars
ĠCh icago
Ġmass ive
Ġbenef it
Ġw ild
ĠFr ance
Ġdev ices
c ont
Ġarrest ed
Ġstre et
Ġneg oti
ĠTr ans
Ġw at
ĠP ort
ĠO h
9 0
Ġwh atever
ĠPh il
Ġm ount
Ġwh om
Ġprov ides
Ġass ault
Ġjud ge
Ġfeel ing
st e
li ament
Ġask ing
Ġinflu ence
Ġl ose
ĠSec ret
Ġprodu ced
Ġoper ations
ĠB ush
Ġtem per
Ġcrit ical
t ies
Ġf at
Ð ¾
Ġent er
p oint
Ġconfir med
E x
Ġim ages
I L
Ġshow ing
ĠL ou
ri ption
ĠSt ud
Ġm ission
Ġrun s
g en
Ġt end
or ial
Ġdist rict
Ġ ;
Ġres idents
Ġdeb t
Ġb order
ĠM at
n o
Ġpat tern
ĠCom mittee
How ever
Ġopp osition
ra v
m ine
Ġte ac
Ġcele br
ak ed
Ġc ru
ud d
Ġ Ã
ĠHe alth
l a
Ġdef end
Ġprodu ce
ĠW all
ic ial
est ic
Ġse ction
ĠWh y
ĠM od
Ġet c
ĠP ress
r ont
Ġindepend ent
ag s
Ġbr and
ent ed
u gg
Ġc ore
Ġadv oc
Ġt ick
Ġdr ink
ĠB it
ĠComm ission
Ġhe ro
Ġdig ital
Ġdoll ars
ce ll
ĠM al
Ġv ill
B A
Ġsol ution
a e
oc r
ri al
Ġinterest ed
Ġeffect ive
ĠS am
Ġhig hest
Ġmem ory
ĠPal est
ĠKore a
ĠM icro
Ġopen ing
ord s
Ġtri al
Ġrespons ible
A A
Ġwor se
Ġk ick
Ġoff ers
Ġd aily
ĠOff ice
Ġthe ory
ĠFranc is
Ġte levision
Ġrepl ace
Ġrest rict
Ġag reed
Ġocc as
ĠB ecause
ak s
Ġlear ning
Ġm ur
ĠG et
ill ing
ĠO ther
C C
Ġtyp es
Ġinvest ment
ĠW estern
i ation
Ġmill ions
ci ence
Ġch air
ic ians
____ ____
Ġmil es
Ġv s
ĠM ike
ĠM il
ĠJust ice
i pe
Ġprop osed
Ġbas is
Ġtr ain
Ġche m
ĠD el
Ġb ur
S T
Ġ8 0
Ġgener ally
Ġexpl ained
Ġd er
The se
ĠC up
ĠAd d
ĠO ur
Ġhe avy
Ġm ap
ur ies
r ad
Ġpart ners
4 4
Ġopin ion
and er
Ġprot est
r ig
C on
Ġassoci ated
ĠF ound
Ġon to
Ġdef e
r ate
o om
ĠN FL
w in
G et
o ly
ĠSec urity
Ġbecom es
az ing
Ġre ject
Ġl oad
Ġob tain
el ine
Ġannoun ce
v est
Ġachie ve
Ġco al
Ġass um
out hern
u pp
ĠA tt
Ġadvant age
ĠL iber
Ġopen ed
ic ip
Ġm ale
Ġunderstand ing
3 6
Ġdest roy
Ġhundred s
ad ing
C l
ber t
ort hern
com ing
== ==
Ġcond ition
Ġinit ial
Ġsur round
we ll
ĠB ig
ĠJohn son
3 2
Ġman agement
Ġr at
Ġth us
ĠWind ows
Ġlim it
Ġph oto
Ġeas ier
k nown
Ġbecom ing
Ġacc used
Ġlegisl ation
Ġsh ip
Ġmar riage
Ġcontro vers
ĠM any
Ġun like
Ġ ice
F C
Ġsle ep
ĠG reat
Ġneigh bor
Ġdou ble
Ġelect ric
Ġb orn
Ġ200 6
ol f
Ġcamer a
Ġs pl
B S
Ġilleg al
Ġsh ared
Ġspec ies
Ġjo in
Ġ3 1
M r
l ant
Ġserv ed
od es
Ġdoc uments
Ġser ve
G B
z a
Ġaud ience
7 5
ĠA M
le vel
ĠIslam ic
ĠL ab
Ġextreme ly
Ġmach ine
ĠU k
Ġ3 5
Ġh arm
Ġfr ame
or row
ĠJ er
Ġact ive
Ġstri k
wit ch
Ġbott om
Ġmar ijuana
Ġn ine
Ġredu ce
Ġloc ation
Ġres ist
ĠAr t
Ġwe alth
Ġsol id
Ġbelie f
Ġscient ists
Ġvictim s
Ġcommun ities
Ġneg ative
Ġprofess ional
ear s
Ġwin ning
i h
Ġreturn ed
ĠD ist
ortun ately
Ġb ed
Ġch urch
Ġveh icle
ĠInst itute
Ġdep artment
m et
ist ics
Ġam b
te red
3 8
if ul
Ġr an
ĠSand ers
Ġinc red
ir gin
Ġleaders hip
Ġintern et
Ġb omb
Ġd ie
P S
Ġ9 0
Ġvict ory
Ġpurp ose
ĠP M
ĠComm un
i os
land s
re y
ĠH all
Ġmob ile
ĠY our
i pped
Ġexist ing
Ġexpl ain
Ġte ach
Ġsepar ate
Ġf aith
Ġdoub t
Ġnot ice
Ġinst ance
Ġepis ode
Ġwatch ing
Ġcom fort
Ġhe aring
gh an
ĠCanad ian
ĠF in
at ically
Ġrad io
Ġnot es
h ouse
ĠIn c
Ġview s
Ġf resh
ĠB ank
Ġun c
Ġconserv ative
Ġarg ument
Ġsupp orters
Ġput ting
as y
ĠE v
Ġp urs
w orks
om as
Ġapp eal
Ġm icro
ac ity
O L
sc rib
Ġlaun ched
ar io
3 4
Ġco verage
ĠM ad
Ġitem s
Ġcommit tee
wh ich
Ġdefin itely
z en
res p
Ġdire ction
ili ar
ograph y
ill er
Ġcharg ed
Ġdrug s
ĠO ver
Ġiss ued
Ġdanger ous
Ġfl oor
Im age
Ġs un
ĠF ox
Ġback ground
ĠCh urch
Ġst ated
i pp
E M
Ġm ax
P A
Ġcompet ition
ĠCar ol
ad a
Ġtre nd
v ention
Ġtraff ic
and om
ĠD irect
ur b
ĠG ame
Ġtrans fer
it t
Ġsp oke
Ġc ards
in ct
Ġcommer cial
ĠL ike
ĠF BI
Ġsit es
Ġset t
Ġh us
Ġsuggest ed
Ġre act
Ġt ask
ĠS ince
Ġn orth
N A
Ġst ructure
Ġrepe ated
Ġdec ade
om an
Ġrest aur
go ing
ampions hip
Ġanim als
rib ute
Ġno vel
Ġlab or
b ut
Ġwor st
ĠS l
Ġd aughter
ct ors
Ġdri ving
Ġentire ly
ant ed
Ġdise ase
Ġd ed
Ġcont ain
ad y
Ġcl osed
g ency
ĠBrit ain
Ġdri ver
A meric
Ġtell ing
il ing
ĠW il
Ġn or
B l
Ġref ere
ĠQ ue
ĠL os
Ġsmall er
Ġdisc overed
f erence
Ġh ack
e qu
Ġf alse
Ġpl ays
he m
Ġconcer ned
ĠP ri
! âĢĿ
ak istan
Ġsupport ed
Ġc ash
i us
ĠCh ris
C H
Ġtrans port
Ġexper iment
Ġfind ing
ul ated
ul f
oy al
ĠU N
Ġtool s
ann el
Ġcomp ar
s pe
se mb
Ġas pect
Ġsur face
n ight
Ġins urance
4 8
h ow
Ġbusiness es
Ġc ateg
Ġfar m
ĠJ ones
Ġrequ ires
Ġ7 0
Ġold er
d o
a it
Ġple ase
Ġg ay
Ġactiv ities
Ġstreng th
3 7
az on
N N
and on
ph one
Ġcandid ates
Ġwe l
5 5
Ġlarge ly
ĠIsrael i
ic y
Ġc aught
ibr ary
ic i
Ġex erc
ĠK en
Ġmur der
Ġcon sequ
k ins
Ġbl ue
ĠS up
ĠUk rain
Ġann ual
ar ant
ĠA re
Ġst ock
Ġallow ing
Ġra ise
ĠRober t
ĠT re
Ġstr ateg
Ġtest ing
oss ible
r ick
os ure
Ġcont ext
Ġdec isions
ĠA c
Ġacc ur
Ġaff ord
iz es
o very
Ġconcer n
S P
Ġf uel
l or
Ġbelie ves
Ð °
Ġg e
ĠJew ish
Ð µ
Ġtr uly
ter y
ĠT y
Ġjust ice
Ġconst ruction
Ġgener ation
igr ants
Ġhigh light
ang ing
ĠM iss
Ġpres ence
r im
ĠG ree
Ġgu ess
Ġun it
cept ion
Ġl ength
Ġhold ing
Ġs an
in ter
an cy
Ġestab lish
Ġw itness
ck now
it able
L e
ĠS il
âĢ ĺ
Ġplan ning
ĠV er
ĠAfric a
ĠAssoci ation
Ġref uge
Ġc atch
Ġse qu
Ġspokes man
Ġpl aced
ĠAfric an
b re
av a
n el
Ġatt end
oll y
ĠP re
Ġsc ale
Ġt im
ĠMicro soft
Ġtell s
Ġr ough
ĠP C
ĠG OP
Ġmention ed
ĠAf ghan
Ġinterest s
Ġhas n
ĠJ im
Ġcell s
Ġconflic t
Ġab use
pect ive
Ġinit i
Ġjo ined
Ġenforce ment
e y
M ore
Ġdeli ver
3 9
Ġk id
Ġintrodu ced
Ġcan cer
Ġph il
Ġwa iting
Ġprov iding
Ġmiss ing
ĠY es
ro s
Ġupd ate
ul a
ĠJ eff
Ġrem oved
ocr acy
ĠAngel es
ĠF ore
ĠM er
! !
Ġestabl ished
âĢĶ âĢĶ
Ġe at
b our
Ġocc up
Ġrecomm end
ĠFr ank
# #
Ġinj ury
Ġ200 5
ĠM P
is ation
v ant
Ġoff ensive
Ġf ant
ron ic
4 7
Ġoper ation
ĠInst ead
ĠC EO
Ġdown load
Ġnews p
Ġconvers ation
Ġsp orts
Ġuse ful
Ġdiscuss ion
ĠG roup
l ig
Ġc ook
Ġass ess
Ġobv ious
ont o
ĠSt ep
Ġs outh
ic on
" :
se ason
Ġhom es
Ġmeas ures
wh at
Ġfil es
ĠCon st
Ġsto pped
it z
Ġ201 8
D A
ĠK h
Ġban ks
ĠPalest in
and a
ic ations
form ation
az ine
O ur
Ġb ul
Ġfour th
** **
Ġst ick
ĠT im
c ks
m ail
ã Ĥ
um n
Ġgirl s
Ġfig ures
ĠLou is
Ġman aged
Ġmod els
ot ed
app ed
it er
4 9
Ġgr aph
Ġconc lud
Ġset ting
ĠJ ud
ĠMex ico
Ġfund s
Ġident ified
om s
re al
Ġdet ect
Ġfin ished
Ġcommit ted
Ġpre fer
ĠS al
Ġspir it
Ġa cknow
Ġve ter
Ġha ir
ĠAnd roid
P l
Ġfoc used
Ġappro pri
Ġarri ved
k in
Ġsk ills
ĠLe g
D es
ĠR ock
ĠV irgin
Ġthere fore
Ġkeep ing
ĠP akistan
Ġex clus
up s
ig an
Ġpart ner
ens es
ul ate
Ġ200 0
Ġtrans l
Ġear th
pl ace
ow l
ĠSup reme
Ġhous ing
Ġt ough
out s
ĠM et
Ġrelative ly
Ġsurve y
r d
Ġident ity
w ing
R A
ĠR yan
Tr ump
Ã ¡
Ġfeel s
Ġex change
Ġown er
Ġother wise
itution al
ic ation
im b
Ġprotect ion
ĠIn ter
Ġhus band
ĠAr my
ĠGovern ment
is f
ĠJapan ese
k a
ag n
Ġwe ak
Ġtwe et
e ah
Ġstep s
Ġtri p
Ġconnect ion
ĠM ont
ĠTH E
oc al
Ġcl ick
ĠPro f
ĠRich ard
Ġslight ly
Ġcirc um
ver se
Ġme re
Ġdef ensive
Ġphot os
Ġele ments
Ġstri ke
g ar
Ġg ender
g a
Ġcol lection
Ġdep end
ony m
G o
dd en
4 6
Ġg ain
anc ing
Ġkill ing
Ġgu ard
hen s
pro f
Ġcor ner
Ġsuggest s
od ies
uck y
m akers
Ġf le
ĠD ec
Ph oto
Ġro ll
ĠMart in
h i
u ct
Ġag gress
w ith
ĠS ur
r ange
ic ide
Ġcomm ission
Ġd at
ĠAl though
ĠO ut
ren cy
igh ter
re es
v is
Ġstart s
Ġment al
Ġplan et
Ġam azing
ĠJ ose
Ġsupp ly
m as
il s
Wh y
Ġbig ger
Ġspe ct
Ġs ides
an ia
Ġfail ure
ĠI r
Ġtal ks
ĠS ub
ĠN or
Ġrem ind
u ke
g ers
y m
Ġspe aking
Ġsu st
hed ul
Ġhappen ing
Ġfam iliar
u ate
Ġwind ow
Ġorganiz ations
Ġn one
Ġh ate
Ġtax es
Ġcar ried
an o
Ġst ruct
Ġthan ks
Ġar my
ĠP et
Ġp it
ĠJ oe
Ġdec ide
Ġcre w
ag ues
ĠCol lege
ĠG ood
Ġplan ned
Ġapp oint
T C
ĠM ary
Ġsu dden
Ġw ish
id ering
gy pt
l o
Ġhelp ing
oc ol
a wn
p m
Ġ3 2
Ġreg ist
Ġa ward
yn am
Ġp et
el ess
L ast
ĠTe am
Ġmult i
ost on
Ġenvironment al
ĠF ire
Ġsc ript
] .
ĠRes earch
Ġstand ards
ars h
ol it
r un
st ream
ĠSecret ary
ĠWe b
Ġstand ing
ol a
Ġscient ific
Ġs ch
ĠThe ir
Ġ4 5
ad ium
g n
ĠB ern
Ġac adem
ĠTh omas
Ġqu e
Ġrev olution
Ġsecond s
im al
H L
Ġdom estic
ĠU s
Ġp air
Ġmark ets
Ġbe er
Ġimm igration
Ġvar iety
ut ers
ĠT er
ĠAl so
Ġdro pped
Ġco ld
Ġfil ed
Ġter rit
! "
f e
Ġaccount s
ack s
ĠAt lant
er ous
Ġneighbor hood
ore s
Ġimp ossible
a ven
Ġinter act
ill a
Ġdeg ree
R ead
Ġbal ance
it ect
Ġun ion
Ġpr inc
Ġoper ating
Ġposs ibly
Ġturn s
Ġprofess or
ste in
Ġcut s
Ġvot es
Ġapp re
ar ks
ru it
ad er
ay er
Ġv ul
is er
Ġaltern ative
ab b
ĠSyri an
are n
ĠPr ime
Ġfell ow
ĠServ ice
Ġincreasing ly
Ġapparent ly
Ġhon est
Ġl ived
c ious
Ġapp ly
Ġdevelop ers
Ġt ack
Ġwor ry
Ġchang ing
Ġun ivers
Ġser ver
rast ructure
Ġtest s
ĠT wo
Ġr ich
ĠCarol ina
Ġun its
ict ed
ĠM os
ĠFound ation
ad ed
F rom
Ġag encies
Ġhum ans
I M
ob by
Ġl osing
Ġcol le
Ġult imately
as hed
Ġphil os
g u
Ġsound s
ĠIm ages
Ġsold iers
Ġcorpor ate
Ġtw ice
Ġset tle
Ġhealth y
Ġm ut
Ġat h
Ġpay ing
Ġabsolute ly
Ġequ ip
Ġse a
o ch
Ġsc hedul
Ġauthor ity
6 5
i ams
Ġanim al
Ġclos er
ĠT ime
ĠD en
Ġposs ibility
Ġregard ing
Ġdevelop ing
Ġinn ov
Ġseek ing
rou d
Ġwrit er
rel ated
Ġexp ensive
Ġfl ight
Ġintern al
ans ion
Ġbeaut iful
ĠL ast
Ġfund ament
c oh
Ġexper ts
Ġt ast
Ġsk in
ĠCent ral
Ġap art
ap ers
Ġv ast
Ġrelig ion
ĠL at
ĠP eter
Ġde ploy
O f
ĠU nder
Ġad just
Ġy ards
3 1
Ġsol ar
Ġimag ine
st ate
Ġapplic ations
l ook
ĠDist rict
ĠFrancis co
ĠJ on
Ġv ision
i ot
ĠTor onto
olog ies
I V
os en
d en
ist ed
Ġtr ail
Ġsit ting
ĠUS A
Ġun less
ĠPl an
Ġ200 4
ĠJ es
ain e
at ures
Ġrespons ibility
E ven
Ġcap acity
ĠM iddle
Ġhe at
u zz
Ġf ol
ĠP ut
Ġg ar
Ġsy mb
Ġer ror
ĠB ur
Ġc overed
Ġun iversity
Ġgu arant
Ġar ms
idd en
Ġp il
Ġfam ous
p ire
Ġfor ms
Ġpresent ed
i as
ĠS T
ĠP ublic
I P
J ust
ov ing
N D
ĠC amp
en ced
ort ion
Ġear n
u nder
Ġveh icles
Ġconv ention
Ġt ight
Ġelect ions
Ġestim ated
Ġatt orney
Ġsurpr ise
Ġf if
ĠA ri
ã ĥ
Ġint ended
Ġstre ets
rib le
ĠM ur
ro ad
Ġo dd
h and
Ġhelp s
p erson
Ġinst it
ĠS ol
Ġte en
ust er
ĠE gypt
Ġoccur red
ĠAm azon
Ġsp ort
Ġr id
ĠBit coin
all s
in i
Ġcons ult
Ġdeter mine
ress ive
Ġexper t
ĠB oston
Ġ= >
ĠG al
Ġt on
ur ation
le ts
Ġf ired
Ġbro ken
Ġfl ow
Ġtro ops
ed er
L et
Ġdom in
L E
por ary
Ġpie ces
ĠTh ose
ĠCh ief
U p
ter day
ĠC ath
Ġn ar
or age
I ON
Ġsh all
Ġrap id
= "
g l
Ġprep ared
Ġcon clus
Ġloc ated
ĠM ass
Ġhy p
Ġpro ve
Ġse ctor
ĠJ o
ĠPro t
ĠSoc ial
ve y
Ġspecific ally
O W
Ġbo ost
Ġbring ing
Ġj ail
ĠO nce
anc he
-------- --------
use um
Ġse lling
A b
Ġpot entially
Ġsc r
Ġgovern ments
Ġr andom
ot y
Ġhe av
cl ass
Ġequ al
Ġb aby
ĠR ub
Ġf aster
ĠAn y
ĠS pr
Ġcl in
Ġpropos al
w ar
Ġpl enty
ĠJ ournal
Ġst ress
D o
Ġequip ment
( )
Ġinf rastructure
Ġcoun cil
Ġvot ed
ĠPar is
Ġfact ors
end ment
Ġpro secut
T H
Ġer a
ph as
ĠF ederal
ĠVirgin ia
Ġst ars
Ġb reat
Ġbro ke
Ġrul ing
ure au
our s
Ġexpress ed
Ġcar bon
in ent
ĠD an
ce an
Ġoff ering
h t
Ġret ail
Ġvul ner
Ġcomb at
Ġdr am
Ġref used
Ġcl ot
Ġsec ure
Ġse asons
EN T
, '
is her
Ġelect ed
Ġconduct ed
E very
ĠO pen
ĠGu ard
ĠS ant
Ġweap on
ĠR iver
Ġrem ove
Ġrem ained
ĠAustral ian
Ġpoint ed
Ġchalleng es
n oon
ĠMed ic
Ġmethod s
Ġpr ime
Ġd in
Ġcritic ism
Ġpos itions
F irst
Ġtr ig
ri e
Ġm aster
ĠM el
i pping
ĠIs land
on om
ĠC ru
ro g
ol ved
th at
Ġcult ural
Ġc as
Ġs ale
Ġwere n
Ġaffect ed
ock ing
ĠF e
Ġsignificant ly
Ġorig inally
ĠD uring
c ol
ĠP lease
Ġappear ance
9 5
Ġb row
et ic
6 4
I G
ĠWh o
Ġgreat est
Ġst ret
Ġpercent age
y r
ly n
ce l
ĠLe e
Ġte le
Ġfin ish
ĠC ur
s en
Ġt ourn
Ġfac ing
ĠS ing
Ġsign s
Ġdetermin ed
Ġyou th
Ġinvol ve
Ð ¸
Ġ5 00
ĠPh oto
Ġb ought
stand ing
Ġthan k
Ġsh ape
Ġreg ime
ash ion
Ġchem ical
re ens
Ġg rew
ĠS aud
ly mp
Ġrem aining
Ġmod e
ĠN ov
ĠB oth
S ince
Ġind eed
Ġmin imum
p ired
Ġm arg
Ġher self
Ġd ream
ĠSte ve
S p
ĠCol or
ri er
Ġvot ing
Ġv ir
Ġw ood
Ġredu ced
Ġre venue
ĠR o
ĠR em
Ġ199 0
Ġrecord ed
Ġobv iously
ord in
Ġwe aring
ed ia
Ġpolit icians
Ġarg ued
al ing
Ġhand le
Ġsub s
Ġhttp s
ĠFor ce
Ġvide os
Ġlead s
Ġcon cent
D P
Ġt act
Ġpurch ase
Ġpro ced
Ġcont rast
Ġag ent
Ġpl us
Ġexperien ced
igh ters
ow nt
Ġth r
ĠF ree
Ġexpl os
Ġh un
Ġh urt
Ġappre ci
ĠWill iams
Ġsupport ing
Ġsurpr ising
Ġexc ited
Ñ Ĥ
ĠCons erv
Ġcons idering
ll er
ar p
ĠH aw
Ġdis s
> >
0 1
C L
Ġident ify
, [
Ġbel ong
Ġair craft
Ġdiffere nces
g ment
coh ol
Ġgl ass
og ue
Ġmin ute
m m
Ġfil ms
ap ter
od d
ĠP ac
Ġpull ed
Ġsh ift
Ġobs erv
Ġafter noon
ĠB ook
Ġend s
Ġbas ically
t op
Ġre nt
Ġa id
Ġconsum ers
ru ption
Ġs witch
k et
Ġdep art
Ġpros pect
ĠR ad
ess ions
h ab
ĠP ower
Ġmot iv
Ġb ound
ĠChar l
Ġacc ident
as p
Ġsp ring
Ġt urning
Ġconst ruct
I nd
Ġcomb ined
Ġser iously
Ġse at
Ġcomple ted
Ġpan el
h y
l ife
Ġtre ated
Ġlist en
P D
app ing
ut s
Ph one
ĠD aily
Ġm ort
Ġvis ual
Ġhop es
he red
Ġeven ing
p et
Ġenem y
H is
Ġ19 5
Ġopportun ities
or al
Ġapp s
Ġpriv acy
Ġtalk ed
0 5
Ġc art
at o
Ġlot s
os ite
Ġ id
ĠH ol
Ġwide ly
Ġpass ing
An other
al ed
Ġstrugg le
ĠSh ow
am m
Ġemer gency
ĠB BC
Ġsu it
Ġe lement
Ġdisc l
Ġcal cul
Ġa st
Ġp owers
S S
ang ed
ĠO lymp
P e
uc ks
ens ions
Ġpro ceed
Ġliber al
Ġopp osed
W ell
Ġpl ants
ĠSp ace
T V
Ġadv ance
ra ud
pl om
ive red
Ġfl at
om pl
ĠR el
Ġcopy right
00 00
A m
ĠPro ject
Ġb urn
Ġdist ance
ob e
Ġdis miss
Ġattempt s
ribut ed
Ġt un
st s
Ġ200 3
Ġh ol
Ġz one
ĠM att
ok ing
ĠJack son
ain ts
ab ilities
Ġfact or
ĠR oad
ne ll
ĠM em
ĠB et
ac he
z er
C ont
m ond
it a
ad ow
id el
Ġtrou ble
un ction
Ġfr ust
ĠT oday
Ġdef ault
ra wn
Ġrep orters
Ġre action
Ġup gr
Ġp ages
Ġcoll abor
Ġwrit es
Ġtyp ically
ĠI N
Ġst orm
Ġpack age
l ines
U T
Ġb odies
Ġinst ruct
resp ond
c are
Ġmat ters
Ġref erence
Ġqu ant
ed s
4 2
f ree
ĠTur key
ĠN AS
tern al
Ġden ied
m osp
Ġse m
ed d
Ġopt im
Ã ¤
A pp
Ġdisapp oint
Ġent ertain
Ġqu iet
Ġexpl o
Ġrespond ed
Ġappro ved
R ep
Ġsat isf
ap ed
Ġm al
Ġbroad cast
Ġstand s
Ġad vert
Ġs ac
Ġset s
est ival
Ġinstit utions
is ters
Ġel imin
es ters
P R
Ġre new
raz y
Ġb ull
Ġcan n
ĠDirect or
Ġval id
h ost
ani el
Ġspl it
ĠWill iam
Ġg iant
ĠP enn
ĠOh io
Ġcap able
Ġse vere
Ġtrad ition
Ġtechn ical
Ġ200 1
p ass
ab in
Ġl oved
] ,
Ġcapt ion
Ã Ĥ
Ġprom pt
Ġp itch
r ant
ell y
Ġcl oud
Ġconf ident
ĠM a
w rit
Ġreported ly
r id
u ous
Ġg ra
Ġnum erous
Ġconf idence
Ġtrans ition
Ġfac es
I I
ĠMed ia
4 3
Ġ \
Ġ3 6
Ġf ly
D e
ĠS qu
Ġpict ures
Ġpers pective
Ġwe ather
Ġsubst ant
ĠSy stem
Ġcre ation
ok en
Ġco oper
ĠY et
Ġm and
8 8
Ġun able
amp ion
ang ers
ĠAfghan istan
Ġexperien ces
ab led
Ġco ast
Ġc raft
il it
Ġadv ice
Ġfor get
un te
em ploy
us iness
ĠAnd rew
Ġviol ent
ĠLab our
Ġdecl ared
Ġrout e
Ġfl ag
Ġsuff ered
Ġreport ing
Ġord ered
ĠW al
Ġmess ages
as tern
ĠH uman
Ġfind ings
se x
Ġp roud
Ġappro x
O ver
7 7
is hes
Ġcircum st
Ġcr imes
Ġdel ay
Ġdecl ined
raz il
Ġnewsp aper
ound ed
R es
il ty
ul ations
ion ally
Ġconnect ed
ov es
ev in
Ġex cell
Ġco ff
Ġev al
ĠL in
du le
ĠF ollow
Ġmov ies
Ġon going
Ġshould n
Ġexpl ains
Ġpick ed
S e
Ġgun s
Ġdel ivered
ĠSc ot
Ġedit or
D uring
Ġwalk ing
Ġ //
Ġad mitted
res ents
Ġv an
ĠT ra
c alled
Ġag ents
u ations
ĠM L
Ġem ails
Ġappropri ate
Ġa uth
M A
Ġarch itect
Ġthough ts
Ġpr in
Ġpo ol
Ġem phas
Ġmar ried
Ġle aves
ĠS ov
c an
ell ow
Ġs ession
ĠMuslim s
ĠL ake
4 1
Ġacc ompl
O D
Ġg ather
Ġpublic ly
Ġinj ured
ĠTe chn
ar n
c os
ner gy
ar l
ĠW ood
o oth
ans as
T A
Ġed ge
Ġupd ates
Ġfor g
ĠGr and
Ġper man
Ġstate ments
Ġquarter back
ĠS cience
Ġleg it
Ġconf irm
Ġar med
ĠA v
O ther
Ġreal ize
Ġour selves
t ion
T ube
ĠD ou
Ġlawy er
Ġro t
Ġdri vers
m ates
Ġd ial
c ons
ĠRe ad
ĠI ll
Ġread ers
, âĢĻ
ĠChrist mas
Ġalleg ations
our ney
re land
ess or
Ġcont ains
Ġcr ack
Ġs ad
Ġterror ist
Ġf illed
ĠS um
Ġtal ent
ĠRe v
Ġarg ue
ĠMich igan
ĠB ack
Ġs am
al a
Ġtrans form
Ġr ail
Ġactiv ists
Ġ198 0
Ġt ree
ĠS her
ĠR on
M any
et te
Ġbuild ings
Ġd ynam
Ġexerc ise
Ġpat ient
d ate
Ġpract ices
l ong
end a
O h
Ġeffect ively
Ġsub sequ
6 6
Ġlab el
Ġmor al
ĠUkrain e
as ure
Ġf ish
Ġwe ar
ill y
T S
d ef
ĠG en
Ġsecret ary
r um
ĠH y
Ġmiss ed
ul s
Ġte ch
Ġsh op
Ġexam ples
b ur
Ġdeb ut
Ġca uses
ent ure
ĠW ork
Ġfl o
Ġess entially
ĠJ ul
ĠV ict
az a
ĠR od
ad or
ar ters
ĠSe attle
Ġi Phone
Ġobject s
ic ing
g ia
ord ers
Ġart ist
F ollow
Ĥ ¬
ĠSe e
ac ter
Ġs ke
Ġp ure
i at
Ġcl ient
ag ers
ĠPh ot
Ġb ond
Ġinj uries
or se
Ġhe ll
Ġgovern or
ĠI D
Ġfact s
Ġcent re
ĠSt an
Ġth inks
ou ston
ĠSaud i
S pe
Ġmot or
am in
Ġr ain
Ġlink ed
Ġfr anch
Ġinit ially
Ġphilos oph
Ġperform ed
Ġdes ire
Ġsu c
Ã ĥ
or ry
Ġ ing
Ġdi plom
Al though
Ġnecess arily
ĠF er
ĠS ign
Ġmaterial s
Ġres olution
i est
Ġexp ansion
en ger
Ġwar ned
es ome
Ġevery body
Ã Ń
Ġinc or
ĠL ife
Ġj oint
Ġschedul ed
ill ance
Ġaccept ed
Ġvar i
Ġincre ases
ĠSec ond
Ġexpl an
w ater
Ġfac ed
Ġadv anced
Ġb are
Ġannounce ment
Ġne ither
Y es
Ġplay off
Ġmy ster
Ġn ations
Ġrad ical
Americ an
r ich
ĠR E
Ġfollow s
Ġyes terday
Ġab andon
Ġdo ctor
Ġm ir
ĠB at
Ġdec re
Ġmag azine
ER S
ir ty
Ġnear by
ĠM ount
ot ic
Ġath let
Ġsurpr ised
ath an
Ġdat ab
Ġen h
Ġlist ed
Ġdist ribution
Ġfor t
M ost
Ġbeg ins
g ent
ĠCol umb
ĠG M
Ġappl ied
Ġconsequ ences
ĠC NN
Q u
Ġsp ons
it ors
Ġthreat s
ĠJew s
k ay
ĠA ff
semb ly
ĠWe ek
Ġoff ense
u y
ĠRom ney
Ġrem ark
Ġsong s
Ġrep resents
Ġp ra
Ġat mosp
l aw
w ord
ri p
Ġch art
Ġwith d
Ġr ide
Ġadd s
8 5
Ġmov es
Ġb ot
ĠBl ue
Ġimpro ved
ĠA T
Ġsh ots
w hel
ĠDe velop
Ġbehav i
Ġp hen
ĠH en
C an
Ġal t
om in
Ġf ill
Ġbr ings
ĠV ol
Ġa f
Ġgu ilty
Ġpus hed
ed y
ĠN BA
Ġwar m
Ġout put
Ġfl ood
ac le
ocrat ic
Ġro w
Ġal cohol
Ġst ood
Ġ3 3
ĠIS IS
ĠT O
Ġboy s
Ġsub scrib
ĠB razil
ĠBar ack
ĠSw ed
Ġtot ally
ĠK im
Ġdem ocracy
ĠDe v
Ġmanufact ure
Ġlaws uit
Ġst orage
ĠOn ly
Ġrece iving
ĠI reland
Ġdiscuss ed
Ġent ry
Ġhistor ical
Ġt rib
Ġrestaur ant
Ġs ought
The n
Ġent ered
t witter
ĠBo ard
Ġr ising
Ġre in
Ġconsist ent
Ġconf ig
ide o
Ġcomb ination
Ġcreat ive
Ġbut ton
ird s
Ġbr ight
Ġ200 2
Ġsuc ceed
Ġsc ored
Ġcor respond
m es
Ġclass es
Ġ3 00
Ġnet works
Ġart icles
Ġsymb ol
Ġin put
Ġplan e
Ġunlike ly
Ġis land
ic ian
ĠP rem
st ood
Ġinvest ors
Ġl ie
Ġfun ctions
Ġheav ily
Ġhead s
Ġrough ly
Ġsa v
f ortunately
ĠMay be
Ġn ative
ic ious
al ty
Ġexist ence
ĠL ib
d is
Ġfair ly
ĠW alk
ard en
Ġtemper ature
ic an
ĠSt r
Ġsqu are
Ġdeath s
ĠIt s
ĠM s
Ġl ock
Ġcont est
ĠAn other
ĠW he
ĠAs ia
Ġpl ot
Ġb oss
P U
Ġcolle agues
ĠB ob
us al
iss ions
Ã ¶
Ġtarg ets
Ġres ident
ĠKore an
' ,
Ġres c
Ġconsum er
Ġstr ing
Ġr ally
Ġyoung er
Ġb ike
Ġpar liament
A dd
Ġch ain
Ġk it
Ġl ibrary
ĠS ports
Ġc ere
du c
ĠS ky
Ġimport ance
ok ed
Ġany where
Ġpro hib
Ġbre aking
Ġman age
ĠC ub
Ġstore s
Ġexpress ion
Ġbu ying
z ona
ĠCl ub
M an
O b
Ġwas te
Ġwar ning
Ġprot ests
Ġclass ic
i i
Ġdef ined
and al
Ġgr ab
Ġbl ow
Ġsy m
8 6
Ġadult s
S ee
Ġs now
Ġsch ol
olly wood
Ġsh if
Ġill ust
Ġl inks
ĠE ach
Ġf raud
ĠH ist
O C
p ret
Ġto w
Ġfac ility
Ã ³
Ġhard ware
ĠR am
Ġmarket ing
b orn
op y
iqu es
ere nces
Ġalleged ly
Ġrepl aced
Ġhouse hold
Ġregul ations
p ress
Ġ3 7
Ġcur rency
ag an
ĠColor ado
Ġsome what
Ġdo ctors
on na
ĠD iv
Ġess ential
Ġb on
Ġem pt
Ñ ģ
Ġfav our
Ġhold s
p ower
en a
ock et
w est
Ġprom ise
Ġr um
Ã ¼
P ol
Ġl augh
Ġopp osite
ch o
ĠYou Tube
ĠR ights
ĠBro ok
Ġh at
Ġmot ion
ĠB oy
ter ing
Ġn av
ĠF ar
Ġact s
ĠIm age
Ġcamp us
ĠD C
om a
Ġmom ents
Ġv ice
Ġvers ions
Ġopp onent
Ġd ownt
Ġbu g
etro it
Ġse es
omet imes
Ġrele vant
v a
Ġemot ional
Don ald
g ame
Ġcustom er
Ġs ick
Ġmet al
hip s
het ic
Ġindust rial
Ġz ero
Ġdiv ision
ol ve
Ġclose ly
Ġparticip ants
Ġb ag
Ġfew er
olog ist
Ãĥ ÃĤ
Ġto m
it tle
c hen
Ġhop ing
ĠAn n
Ġad m
Ġev olution
ĠY ear
N C
an ish
Ġmechan ism
erv es
ÃĥÃĤ ÃĥÃĤ
I R
ate ll
in em
Ġreturn s
ĠH ouston
ĠVal ley
al ian
Ġhard er
ĠG ra
ĠSov iet
Ġint ention
Ġacknow led
E n
Ġh ur
Ġext ent
ĠE lect
p an
p o
Ġvol unte
ĠG ames
om ing
Ġsy n
ul ous
I F
es c
Ġexcell ent
ig er
ĠW atch
g reg
m l
Ġcircumst ances
Ġis ol
Ġsqu ad
Ġkind s
n ame
st r
pr int
el lect
Ġf ashion
ĠW ik
Ġl ies
Ġauth ors
Ġimmedi ate
ï ¿
ĠE ric
Ġbat t
Ġg rown
Ġsuff ering
ĠM ot
ot al
ĠPut in
Ġm ine
Ġt iny
ke l
Ġ3 8
0 8
0 6
Ġfeat ured
ĠD ie
Ġdetail ed
Ġimm igrants
ĠA ut
ef ully
ord an
Ġche ap
Ġ4 9
ut ch
ĠE r
ens us
Ġme at
Ġfor med
or a
Ġcarry ing
ob b
ay ers
Ġter min
ĠI P
Ġdescrib e
Ġun us
ĠS ar
Ġrelationship s
Ġsign ing
ĠH ome
n ic
cer tain
Ġtr ick
Ġcompet itive
f riend
ĠPalestin ian
ĠG ar
Ġw ave
Ġfundament al
ĠH el
Ġstr ange
ĠCath olic
Ġtourn ament
Ġc razy
st yle
Ġw ins
Ġreg ional
oc key
Ġear ned
Ġact ing
Ġp ip
ĠW ay
Ġcy cle
ĠO F
Ġman ner
Ġdec line
ĠC y
ĠJes us
Ġgu ide
ĠL ord
O RE
b ar
Ġfrequ ently
Ġsh aring
Ġan cient
Ġem br
Ġw ire
P er
Ġinst ru
ĠC ard
Ġeff icient
ĠC IA
Ġcomfort able
r ison
ĠE conom
c hers
Ġown ed
rom e
ĠL ong
Ġpus hing
Ġcommit ment
Ġsk ill
Ġe gg
aw a
n am
Ġ3 4
Ġalong side
Ġart ists
Ġrepeated ly
Ġrefer red
ĠP S
u ated
Ġm outh
ĠE ll
ĠA L
u a
ĠR ight
an es
ĠN Y
am ily
Ġcontrovers ial
ĠDav is
% )
Ġfem in
0 7
0 9
ĠT op
Ġc ert
Ġ4 8
we ight
Ġattempt ed
Ġsche dule
D S
Ġsent ence
v in
ad el
Ġded icated
Ġupd ated
ce ived
x y
h us
ĠE nergy
Ġdes k
Ð ½
ĠC le
f oot
ĠO ld
Ġdep th
Ġcol umn
ph y
Ġup coming
um ber
F P
Ġstru ck
Ġstud io
Ġj ourney
Ñ Ģ
Ġreal ized
Ġr ing
Ġpre gn
Des pite
Ġrep ut
ĠD i
ri ve
Ġpl ed
Ġmed ic
ĠSu pp
ograph ic
u able
Ġvirt ual
iven ess
Ġk ing
ĠW ild
Ġwalk ed
Ġun iverse
Ġserv ing
Ġag enda
y ou
Ġpost s
Ġass ets
ĠW ars
u gh
Ġur ban
k o
Ġsu icide
T wo
Ġtarget ed
Ġover whel
Ġhot el
L ike
lud ing
Ġch annel
Ġsurve illance
Ġins pired
Ġnews let
Ġs ister
Ġwat ched
ĠChar les
ĠIn f
ĠAri zona
g or
Pe ople
Ġmain stream
Ġt ort
Ġopp onents
Ġs and
Ġchair man
Ġca using
iam i
Ġint ent
F r
ĠP y
Ġl iqu
ĠD own
Ġstre am
Ġlat ter
Ġfol ks
Ġknow ing
Ġus ual
az i
Ġsurround ing
ï¿ ½
Ġrem ote
Ġinf l
Ġord ers
b el
Ġappro val
al le
Ġobs erved
Ġd u
Ġsubs id
Ġh all
so le
ĠAg ain
Ġ7 5
Ġliter ally
ĠM en
ĠCru z
iz z
Ġbas ket
im ents
az e
Ġteac hers
Ġwin ter
at i
ĠDef ense
Ġexc iting
ĠT al
Ġsim pl
Ġprotect ed
ac c
ici ency
i pl
Ġform at
ab is
Ġcon gress
Ġprec ise
x ual
av or
ĠJ r
Ġdeal ing
ĠJ ava
ren ce
Ġnot iced
b urg
Ġf asc
Ġbat tery
Ġw al
6 7
Ġn arr
ĠCh ild
i ro
r ations
Ġsk y
Ġdeep ly
I nt
Ġs ending
ĠYou ng
p ost
Ġg ang
Ġfor th
Ġas ide
ĠT ay
Ġfix ed
Ġal ive
Ġcommunic ation
m un
b oy
Ġpass ion
ĠAr ch
Ġrequire ments
O r
ĠV an
onym ous
ens ity
Ġexpl ore
Ġe ating
w oman
r ors
Ġnar row
Ġmist ake
Ġw ake
all as
ĠP an
ĠEn ter
Ġ197 0
Ġproper ties
ĠW at
Ġprom ised
ĠM ax
ĠPol it
Ġswe et
ack ing
0 4
Ġne ut
et her
Ġris ks
ult ure
ĠBr ad
ĠF ort
Ġn orthern
Ġtest ed
5 9
Ġinvol ving
Ġex hib
Ġse lection
Ġd iet
âĢĻ .
Ġs ample
Ġwel come
Ġw age
ĠStep hen
M ay
Ġput s
Ġext ended
Ġdefe at
ĠK evin
Ġpro of
Ġcoff ee
Ġbl ame
Ġre ward
Ġvol ume
st one
ĠD etroit
Ġphen omen
Ġfl u
Ġrefuge es
Ġdestroy ed
as ks
ap se
Ġg od
0 3
Ġg ap
Ġterrit ory
ĠC ast
t a
Ġun employ
Ġhe ight
Ġany way
Ġd ry
ob ile
Ġapprox imately
Ġimp ressive
ĠF il
Ġra pe
Ġun known
Ġw est
Ġselect ed
ger y
Ġcr ash
um s
ar ry
ang es
Ġmax imum
Ġrequ ests
Ġattack ed
Ġmere ly
Ġloc ations
Ġfranch ise
ĠP R
ĠM iller
ing u
Ġdis ag
l ist
Ġch ose
og an
ĠW omen
l v
i xt
Ġprom ote
Ġshe l
d ro
Ġsh o
Ġslow ly
ĠWil son
Ġprot esters
ig g
Ġsudden ly
Ġteac her
Ġtyp ical
Ġproper ly
ĠM ic
ĠC amer
or ation
Ġcon ver
Ġret ire
ĠIn s
Ġass ume
ĠCl ass
0 2
Ġob lig
Ġmat ches
as er
Ġwor ried
Ġall ies
Ġpro te
Ġlic ense
a o
Ġab ortion
Ġmod er
f ire
ĠT it
Ġf uck
R el
Ġterror ism
Ġe ast
ow ered
Ġarg uments
uild ing
Ġw id
Ġdisc over
ins on
g ender
ĠL u
Ġconf ront
Ġad apt
Ġsupport s
Ġrecogn ize
ver ty
Ġsust ain
Ġthem e
Ġequ ival
Ġfac ilities
Ġnom ine
al o
m o
os is
ĠSoc iety
Ġobtain ed
ĠIt aly
ĠH ollywood
Ġde als
l ies
ĠD am
Ġfe es
V ER
Ġpo verty
ĠAg ency
ax y
Ġvill age
Ġp al
ar ity
6 8
Ġ Î
Ġtop ic
Ġso le
Ġcrit ics
it arian
ĠB est
Ġr ub
Ġp ed
Ġunder stood
ĠAd minist
Ġcontro lled
ĠComp any
ra id
oc ation
ĠF ord
c ript
ce ler
Ġstrong ly
ĠJer sey
ig ure
ĠF our
T e
Ġpun ish
Ġexp osed
Ġst im
Ġcommunic ations
Ġsche me
Ġlim its
Ġdi agn
red it
Ġsome how
ĠL abor
Ġlik es
st ers
Ġd ress
Ġb id
Ġtrans p
Ġreg ions
J ohn
Ġjournal ists
Ġev il
Ġb unch
ĠCar l
Ġdr ag
ll s
Ġch ampion
Ġhon or
Ġresist ance
au g
ĠN HL
Ġtr uck
ast s
GB T
ĠGeor gia
Ġconst ant
ĠNAS A
rim ination
Ġesc ape
h an
Ġemploy ee
Ġperson ally
Ġcond em
ĠN ight
Ġhar ass
in er
Ġprof it
c ow
ĠL and
ĠSt and
ĠNet work
C A
Ġph ase
ad s
Ġdec k
Ġpoll s
Ġcompar ison
Ġbe ar
em s
ĠD un
5 7
if orm
Ġsome where
nes ota
ĠTur k
Ġin qu
end ers
p ool
w an
ci ples
pect ed
ort ed
ĠL ove
Ġfall ing
c ers
ow a
Ġs outhern
ĠO k
ick en
Ġdec ent
Ġempt y
z ens
ost er
Ġem issions
ĠV iew
Ġdirect ed
Ġencour age
Ġ3 9
ĠT urn
ĠC am
or ic
Ġh its
p es
C om
ĠC D
Ġp ic
ĠK n
Ġdefin ition
Ġf lex
int end
Ð¾ Ð
ĠSp anish
Ġwin ner
ĠD aniel
ĠB ell
Ġmeet ings
ĠE nd
Ġben ch
Ġch osen
ig ation
Ġcomp rom
Ġstret ch
Ġoffic ially
Ġstrong er
Ġgot ten
r ary
Ġvac c
Ġcut ting
Ġtre es
ĠM iami
a un
Ġdatab ase
Ġdes per
ĠAs ian
ĠDes pite
Ġsp in
Ġelectric ity
Ġamount s
U R
Ġde leg
Ġext ensive
Ġpurp oses
Ġth read
Ġan x
Ġint ellect
Ġs oul
Ġfif th
Ġdevelop er
Ġide al
Ġgood s
ĠD NA
Ī Ĵ
Ġt ies
Ġfind s
C E
Ġcho ices
Ġsome body
An y
r as
Ġeng age
Ġcol on
Ġre tain
Ġdri ven
Ġclaim ing
ĠJ ordan
ĠTh ough
un ning
Ġtrad ing
ĠAtt orney
Ġb le
ĠN ations
ĠTh ank
Ġcapt ured
Ġdog s
Ġd rawn
as ters
ĠD ar
Ġend ing
Ġreason able
Ġp od
M L
Ġpay ments
ur a
Ġf old
a ire
Ġprim arily
ow ed
ĠServ ices
Ġthreat ened
Ġpark ing
Ġrul ed
Ġpar am
Ġs ight
Ġinc l
â ĸ
ĠAc adem
ep ing
Ġaspect s
Ġansw ers
ĠG all
Ġreject ed
Ġse ats
ir ms
C S
Ġconst antly
ĠH un
ĠD ark
ĠDis ney
Ġperfect ly
Ġelse where
Ġdist inct
ĠScot land
ĠMo ore
Ġad mit
Pol ice
Ġr ig
ĠIr ish
Ġf ighters
ĠSe a
Ġpay ment
Ġr ival
ĠC at
f ast
ld er
Ġt ur
Ġtechn ologies
Ġany more
m od
Ġnarr ative
ĠRe al
Ġestim ates
Ġcour ts
ĠU t
Ġsol utions
Ġf lying
7 8
Ġresult ing
Ġb oot
ĠO S
Ġcomp onents
Ġenem ies
Ġreg ularly
Ġconst it
Ġact or
Ġfield s
O nce
ĠS k
s m
ian a
Ġ icon
Ġprov ince
Ġaw esome
Ġenc oun
Ġno body
Ġworld wide
E W
ĠB ru
se ll
reg on
Ġlet ters
Ġlo an
Ġcontrol s
ap es
Ġmix ed
Ġcoal ition
in ations
ĠW ater
se a
Ġout come
Ġhous es
ag ram
ĠT w
Ġ4 2
ĠL ight
on ic
e z
ĠB as
S ec
Ġconclud ed
is an
im p
ĠM S
Ġcontribut ed
Ġcont em
s hip
Ġsit uations
Ġm urd
." [
Ġap artment
Ġt ank
ot es
3 00
Ġprof ile
ĠSte ven
Ġfound er
Ġmay or
< /
r ates
ear ing
ĠB rian
ic er
Ġsign al
Ġex ists
ĠL ew
Ġemploy ment
ĠVict or
Ġbre w
ĠR og
l ock
ĠAd am
Ġtick et
v y
Ġbase ball
Ġinform ed
ĠConst itution
Al so
Ġaccur ate
in ity
Ġkeep s
Ġincred ible
ĠIt alian
Ġgener ate
ĠA uthor
ĠCh ampionship
the re
ot ten
Ġun p
Ġatmosp here
Ġcontin uing
ĠW here
Ġra ising
ĠOr gan
Ġcon ven
Ġt ied
Ġcl ients
ar on
k er
Ġwe ird
Ġcateg ory
adel ph
if er
c r
ĠS outhern
Ġcons cious
Ġang ry
ĠI d
ack ed
il arly
ĠCon f
Ġinf ect
ĠC ross
Ġdem ands
Ġregist ered
Ġmach ines
Ġcru cial
Ġg aming
Ġrout ine
ĠC ivil
Ġprov ed
5 6
Ġinn oc
M P
Ġst uck
Ġfeed back
D r
Ġbill s
Ġincred ibly
Ġpl astic
Ġk il
ĠJose ph
T oday
Ġter rible
r age
9 8
Ġent hus
ĠTh anks
ĠD allas
Ġwrit ers
Ġnew ly
Ġdo zen
ind ing
ĠSp ain
Ġ %
ĠB owl
Ġest ate
ific ations
al i
ĠT em
Ġcomp ens
ĠA R
Ġprogram ming
Ġman ip
Ġconclus ion
Ġst ead
Ġu pper
Ġconsum ption
ri a
ry pt
Ġrep orter
Ġret urning
adelph ia
Ġaggress ive
Ġs atell
Ġorig in
Ġassist ant
isc al
Ġg ro
Ġinter pret
Ġrepresent ed
Ġr us
Ġro ster
Ġorgan ized
Ġim per
Ġcount y
5 8
l ers
Ġex cess
L A
ĠMin nesota
M S
Ġcons pir
st ar
Ġpen alty
Ġmag ic
m ont
Ġdrink ing
Ġcompl aint
ann y
E d
gor ith
im a
ĠPro gram
em en
Ġexplan ation
ess ed
Ġpain t
n i
Ġassist ance
Ġcapt ure
Ġr u
Ġn ut
Ġch ances
ĠPar liament
ĠE p
ĠI T
ĠG i
Ġcompl icated
isc ons
Ġsh ares
ĠO per
B ecause
ĠRom an
Ġgr anted
ĠCont in
Ġ( $
iscons in
z y
Ġt all
Ġsuccess fully
ĠT est
Ġmy th
O ff
er a
Ġpil ot
Ġext ract
Ġaud io
es y
ĠC are
Ġhe l
ĠZ eal
Ġ199 9
ĠH ot
Ġha bit
the w
Ġveter an
ĠE duc
ĠF re
Ġlaw makers
re te
Ġtechn iques
Ġscen es
re p
Ġad s
Ġtast e
Ġoper ate
Ġaim ed
k ed
Ġacadem ic
he nt
Ġdeg rees
ĠW in
r ating
In st
anche ster
ch ain
Ġrec overy
Ġsym pt
Ġthe rap
Ġ iron
Ġeng aged
ĠN BC
id ency
Ġw estern
act ions
Ġpriv ile
Ġr ating
m al
Ġlawy ers
ĠO s
ĠFore ign
Ġteach ing
ab ama
Ġph r
Ġmark ed
it als
Ġro ot
Ġperman ent
Ġb om
Ġsurv ive
% .
ĠL ook
Ġant icip
Ġdoll ar
f rom
Ġatt ended
Ġdownt own
Ġ5 5
Ġpass es
Ġacc omp
u an
Ġt aught
Ġmon it
Ġen able
ever al
a ed
ib ilities
ĠPac ific
Ġbl ocks
Ġautom atically
ĠSen ator
Ġext rem
Ġdep ending
Ġequival ent
Ġd uty
ĠS C
ĠLin ux
Ġph ones
ĠB usiness
Ġcomp re
==== ====
r ific
Ġwar ming
Ġsuff icient
Ġel ite
Ġh idden
Ġch ampionship
u ine
it ar
Ġ6 4
Ġtit les
Ġinst alled
Ġreput ation
H S
act ive
Ġp ace
Ġf ake
Ġval uable
Ġind ex
ĠN ick
Ġexp osure
Ġsol ve
ĠA venue
Ġenjoy ed
Ġvis ited
Ġd ict
Ġcollect ed
Ġprin ciples
atur ally
Ġc up
Ġnegoti ations
ĠB ull
Ġperson nel
Ġgener ated
E A
ĠSpe cial
Ġvulner able
Ġun certain
Get ty
ind er
Ġregard less
Ġover se
Ġadv is
ĠC all
re ams
b ro
Ġp in
ĠT ake
Ġe lev
mon th
b al
ĠL GBT
Ġmain ly
Ġdis aster
Ġc able
ĠTay lor
Ġ1 50
ĠAn th
9 7
ĠMos cow
qu arters
Ġdef ence
Ġrec ording
Ġrac ial
Ġwork er
Ġb es
Ġch at
Ġ6 5
ĠA h
Ġp ounds
ĠK elly
Ġpattern s
Ġsh it
ĠSt ill
Ġbus y
Ġposs ession
Ġap olog
Ġport ion
Ġaf raid
man n
ĠG er
d a
ĠJ osh
Ġengine ering
Ġcom ic
or ne
ĠCo ast
ul es
Ġint ense
Ġgr ant
Ġsur gery
Ġins pir
Ġprocess es
il er
ĠE astern
ĠV iet
ĠC oll
9 6
ĠSer ies
Ġprom inent
th is
et ary
Ġbit coin
ĠT ony
Ġfun ny
ath y
Ġg all
ĠN ation
) )
Ġunus ual
H A
ĠR ay
rap h
ĠM ars
C ol
Ġent it
P r
Ġdescrib es
as hes
Ġth in
Ġtrou b
Ġprop ag
Ġcry pt
âĢĻ ,
Ġtrack s
re f
Ġtax p
Ġemer ged
Ġresult ed
ĠIn vest
ĠA D
ĠK ent
w orld
f all
Ġcontract s
Ġf ought
Ġm ail
Ġcor ruption
y e
pr ise
Ġsan ctions
Ġhad n
ĠZeal and
Ġcompet e
Ġ4 00
Ġco ordin
ĠI owa
ĠH om
Ġfeel ings
Ġbr ut
t es
ĠC ome
M ean
he rent
ĠO regon
ĠK urd
l og
Ġst ations
Ġne uro
ĠR ick
Ġrec ru
Ġdisc ipl
Ġevery where
Ġminor ity
Ġd im
Ġbl ind
Ġadop ted
Ġrare ly
f ront
m aking
Ġf irms
ĠPol icy
ĠL o
idel ines
og en
g un
c les
R ec
Ġ âĢĻ
Ġsp r
ic ate
b a
ĠB alt
ĠA li
Ġexpl icit
Ġrec ip
Ġfin ance
Ġc ited
ĠV eg
Ġadvert ising
ĠN orthern
ĠPhil adelphia
Ġext ension
if ies
v iously
Ġstr ict
up id
or ough
ĠDe ad
Ġshort ly
ol t
ur rent
Ġen orm
Ġexpect ations
ĠM u
ĠGree k
sc ape
ĠBe fore
Ġcamer as
Ġimplement ation
re ll
Ġthous and
Ġl oud
Ġth ick
ist ent
il ton
Ġve get
ant ic
.... ....
ĠN avy
AT E
Ġh o
iz on
ĠF ood
Ġsu p
Ġv en
Ġin ev
Ġbr idge
Ġaff ili
el and
Ġphot ograph
ĠL ive
Ġmed ium
Ġlight s
Ġscen ario
c us
Ġm el
+ +
cl ing
ask a
Ġprior ity
Ġvis ible
Ġag ric
Ġal gorith
E P
e lect
Ġob st
ink ing
ĠF oot
: :
ã Ģ
ĠW isconsin
Ġparticip ate
Ġdo zens
Ġbasket ball
C o
Ġprinc iple
Ġcreat es
as ion
Ġun w
ĠO l
Ġw ing
Ġper mission
az z
Ġt or
Ġcomput ers
L C
Ġpl ug
Ġcoun sel
Ġac celer
Ġbrow ser
Ġloss es
7 6
wh o
Ġhistor ic
Ġla id
ĠAm endment
og ether
ĠGl obal
5 4
ĠH as
Ġcann abis
ĠDevelop ment
ob s
Ġsh ock
B O
ig en
at hered
prof it
Ġbeh alf
Ġstrik es
Ġform al
ĠM ajor
ĠAs h
ĠKing dom
Ġwonder ful
M ar
ĠS af
Ġestablish ment
f ound
Ġto ler
te xt
ab s
ĠKe y
Ġt ag
5 2
ĠP ay
Ġb orrow
Ġsc oring
ent h
Ġun com
ĠHen ry
Ġ4 4
am ber
ĠTh us
c ar
le te
et ime
Ġclub s
we et
5 1
Ġfound ed
U s
Ġfound ation
ĠH it
y stem
Ġg ained
Ġfe e
ĠG reg
ĠE SP
Ġmanufact uring
Ġj u
ili pp
Ġinter face
Ġjournal ist
Ġg ift
Ġgen uine
ĠAl abama
rat ors
j o
ĠO ak
Ġrel ief
U L
Ġair port
Ġre ly
epend ent
r ative
Ġh ole
ĠS n
Be fore
ose xual
s he
u er
Ġcy ber
ol is
Ġrid ic
ĠR oyal
b ell
________ ________
N e
ar lier
Ġhead ed
Ġsa ved
Ġy ield
ĠA S
Ġwhe el
ĠH T
Ġwithd raw
S ub
Ġf ault
Ġban ned
Mean while
ĠR and
Ġfoot age
l an
Ġindic ate
a us
Ġcomp onent
Ġdraw ing
Ġcont aining
Ġdo ors
Ġpl ate
Ġst able
Ġmag n
Ġneigh b
ĠV is
Ġun iform
Ġrecogn ized
p read
ĠF C
ĠAcadem y
Ġstrugg ling
ĠS P
ĠM oh
Ġachie ved
P ost
ĠM id
um er
Ġsp ark
ĠS now
Ġr iver
op her
Ġsh ips
oun ced
u ce
an ing
port ion
ĠPrem ier
c ription
Ġ19 60
Ġdeli ber
um in
am i
ĠP oint
Ġback ed
ĠTh ree
Ġexcept ion
ĠF und
Ġp ump
m ate
Ġed ition
te en
Ġdest ruction
Ġneut ral
Ġsh arp
ĠRe view
Ġbelief s
ĠV R
ĠTurk ish
ul ating
Ġ- >
Ġlik ed
Ġmove ments
et ts
rou s
Ġ199 8
ides pread
Ġwall s
ĠF red
Ġ4 7
ou red
4 00
Ġh ired
Ġro les
ĠR et
Ġphilosoph y
Ġlangu ages
Ġleg end
Ġprodu cer
ĠAdminist ration
Ġb ath
Ġinterview s
c a
Ġto x
Ġprofess ion
ĠN ob
Ġst adium
em an
int erest
Ġar range
Ġh ang
j a
sy lv
AT O
ĠRep ort
Ġdin ner
Th ose
i el
os a
o en
bur gh
ĠMc G
Ġent ering
ĠO tt
u per
ĠCon ference
Ġch a
Ġg onna
Ġfl aw
ĠCent re
Ġnomine e
ĠK ir
ĠN ote
Ġredu ction
ĠAtlant a
ĠM anchester
5 3
Ġf inger
Ġa ver
ach ing
http s
Ġbare ly
is p
ĠDie go
% ,
Ġinc ent
ĠJ ason
Ġtack le
ĠJ ac
Ġstruct ures
abin et
Ġconv in
Ġ4 1
Ġsy nt
Ġdisc rimination
Ġfarm ers
Ġdeli very
im ore
ĠAr m
Ġc rop
t hen
ĠM ir
M e
Ġprocess ing
ĠRad io
ri ers
ĠF ield
P resident
ams ung
ĠO K
ĠD id
ĠF air
sylv ania
Ġup set
Ġchalleng ing
ĠD ata
Ġ4 6
ĠPer haps
aw ay
Ġintellect ual
St ar
ol en
ĠB ry
Ġrestrict ions
Ġe uro
Ġret ired
Ġelect ronic
Ġun ex
ĠN ic
Ġpro ven
h o
ri k
Ġ4 3
ĠF ed
ĠEduc ation
Ġfore ver
Ġcont ained
p age
Ġrapid ly
Ġreview s
Ġhit ting
Ġh ide
ĠR us
Ġindic ated
Ġo cean
Ġconv icted
ĠAb out
ĠN C
Ġepis odes
f r
8 7
ĠH or
Ġill ness
Ġprodu cing
ĠChrist ians
Ġsm ooth
sel s
ow ing
ĠH ay
R S
y ard
D av
Ġcorpor ations
us ive
Ġmil k
Ġl oyal
ay ing
Ġcl imb
Ġlist ening
i y
less ly
Ġut il
Ġro se
in f
Ġtick ets
Ġrecogn ition
Ġassoci ation
ĠRe uters
ĠA BC
Ġbeg un
Ġfl ash
ĠJud ge
Ġwebs ites
Ġas ks
Ġdesc ription
Ġtechn ique
ĠP en
ĠU FC
Ġnot ion
Ġb ra
Ġper pet
Ġ 00
ĠP ack
eng ers
enn y
Ġre n
Ġreach ing
Ġexclus ive
Ġm o
ĠK ansas
ĠHar ry
ĠS at
Ġsuggest ing
Ġprogress ive
ach us
Ġrob ot
Ġprep are
Ġb ail
ou ver
ion e
ud es
Ġfr ag
Ġhard ly
ĠR ose
Wh o
Ġex ceed
it i
Ġequ ally
Ġw idespread
Ġeth nic
l s
P G
Ġcampaign s
P M
p at
8 9
Ġiniti ative
L ook
Ġb urd
ĠMark et
Ġcont ribute
ik es
Ġbr anch
ĠMay or
Ġnorm ally
ĠC O
Ġex ternal
Ġsens itive
ĠR ef
b ec
ĠH ard
ĠL y
Ġgr ass
Ġredu cing
Ġunc lear
el f
l ad
Ġpract ical
ust ed
Ġrepresent ative
ĠF ull
ĠNe xt
um a
ĠC irc
app y
ĠArab ia
Ġcare fully
olog ists
ri ent
ou ch
ec ut
Ġrespect ively
U N
Ġfriend ly
ĠL uc
R ef
rat or
Ġw ine
Ġview ers
Ġcoll apse
ĠF urther
es ter
ĠB attle
Ġoverwhel ming
Ġconvin ced
im m
st ract
Ġwe lf
Ġconnect ions
Ġterror ists
pl oad
r ical
th on
ino is
Ġrac ist
ĠLat in
Ġinv ent
Ġrec over
arr ass
um es
ĠMus ic
ĠMcC ain
ĠBern ie
ĠBe ach
ĠS ir
he ast
Ġth rown
Ġt ail
Ġinvolve ment
ĠL ind
Ġstat istics
Ġindepend ence
Ġv ital
Ġsm oke
Ġh ook
omet hing
Ġfeat uring
Ġwelf are
Ġstrateg ic
Ġf iscal
anc ouver
ut ies
Ġv ary
ĠS S
Ġmind s
Ġsettle ment
M c
ned y
Ġcompl aints
w orth
igr ant
F A
ĠESP N
Ġfant asy
Ġscore s
ĠO nt
Ġan ger
d em
ro lled
Ġdev ast
Ġi OS
Ġinv ited
achus etts
Ġl ists
Ġdep uty
Ġjo ining
Ġst eal
Ġdeep er
Ġbehavi our
ĠPenn sylvania
Ġel ig
Ġowners hip
c ore
Ġschol ars
ĠD ig
Ġconst itutional
Ġw ars
if est
R I
Ġsu gar
Ġinvestig ate
ĠSqu are
ab il
Ġany body
Ġar ray
ĠA ND
ĠII I
Ġmen u
B ack
ĠG ov
Ġsubject s
Ġsc reens
ac on
ĠU lt
Ġtrans gender
Ġsc andal
ĠAnt on
ĠT enn
ĠP it
ĠX box
ĠDiv ision
20 14
ivers ary
ĠJ ay
Ġl obby
Ġl uck
b n
Ġc os
Ġt asks
Ġdem ocratic
Ġframe work
Ġimprove ments
Ġdef ine
ih ad
ĠT own
Ġunemploy ment
ĠSt one
Ġpe ak
Ġf ab
C he
os it
U nder
Ġin ject
Ġcompre hens
Ġrem em
Ġdisag ree
un ior
ĠBro ther
Ġf iction
Ġroad s
Ġcitiz en
e en
Ġcas ual
Ġal ien
ĠN SA
ĠL ittle
Ġserv es
Ġcontrovers y
Ġdisc overy
ĠM ah
ag g
level and
Ġfail ing
od ing
6 9
ick ing
ĠMin istry
Ġsam ples
ĠN ever
Ġdynam ic
ĠCamer on
Ġtest im
Ġg athered
Ġ199 7
Ġpro sec
ĠI ce
Ġj ury
Ġimplement ed
Ġfear s
Ġaware ness
Ġneigh bour
x x
Ġest imate
ĠH D
Ġs oph
S m
Ġcollect ive
ĠSant a
Ġt ip
ĠC ore
Ġrefer ring
P C
ĠIn formation
W ill
Ġrem arks
ĠE s
Ġreg ister
Ġtr ained
ĠMed ical
ĠSpr ing
Ġ199 6
Ġincor por
ĠK at
ann a
ĠO N
Ġs in
ĠPh ilipp
Ġhead ing
Ġcivil ians
ĠWalk er
Ġsp aces
Ġover t
Ġt one
Ġhand ful
ĠAll en
Ġtem porary
ĠA ction
Ġno ise
Ġw ages
Ġvers us
Ġreg ulation
Ġr ural
Ġplatform s
Ġst upid
Ġvisit ors
Ġacc us
Ġleg s
c ific
m ad
Ġrecomm ended
ty pe
Ġr aw
Ġatt ached
' .
Ġre ven
Ġcap tain
Ġi P
ĠPat rick
ick et
Ġext end
Ġdiscuss ions
Ġult imate
Ġattack ing
ir y
Ġhyp ot
Ġaff airs
ĠVeg as
Ġrep rodu
ĠCommun ity
ĠQue en
ang el
ĠAnth ony
ĠMat thew
Ġexpand ed
ĠColumb ia
Ġattempt ing
Ġgen etic
Ġtouch down
ĠP ent
m ary
ĠR oy
ĠR en
Ġign ore
h our
Ġsal ary
Ġhor se
all ing
Ġsett ings
inc luding
Ġr aces
Ġpublic ation
Ġthe at
ph ones
ition ally
ĠGuard ian
Ġtweet ed
ĠC ook
Ġc ogn
ĠB udd
are t
ĠM useum
c ase
Ġsympt oms
ĠM ake
Ġinter vention
Ġhol iday
Ġsuspect ed
Ġbr ill
ĠConserv ative
g ener
G O
ect ive
Ġg ear
Ġsuff er
es h
Ġing red
Ġlic ens
Ab out
Ġdis pl
Ġpurch ased
ult ural
Ġfact ory
Ġeas tern
âĢĶâĢĶ âĢĶâĢĶ
Ġw ww
" )
S en
Ġimprove ment
intend o
Ġrank ed
Ġentertain ment
Ġne ck
Ġenorm ous
A ss
Ġlegit imate
Ġview ed
Ġpres um
Ġact ors
Ġc ro
20 16
ict ions
Ġlog ic
ĠAl bert
Ġhuman ity
ple te
New s
ĠAust in
omm od
Ġro ok
Ġsubstant ial
ar ms
Ġâ Ĥ¬
Ġinvol ves
s erv
ĠMass achusetts
Ġfall en
Ġliqu id
Ġadvoc ates
Ġground s
Ġr ational
re c
Ġinvestig ating
ĠGree ce
Ġseem ingly
ĠAP I
Ġlay er
ĠB all
Ġbrother s
Ġout s
Ġabs ence
ĠB rew
Ġp apers
ov al
ĠHe ad
Ġres ign
ĠCh air
Ġtom orrow
ak a
ĠR a
ĠProf essor
? ?
Ġover s
Ġconspir acy
l ah
Ġb ureau
Ġmon itor
Ġlo ans
R C
ĠIran ian
Ġs orry
Ġdram atic
Ġres ource
ĠA cc
Ġd iversity
W here
Ġinvestig ators
p ed
r ine
re pre
G E
oty pe
Ġopin ions
ĠH o
Ġcele b
Ġsusp ended
Ġch apter
Ġprot ocol
R uss
Ġactiv ist
Ġprov iders
Ġmiss ile
Ġstay ed
Ġco aches
Ġbo at
Ġ201 9
Ġmedic ine
Ġf ulf
7 9
Ġb ars
ĠRev olution
Ġst ake
Ġj ur
ĠCont rol
Ġc oc
ist ing
ĠS uch
cl aim
. -
Ġg am
Ġam id
our se
ĠChe ck
Ġdis rupt
Ġaut hent
Ġpre ced
Ġoffic es
u ction
ĠIll inois
am med
ĠG aza
ĠS ony
P art
ĠHist ory
Ġemb arrass
ĠGold en
re ts
ĠA le
Ġfore st
Ġco vers
ĠC BS
ĠSh are
ĠH ospital
x it
ge on
repre ne
Ġp orn
we red
ĠP ot
iver pool
Ġconsist ently
Ġpre f
ĠR oss
Rel ated
Ġh am
ĠF amily
ĠA p
ĠKen nedy
7 4
7 2
Ġcare ful
co ver
ĠSt at
Sc ript
qu est
Ġhand ed
Ġcon ce
Ġread s
Ġmount ain
Ġatt itude
Ġwar rant
Ġtransport ation
Ġ5 2
i ability
ĠF reedom
Ġf ruit
m at
v ard
Ġprinc ip
Ġrefere nd
d it
Ġcol ors
Ġclot hes
Ġnot ing
Ġaddress ed
ĠSt adium
Ġpo ly
Ġlow est
ĠW W
Ġdep ends
ĠAnd erson
ĠV ancouver
Ġf oss
h ot
Ġvirt ually
Ġthrow ing
un es
ĠT ri
ĠSe ason
Ġent r
Ġguarant ee
Ġpet ition
Ġcl osing
Ġspeak s
B oth
Ġmin ing
d ri
b i
S te
Ġread er
Ġj e
! )
Ġhand ling
ĠMe an
" .[
Ġste el
Ġst one
m aker
F F
ien ces
Ġappreci ate
Ġbu ff
Ġtri es
in ch
Ġmar ks
ĠBro ad
Ġk m
am ac
ĠEng ine
Ġprof its
ic ity
z ed
Ġperson ality
il a
ĠC re
ĠB ang
Ġl ands
Ġcontribut ions
Ġhor ror
Ġg rav
rop ri
Ġconvers ations
d es
ĠEn vironment
Ġsur f
Ġjud ges
pp ers
fl ix
ĠC leveland
Ġspirit ual
Ġ _
ut ed
ĠBalt imore
Ġfant astic
ir a
ĠHar ris
ke ep
ĠT ro
ord on
Ġd rew
Ġast ron
ĠIraq i
ĠLew is
Ġh int
av al
Ġencour aged
iv als
Ġgu est
Ġdep ression
ĠB ad
ĠHow ard
u its
l ow
sen al
H er
Ġshould er
Ġg ains
ĠN ATO
Ġl ucky
Ġcover ing
ĠE xt
Ġte a
Ġinfl ation
ix ed
Ġacc ommod
Ġbro wn
Ġsubsequ ent
sc ale
Ġinc idents
Ġw rest
Ġsp oken
P lease
ĠP o
it ting
ĠMex ican
ĠInt elligence
Ġcon sole
ĠC A
ann els
Ġin ner
Ġdr ama
Ġpar alle
Ġr anks
Ġg al
ĠB a
ES T
Ġr het
Ġre vel
Ġsw ing
ab eth
ĠK ong
Ġper mit
Ġprem ium
ĠGet ty
un icip
Ġphot ograp
ij ing
20 15
Ġdist ributed
ĠL as
Ġtre m
port ed
ĠUn fortunately
Ġdiv ided
ĠPat ri
Ġprom ises
Ġb acter
Ġ199 5
Ġm aps
Ġc ust
Ġinnov ation
Ġport ray
ĠInd eed
Ġj oy
Ġd ump
Ġball ot
Ġeff iciency
Ġvot er
ed ing
N ote
Ġcl im
## ##
Ġspokes person
ĠS amsung
Ġd ance
pl ed
Ġtemper atures
p ie
Ġth rew
Ġl ocked
d ated
ĠSt art
Ġl ying
Ġimpro ving
amac are
ĠWh ich
Ġbar rel
ĠC H
Ġacknowled ged
Ġche cks
ĠWith out
ĠMar vel
Ġrespons es
Ġ5 1
he im
con f
Ġinstru ment
pl ate
Ġmist akes
Ġmat hem
Ar t
Ġreplace ment
ĠPl us
Ġsh out
Ġcom edy
er ies
ĠCon nect
Ġle ts
it age
Ġcop ies
P P
Ġy ellow
Ġcommon ly
Ġprotect ing
Ġbreak s
er ted
Ġmus ical
Ġhom eless
Ġl es
oun ce
Ġleg acy
ap ing
back s
Ġnom ination
Ġjo ke
S ource
Ġn aturally
Ġmeas ured
Ġpass engers
C ons
ar re
Y our
ĠFoot ball
Ġd iverse
ĠU se
od ed
Ġabandon ed
Ġstud ied
ĠM oon
ĠD et
ĠB uff
Ġprote in
Ġbl ast
8 00
ĠL yn
ĠA I
Ġst olen
ĠA C
al ia
ĠM arsh
Ġm ad
Ġsc an
Ġpl ain
Ġfund ed
Ġacqu ired
Ġso il
Ġord inary
Ġm arch
iet ies
Ġ( âĢľ
ĠN OT
Ġhead quarters
B M
Ġdemonst rated
ĠAtlant ic
Ġsil ver
Ġsc ope
ĠPr ince
h op
ĠN ev
est y
Ġliter ature
Ġreferend um
Ġpartners hip
Ġass ert
y o
ĠA ud
d og
aw are
Ġin equ
arg o
Ġcount s
Ġex it
Â Ĵ
Ġcl ock
6 3
Ġconserv atives
Ġhelp ful
US T
Ġfall s
Ġupgr ade
ĠC ost
Ġarri ve
Ġ199 4
Ġst ages
Ġcom pe
Ġmid field
y er
Ġwat ers
in ction
Ġsy mp
ĠT rib
ĠDo es
ass ador
Ġign ored
hes is
ĠM aster
hel sea
Ġd ad
lah oma
Ġtw enty
ĠB ron
ĠG un
Ġr if
Ġt ape
et ers
h igh
ĠH ind
Ġf estival
Ġre ar
ct ic
Ġr om
Ġcap abilities
er g
Ġf ro
Ġgr id
ĠS cient
br idge
V E
Ġr amp
ecut ive
ĠD ave
Ġske pt
ing ton
ĠP op
ĠEm pire
aed a
Ġassess ment
ĠAb b
Ġus age
Ġun ions
Ġsho pping
en cing
Ġst y
z ing
Ġdist ract
Ġhop ed
Ġunivers ities
Ġtrans actions
i ate
ĠDe ath
d oor
ugh t
Ġrepresent ing
F acebook
ĠIndian a
or ge
Ġpropos als
com es
ĠPro v
6 2
ĠR os
Ġ20 20
Ġt ie
ĠS et
ĠA st
Ġcritic ized
ĠB ureau
Ġa x
E E
Ġconvention al
el a
ack et
Ġh ung
orm al
Ġtrack ing
Ġm oon
Ġmonit oring
sh ire
nt il
ĠS ometimes
Ġins isted
ĠS us
Ġrel iable
on ly
ĠL ine
r ite
Ġtr ave
AN D
Ġappear ances
Ġrat io
f und
Ġconc rete
d ney
Ġrepl ied
Ġintrodu ction
ag ic
r imin
ĠE ag
om es
6 1
c ut
Ġvir us
Ġappoint ed
R L
Ġex ch
Ġrece iver
Ġperform ing
or gan
Ġclass ified
Ġblock ed
oc ument
**** ****
ĠTechn ology
h ar
Ġrac ism
ĠH a
ĠHe ll
Ġbeaut y
c rib
Ġvis iting
m ade
ĠGal axy
ĠPort land
ĠUt ah
ile y
j i
ĠC ode
K e
Ġsupp lies
Ġprogram me
Ġaccompl ish
the less
ĠT our
ĠDen ver
Ġdef icit
ag a
Ġgu itar
Ġsw im
ĠC apt
Ġlet ting
Ġdom ain
ĠL A
Ġre nder
Ġpres idency
N S
ĠA ge
arch y
Ġb ub
Ġdismiss ed
H T
Ġh ockey
Ġdro ve
Ġaut o
Ġm useum
ĠSwed en
Ġcan ce
Ġbon us
ac co
pl us
Ġabs or
Ġab road
Ġwar n
ol ph
ĠAssoci ated
ĠOr ig
ĠJ am
Ġsen ator
m ony
Ġpredict ed
Ġrequest ed
ĠCor por
Ð »
Ġland scape
Ġart ific
ĠP ass
Ġpers ons
Ġrock et
ir ts
Ġtestim ony
ult ane
Ġb read
Ġspokes woman
Ġtrans it
f ol
ĠâĢ Ŀ
Ġsequ ence
ĠFr ont
Ġcongress ional
Ġe c
Ġentit led
Ġd ust
ĠN intendo
ian o
Ġd ub
Ġd ates
Â °
Ġdocument ary
Ġv es
a is
Ġur ged
Ġtrig ger
Ġhy per
Ġresc ue
ĠAlex ander
Ġcl ar
Ġveter ans
ĠOnt ario
9 4
Ġequ ality
9 3
Ġw ider
ĠL ow
pt on
Ġbreat h
Ġrec all
ĠOlymp ic
Ġwhen ever
Ġviol ation
Ġcent ers
ĠâĢ ¢
St ill
A re
k ing
Ġass ign
ĠB on
Ġs alt
7 3
ĠCo oper
Ġp atch
Ġac id
Ġpop ulations
room s
Ġpolit ically
ĠM ach
th rough
Y et
iz abeth
ĠF orm
Ġpurs ue
Ġtact ics
enn is
in ating
9 2
Ġrestaur ants
u h
7 1
Ġcont rad
Ġtarget ing
Ġsurv ival
ĠB ible
d on
Ġemploy ed
ĠK ar
Ġf iring
ĠM ill
Ġcomp are
Ġsatell ite
Ġexper iments
ĠRober ts
ound ing
the y
or ous
j ud
ĠG irl
C omp
6 00
Ġsoc cer
Ġbank ing
Ġbrill iant
Ġm ole
ra pped
af e
m ans
Ġw edd
Ġch annels
ĠJust in
ĠBe ijing
is ons
ĠP D
Ġrat ings
Ġappro ached
Ġphr ase
ene z
O K
ord inary
Ġab ilities
Ġintrodu ce
ĠC ro
a ver
Ġtit led
at ar
Ġinvestig ations
Ġprison ers
f are
ĠBr idge
Ġpip eline
Ġmembers hip
Ġser vers
Ġh osp
usal em
ol ves
ĠA ward
Ġdesign s
ĠAd v
tr ans
oen ix
Th ough
Ġretire ment
Ġscient ist
ĠW H
Ġsub mit
Ġm it
Ġqu ote
Ġc ul
" >
Ġpopular ity
Ġmonth ly
ĠS om
ĠH ur
b ow
Ġch icken
ĠB ra
Ġfocus ing
Ġb ab
Ġp ig
C O
Ġsh adow
er ts
ent er
Ġrepresent atives
ĠW as
p a
Ġpre par
Ġsa ving
Ġchild hood
Ġarg ues
Ġth orough
ĠV ill
ĠB ase
w as
em ed
ĠL ist
ĠL iverpool
Ġfore cast
Ġc ig
eder ation
Ġt ips
Ġr ush
Ġact ively
Ġf ighter
Ġunex pected
Ġobject ive
Ġdemand ing
Ġent reprene
Ġsm ell
ĠGovern or
Dav id
ast y
ĠMary land
w alk
S L
old s
ĠT ed
min ute
Ġke ys
ou ri
Ġinnoc ent
Ġden y
ĠOb amacare
Ġlo ose
Ġoverse as
Ġprep aring
Ġgener ations
Ġsh ame
Ġphenomen on
Ġsett led
Ġanx iety
ĠD utch
Ġsm oking
ĠH ave
ĠBe ck
m ers
ber ry
Ġlegisl ative
Ġcelebr ate
Ġsmart phone
bre ak
Ġweek ly
Ġunivers al
Ġfl ags
ĠD O
Ġquestion ed
ik i
ĠHar vard
D em
Ġsh ield
Ġfor cing
Ġprodu cers
ĠU r
Ġarg uing
Ġdead ly
omp son
ĠC lick
ĠC ow
Ġ9 5
ĠDes ign
d ed
Ġbroad er
a a
Ġprov ision
Ġbut t
ĠY OU
Ġdist urb
ĠAm ong
ocol ate
Ġmort g
Ġre verse
Ġwealth y
Ġsecond ary
Ġsure ly
el son
8 4
he ld
ĠEd ward
Ġt ens
Ġ5 3
ĠH op
o z
Ġar bit
Ġun pre
is a
ĠP A
Ġann iversary
Ġmaintain ed
Ġwe igh
Ġst ability
Ġal arm
Ġf ool
ht ml
Ġsav ings
S im
Ġf ur
Ġm os
Ġcivil ian
ag h
Ġ ~
m ind
Ġrel ax
Ġpropag anda
ĠA k
ĠLe ft
ir lf
Ġencoun ter
ore t
Ġrele ases
re ction
vern ment
Ġprosecut ors
ĠR un
Ġharass ment
Ġreve als
Ġout rage
Ġdifferent ly
Ġmin i
Ġm ac
o is
ik a
Ġqu oted
Ġthreat ening
Ġs orts
ĠWar ren
est ed
av ed
irlf riend
Ġton ight
Ġhealth care
E l
Ġsub mitted
in als
Ġf ate
ĠOk lahoma
ĠPro p
Ġsh r
ĠBel g
Ġ199 2
it ary
Ġo kay
it ter
Ġodd s
Ġl unch
Ġst ored
Ġro of
Ġreform s
Ġroom s
ic ism
Ġwind ows
ĠRub y
Ġt ab
ĠH on
Ġsil ence
Ġp icks
ĠG ulf
ors hip
Ġde lic
Ġp uzz
Ġgrad uate
â Ķ
ĠEx pl
Ġse ar
Ġsp ots
Ġcooper ation
ĠLiber al
G A
ĠCar ter
Ġdis order
Ġex ha
st ep
Ġtort ure
Ġafford able
Ġer rors
Ġa er
ĠLe ader
Ġposs ess
Ġinstruct ions
ail ed
act s
Ġse vent
ĠF all
Ġround s
Ġcere mony
l ined
Ġpers u
ĠSar ah
Ġstrik ing
Ġcirc le
is k
or ious
Ġhy dro
ĠP erson
ĠBl oom
ut en
r ace
ish op
Ġstrugg led
ĠViet nam
Ġcomprehens ive
ĠPr ice
ĠW olf
ĠGra ham
ten ance
Ġdifficult y
Ġg ent
Ġag es
Ġexec ution
Ġh al
8 3
Ġstre aming
W atch
Ġimportant ly
ĠS ab
Ġc ow
as ury
Ġpr on
Re uters
Ġal ter
ĠSt ory
Ġint im
Ġdemonst rate
ĠJer usalem
Ġass ass
Ġdes erve
Ġcons ent
ĠInd ust
Ġdist ingu
Ġche st
ĠB ud
ĠScott ish
ĠNet flix
Ġf ing
om y
ĠL t
Ġgreat ly
ier ce
et he
Ġassum ed
ah u
Ġcal m
Ġaut onom
T y
Ġste pped
Ġrook ie
as ant
Ġprecise ly
Ġd ying
Ġcont ribution
Ġpoint ing
Ġland ing
ĠSil ver
Ġarchitect ure
ov a
ĠV ice
Ġb orders
it ol
ĠT en
Ġdial ogue
Ġinter f
Ġtrem end
ĠM ain
se ct
b ury
ĠDe b
ĠH ong
Ġaward ed
Ġdon ations
Ġprom ising
e als
ĠTe ch
ĠTe le
Ġrepe at
a fter
Ġdri ves
Ġadv enture
Ġkil omet
Ġsim ultane
st al
Ġconsider ation
Ġanaly st
Ġw aves
Ġnewslet ter
ĠP res
part y
ĠPalestin ians
ie v
Ġwant ing
ĠMean while
ak h
row s
ĠA z
T P
Ġproced ure
E X
cept ions
Ġinf o
St ory
Ġb urning
Ġtr illion
Ġb irds
Ġâ ĪĴ
Ġg if
Ġwhere as
ater n
Ġexecut ives
F O
Ġplayoff s
ĠM ORE
Ġbi as
Ġvo ices
es see
r if
ĠMag ic
op en
Ġstrateg ies
Ġstay ing
scrib e
ra ig
o ice
Ġkn ee
St ep
V D
Ġhighlight s
Ġremark able
it ual
rib utes
ĠL ink
Ġfrequ ency
Ġsuper ior
d iv
Ġst em
Ġt iss
Ġimpl ications
Ġan s
ĠAnd re
Ġf et
ĠBru ce
Ġfollow ers
ĠSy dney
ap olis
hold ers
ĠJon athan
ll a
Ġaccess ible
Ġform ation
ond er
Ġjud gment
Ġcontact ed
ann on
Ġspe ll
ĠE ff
le e
y es
ig ious
Ġinc hes
V iew
Ġsem i
ĠComm on
Ä ĥ
vertise ments
Ġcr imin
iz er
Ġrec ipe
ak i
v ision
h att
Ġw ounded
Ġph arm
Ch rist
Ġsm ile
b ered
om ed
Ġman aging
Ġindic ates
port ation
Ġco inc
Ġl apt
Ġphys ically
ĠY emen
Ġgu idelines
Ġemer ging
iff s
ĠS ix
Ġcre am
Go ogle
Ġmeaning ful
Ġtri als
ĠBer lin
ere nt
Ġr iding
Ġcateg ories
Ġop ens
Ġmarg in
s l
M s
M us
Ġcent uries
Ġdefe ated
Ġgr ade
ch ild
Ġmem ories
v an
ar ia
c est
Ġre vers
ĠAr k
ĠCap ital
Ġclot hing
Ġe ase
Ġ1 20
Ġass igned
T ER
ĠHam ilton
ĠC redit
ced ented
ĠAff airs
ĠT es
ĠG T
Ġparticip ation
ĠH old
Ġg ross
j s
Ġcompet ing
Ġmin istry
Ġthe ories
Ġcons ensus
Ġpass age
- >
ĠMr s
Ġhost ed
Ġdisp ute
9 1
b ase
ĠC S
Ġ5 4
ĠSt ore
ĠBre xit
Ġ199 3
} }
Ġb in
Ġpromot ing
Ġdam aged
ĠInst agram
Ġbl ank
ĠL am
um ble
Ġeduc ational
Ġopen ly
b its
a uthor
ĠCr ime
e ven
Ġfac ilit
ĠD er
O ut
con st
Ġinvest ments
Ġpo ison
we ek
Ġdr one
Ġdis h
s es
P re
H z
Ġleg ally
ĠV ik
Ġn in
Ġaddress es
Ġins pect
Ġ19 50
ig ate
Ġag ed
AL L
ĠChild ren
Ġelig ible
Ġclin ical
ĠHaw ai
i ac
er ia
Ġ2 50
it o
ĠP ict
ere my
Ġsubst ance
Ġdisc ount
ar ation
h ard
Ġn ic
ĠAs sembly
mark et
Ġchar ity
Ġcust ody
Ġman ifest
Ġfoss il
ĠM etro
ac hel
art s
Ġmiss ions
Ġ ?
Ġspect rum
Ġend orse
Ġhe lic
Ġmem o
le ft
Ġt ables
ĠLe on
Ġfund ra
Ġenh ance
ĠMan agement
Ġtherap y
Ġg ate
Ġstud ying
Ġsuspect s
Ġenthus i
ĠC helsea
Ġt ired
ĠTr ade
Ġcounter part
8 2
ater al
ĠB al
ad i
Ġathlet es
ge red
Ġbatt les
igen ous
ĠSt ation
Ġbot tle
ĠSe an
se ction
Ġl ux
ĠF al
Ġunder lying
Ġn a
ĠEx per
Ġv ig
C al
Ġpresent ation
ĠW ales
it udes
A ct
Ġstop s
Ġback ing
Ġdiscuss ing
ĠTh rough
Ġman agers
8 1
ĠMar x
Ġd ating
Ġper ceived
Ġm ood
ass y
Ġdomin ant
Ġt ap
ĠE qu
land o
Ġdef ending
Ġbe ings
ĠT ok
ri x
s a
ĠG ary
Ġpick ing
Ġexpand ing
D ef
ĠF estival
ĠE th
u z
Ġrac ing
Ġtrans action
ĠAss ad
Ġrec ruit
Ġburd en
ang le
Ġgather ing
Ġproced ures
Ġ9 9
ĠT ai
Ġmus cle
ri ors
ac her
Ġscr ut
ĠLib ya
Ġhop efully
Ġunf air
or able
play er
Ġst ere
Ġpoll ution
Ġinst itution
al ysis
Ġimp ression
ĠV ideo
Ġcomp at
Ġp ocket
pt ions
Ġcr us
ol ar
Ġarri val
Ġins ult
ĠO p
Ġsurv iv
ĠS on
ĠM ess
Ġe ager
oc ial
ĠU ber
ĠPent agon
s ub
Ġb owl
Ġdise ases
w atch
Ã ¢
Ġrequire ment
Ġrec re
ĠOak land
ĠB oe
ro ph
Ġh ip
Ġfood s
yl um
Ġdiv or
Ġro y
M od
ag ger
A F
ĠEl izabeth
b ing
Ã ±
m ath
ĠMur ray
Ġbe ach
Ġmod ule
Ġhelic op
it ure
Ġcapital ism
Ġcreat ures
Ġhosp itals
ĠC reat
ad ers
Ġ5 6
od ox
ol n
Ġm ice
Ġtim ing
Ġs ed
d y
ĠRep resent
T R
Ġkit chen
R em
ĠKe ep
miss ions
Ġstat ist
Ġfl ed
Ġindust ries
ĠMor gan
Ġorgan ic
Ġse ed
Ġgraph ics
ative ly
opy right
Ġsh ipping
Ġb ow
S C
Ġ !
ĠBat man
R eg
ĠK ick
20 13
em ic
Ġpunish ment
ab et
ĠY eah
Ġob sc
A Y
ri or
am ous
alt ies
Ġt ons
ĠML S
oc a
Ġans wered
og y
Ġst ance
ĠMic hel
net ic
Ġexpl aining
ĠRus sell
ĠInt el
Ġsign ature
Ġh ire
Ġbe ating
Ġt ut
Ġn erv
ĠEx ecutive
ĠM it
Ġacknow ledge
Ġcoach ing
Ġengine ers
ĠF riend
Ġso vere
