Ġ t
h e
Ġ a
Ġ s
Ġ w
n d
Ġt he
e d
Ġ b
Ġt o
Ġa nd
Ġ h
Ġ f
i n
Ġ T
Ġw a
r e
i t
o u
Ġ l
Ġ d
Ġ c
Ġ p
a y
Ġ m
e r
Ġwa s
o m
ĠT he
Ġ he
i s
a r
Ġ n
i m
o n
Ġs a
i d
l l
Ġh a
Ġ g
a t
Ġ S
in g
o t
e n
a n
l e
o r
i r
a m
e t
Ġ H
Ġ it
Ġt h
i g
ĠThe y
Ġ in
i l
Ġp l
ĠH e
Ġ "
o w
v er
r i
u t
Ġb e
Ġ u
Ġsa id
Ġpl ay
it h
Ġw ith
Ġd ay
p p
O n
Ġ o
Ġ y
o o
k ed
Ġ r
Ġhe r
c e
Ġ I
ĠS he
l d
Ġh is
ĠT im
Ġs t
k e
Ġ e
Ġb ig
n t
c k
Ġy ou
ver y
s t
v e
e nd
Ġ on
u n
Ġha pp
ri end
Ġf riend
a ll
il y
Ġ L
Ġthe y
Ġw e
Ġha d
Ġn ot
Ġl i
Ġu p
he r
Ġwa nt
Ġo f
a d
it t
s e
Ġ B
Ġd o
Ġhapp y
en t
Ġ very
Ġ M
e s
Ġth at
Ġsa w
On e
' s
ou ld
Ġm om
Ġf or
Ġs h
itt le
Ġs o
Ġl ittle
Ġs he
c h
im e
Ġn e
Ġn am
. "
Ġt ime
Ġ k
ou nd
Ġthe re
Ġnam ed
Ġs m
Ġb o
Ġwe re
ĠL ily
Ġwant ed
ou t
Ġb ut
T he
Ġfriend s
v ed
! "
h t
ĠT om
ir d
e l
Ġb ird
a l
Ġa n
a ke
Ġto o
om e
ĠI t
u g
id e
Ġw ent
Ġw h
Ġhe l
On ce
Ġ is
Ġa ll
Ġhel p
u e
Ġl oo
Ġl o
t er
Ġ A
Ġup on
r y
o re
i nd
Ġf un
g et
Ġto y
i ll
am e
Ġa s
Ġa t
r a
Ġ j
Ġd id
get her
Ġ re
u r
Ġs e
Ġto gether
a ck
Ġc at
l y
Ġt re
oo d
i c
t ed
Ġdo g
Ġc ould
Ġc an
Ġthe ir
ar d
e c
ar k
Ġg ir
Ġplay ed
Ġh im
Ġb all
? "
Ġgir l
w ay
Ġr o
Ġg o
he d
m y
Ġa re
Ġ out
Ġl e
Ġf r
a in
Ġk n
Ġthe m
he n
u m
' t
Ġsa d
a x
u l
Ġbo y
Ġtre e
Ġha ve
ot her
Ġm an
Ġc l
Ġlo ved
Ġloo ked
ou g
Ġf ound
Ġs p
Ġst ar
ĠS ue
on e
h ing
Ġs c
Ġb ack
ow n
ĠM ax
a re
Ġli ke
f ul
s ide
Ġm e
Ġbe c
on g
ig ht
Ġp ark
Ġc ar
o p
el t
Ġ One
Ġli ked
Ġw ould
Ġm ake
r ound
Ġl a
Ġf a
Ġf elt
Y ou
Ġ W
e ll
Ġse e
om et
ĠB ut
Ġas ked
a g
Ġne w
Ġn o
i ce
ĠS am
ou se
Ġstar ted
ar ed
Ġc ame
ĠB en
Ġa l
oug ht
Ġ other
il ed
Ġs omet
Ġa g
Ġg ood
Ġsm all
s s
Ġb r
Ġsm iled
Ġs ay
ad e
ri ed
ing s
o b
p ot
Ġw or
Ġf ind
Ġe x
i a
Ġ č
Ġa way
t y
Ġp ut
Ġwh at
Ġsomet hing
Ġc o
Ġfr om
Ġm ade
Ġth ought
en ed
Ġh ome
Ġplay ing
oo k
Ġe very
Ġwa l
Ġm u
u c
a ch
ar n
ĠS pot
Ġr an
i le
Ġ F
i e
Ġ J
a ve
Ġag ain
Ġs ome
Ġla ug
d d
Ġh ouse
Ġd own
Ġf l
k ing
Ġtoo k
Ġsc ared
Ġp r
n y
u re
Ġtoy s
Ġle arn
Ġ You
i f
Ġw ill
Ġbo x
i ck
re t
a b
e p
Ġm y
Ġa round
Ġth ings
Ġyou r
ou d
Ġb l
u ck
Ġw hen
is h
Ġli ved
Ġf e
Ġthe n
Ġs un
a s
Ġs w
, "
Ġc h
u s
pp ed
Ġa b
ĠM ia
an k
Ġg et
T im
um p
uc y
T h
Ġl ot
is t
ot h
Ġt ried
a p
Ġkn ow
Ġsay s
Ġg ot
it ed
Ġwh o
Ġkn e
u st
Ġman y
nd er
Ġin t
Ġab out
L ily
Ġp ret
Ġd ec
Ġan y
Ġ D
Ġr ed
i ve
Ġkne w
a ce
ou s
Ġm ore
is e
Ġc are
Ġp ic
all y
q u
a u
Ġh ug
ĠL ucy
Ġlearn ed
Ġp o
Ġwa ter
f ter
Ġ v
Ġbec ame
Ġbe st
au se
Ġo p
Ġg re
Ġex c
ur p
way s
Ġout side
Ġlaug hed
â Ģ
Ġloo k
Ġal ways
Ġdec id
Ġsh ow
Ġu n
an t
Ġro om
ĠB ob
Ġdecid ed
f e
Ġbec ause
ĠS o
Ġh o
Ġint o
Ġe at
it e
Ġj ump
ĠA nd
Ġp e
Ġb oth
er s
Ġd ad
ĠM om
The y
u dd
Ġ ke
Ġon e
n n
Ġth is
Ġexc ited
Ġfa st
Ġ E
Ġn ice
Ġfe el
Ġr un
T om
Y es
Ġl ong
Ġto ld
Ġa m
Ġs k
urp r
ou r
Ġin side
u ll
Ġt r
Ġs urpr
Ġm o
in k
Ġpret ty
in y
Ġs or
W h
Ġt ake
o g
Ġs l
Ġg ave
Ġe ach
Ġmu ch
Ġg ra
nn a
le w
Ġro ck
ar a
Ġst r
Ġh ow
im al
Ġan imal
g ed
Ġne ed
Ġth an
B ut
Ġto w
et ter
v en
Ġ or
Ġ C
Ġu nder
Ġo ld
es s
Ġsor ry
g e
is ed
r o
ur t
Ġc le
Ġf ish
Ġwal ked
a nd
Ġcl o
Ġbe ar
a se
f t
a st
Ġha nd
ur n
ĠW e
Ġk ind
ĠH is
Ġt e
he re
Ġhapp ened
Ġj ust
Ġfl ow
Ġf ood
Ġl ist
Ġdid n
Ġanimal s
Ġh ig
p l
Ġne ar
Ġwa t
Ġt ry
Ġ ide
Ġsk y
c hed
in e
Ġs n
v ing
Ġf i
r om
Ġu s
ĠA my
Ġide a
Ġb etter
Ġb ug
Ġhe ard
g ry
Ġit s
Ġt w
Ġl et
p ec
at e
ab le
f f
Ġcare ful
Ġ en
Ġsh are
e x
Ġ if
Th ank
Ġf ly
M om
Ġst or
i al
m ore
Ġf lew
Ġany more
ĠT h
Ġsp ec
Ġspec ial
i on
Ġc om
Ġlot s
Ġne ver
Ġb y
l f
re am
Ġd an
Ġf o
Ġb u
Ġd on
Ġw ind
Ġt al
Ġcle an
Ġg r
or t
Ġlo ve
r m
b er
Ġe nd
ĠThe n
op le
Ġe ven
Ġm ag
Ġsh iny
Ġh ard
udd en
Ġo ver
Ġf ore
Ġc ake
a k
Ġb ook
Ġco l
Ġt urn
Ġb ad
Ġf am
Ġsa fe
Ġa fter
ad y
udden ly
ĠA nna
Ġpe ople
Ġpr oud
ĠE very
Ġsurpr ised
pec ted
Ġh urt
L et
Ġhig h
Ġc u
Ġc ome
im b
ard en
Ġg arden
Ġdo or
Ġg round
Ġop ened
Ġl oud
b b
Ġpic ked
Ġcl imb
ex pected
Ġun expected
Ġg l
Ġc he
Ġ im
il d
A s
Ġg ive
Ġwa y
a il
' m
Ġbl ue
Ġthan ked
Ġcol or
Ġst ill
Ġe ver
Ġhug ged
Ġc all
Ġf ar
ĠF rom
ĠS ara
i p
ĠH er
N o
ĠW hen
Ġof f
Ġmag ic
i z
oug h
um my
ag e
Ġ K
Ġjump ed
Ġsh ould
Ġp ar
Ġfam ily
oo l
Ġk id
Ġsm ile
he s
Ġpl ace
u ff
k ay
c t
Ġwal k
Ġn ow
ĠI n
e m
Ġgre at
t ure
Ġ qu
Ġst ay
Ġstr ong
le s
Ġu nt
Ġst o
a ut
Ġfore st
an e
itt y
Ġb ra
Ġ P
Ġfr og
o on
Ġbr o
Ġunt il
Ġbe aut
d y
Ġs qu
Ġst ick
Ġbo at
x t
Ġne xt
le ase
n ing
Ġhapp ily
Ġlist en
a king
Ġkid s
i es
i ful
Ġbeaut iful
Ġt ra
Ġhelp ed
Ġa pp
t h
Ġshow ed
Ġclo s
Ġd ra
b e
Ġim p
un ny
Ġstor y
o y
Ġwh ile
re l
Ġtow n
p t
re ss
Ġr ain
Ġpic ture
Ġbe ing
Ġevery one
I t
Ġre m
ar y
Ġm or
re e
Ġha t
Ġcall ed
Ġsto pped
Ġm et
Ġa d
Ġg ame
N ow
H e
C an
Ġan gry
g er
uff y
Ġop en
W hen
Ġw o
Ġke ep
Ġtr uck
Ġso ft
Ġc ry
Ġy ummy
Ġb ed
Ġlo st
ĠL et
Ġwa rm
b y
ĠS ally
v ent
Ġbra ve
Ġm ouse
ĠW h
ĠK itty
Ġat e
is hed
Ġd e
f ore
Ġdo ll
s o
Ġwat ch
Ġcould n
Ġle ave
Ġal so
dd ed
Ġf ell
Ġgre en
Ġfa ce
Ġtw o
g an
Ġflow ers
is s
Ġ R
b le
Wh at
b it
Ġno ise
ir st
ab bit
ow l
Ġw here
a z
o ck
Ġso on
Ġsl ide
se lf
Ġho le
l uffy
Ġr abbit
ir rel
Ġbe fore
Ġp us
Ġsa t
ill y
ir ed
Ġhe ar
H i
Ġu se
Ġp a
Ġke pt
âĢ Ŀ
Ġsqu irrel
âĢ ľ
Th at
m a
The n
e ar
Ġno dded
Ġc ook
Ġhand s
Ġex pl
Ġst ore
Ġbird s
L ook
Ġp ain
Ġgo ing
Ġfun ny
Ġha ving
Ġs ing
d ay
ay be
Ġe y
u ch
Ġcat ch
a ug
aug ht
ĠC an
Ġth ink
Ġc ra
ĠF luffy
Ġy ell
u it
le ep
Ġf in
B en
Ġb re
Ġfi x
Ġt ired
Ġb unny
Ġus ed
Ġb us
an ge
Ġloo king
Ġwor k
a ir
Ġw r
Ġ our
Ġp ull
W e
Ġ Now
Ġwa it
Ġth r
Ġk it
t hing
Ġs ound
t ing
Ġha s
Ġj o
Ġpo nd
Ġ G
Ġme an
Ġbe h
Ġd r
em ber
Ġsun ny
l ed
Ġas k
Ġother s
n g
Ġtal k
c hen
Ġkit chen
Ġfl o
Ġd if
Ġp ie
Ġre al
Ġhe ad
re w
Ġf irst
Ġt ri
ĠJ o
Ġey es
ell o
H ello
Ġfa v
Ġmom my
Ġimp ort
Ġ z
at h
j oy
Ġr ight
Ġc on
Ġflow er
Ġrem ember
Ġm ess
Ġpar ty
Ġco ld
Ġv o
ĠD o
Ġsw e
i ous
Ġsa nd
a c
or n
Ġ âĢľ
Ġr ace
Ġd uck
im es
Ġcu ri
Ġimport ant
Ġmor al
Ġsh ared
z y
ou nt
ĠJ ack
Ġo kay
Ġ ice
ll ow
Ġad vent
Ġwor ked
Ġd ress
A t
Ġm aking
Ġbr ight
Ġen joy
Ġ own
Ġcuri ous
Ġd ir
Ġt all
re ed
Ġh op
Ġh id
Ġfav or
Ġ ri
Ġfavor ite
Ġs leep
W ow
Ġbe gan
h n
Ġd is
Ġb ag
Ġth ing
Ġm on
Ġh ill
D on
Ġre st
Ġdra w
Ġcl a
Ġhe re
Ġy ard
Ġt ell
ĠF in
st er
Ġfo llow
q ue
Ġwat ched
Ġbe l
Ġmo ve
Ġc ut
ec t
Ġn ight
Ġag reed
Ġp ick
Ġbl ock
Ġh un
c o
ll y
ap er
Ġst op
Ġbeh ind
Ġsurpr ise
i ed
ĠTh is
Ġsh o
Ġh ot
A fter
Ġgra ss
Ġt able
Ġwor ry
Ġd ark
Ġwal king
Ġvo ice
Ġtre es
Ġfar m
fe re
Ġto p
Ġli on
Ġflo or
Ġdif fere
Ġp lease
Ġs ong
Ġr u
Ġt ail
Ġbut ter
Ġswe et
M ax
Ġl ady
Ġsh out
ĠD ad
Ġre ad
Ġcolor s
is y
Ġfor g
Ġleave s
Ġclos er
ig n
Ġcar s
Ġturn ed
Ġneed ed
Ġt ast
Wh y
Ġw ood
Ġc ried
ar ing
Ġdiffere nt
Ġlaug h
Ġpie ce
Ġd el
ĠM r
âĢ Ļ
Ġdo es
Ġro ll
er ed
i ke
Ġfi re
Ġadvent ure
Ġhun gry
Ġha ir
ĠS uddenly
Ġc r
Ġp aper
Ġfeel ing
Ġyell ow
b o
Ġf ull
Ġto uch
S ue
S am
Ġpr in
ĠA s
A nna
Ġfriend ly
Ġw et
o om
Ġp er
k en
c ked
a ched
Ġfr uit
Ġsw ing
i ent
Ġbro ken
Ġre ady
pp y
by e
Ġpr om
ĠTh at
Ġpret end
Ġan other
Ġl ight
at er
w here
Ġclimb ed
Ġlist ened
Ġdan ce
ĠBob o
Ġdan c
Ġrun ning
Ġon ly
Ġpl an
Ġsw im
Ġg one
bb ed
S uddenly
S ara
ĠJ ane
nd ma
il a
s h
Ġtra in
Ġclo se
S he
Ġsm ell
a v
Ġam az
S o
ab y
Ġho ld
Ġblock s
Ġwo nder
Ġre pl
ĠA ll
ĠTim my
Ġse es
Ġbutter f
Ġwa ll
Ġre ached
Ġp u
Ġsl ow
Ġhelp ing
r ed
Ġd ri
one y
Ġa nt
Ġgl ad
Ġc ream
Ġc ool
a f
Ġl ess
Ġgood bye
Ġa c
at her
Ġbe en
M ia
Ġf ight
Ġpus hed
Ġfa ir
ic ed
Ġmu st
Ġh ide
Ġmom ent
Ġ O
Ġwind ow
Ġball oon
Ġs it
Ġsn ow
ĠEvery one
Ġa r
Ġexpl ore
Ġw ished
Ġch ild
Ġb aby
Ġst e
Ġwa g
Ġd one
Ġper f
Ġth ank
ic y
Ġst uck
Ġbu y
Ġm ight
Ġnam e
Ġtry ing
Ġb ar
iz ed
Ġcom ing
Ġqu ick
Ġb it
Ġf all
Ġapp le
as h
Ġlook s
Ġsc ary
Ġbu ild
Ġdo ing
a isy
Ġw in
Ġd ream
Ġd in
Ġunder st
Ġdir ty
Ġhe ld
Ġm ar
am es
Ġbook s
Ġbutterf ly
I n
Ġle ft
Ġshout ed
Ġc ount
Ġrepl ied
av y
Ġre ach
Ġt iny
Ġthr ough
ot t
Ġd ro
Ġwh y
Ġa ir
Ġla nd
Ġbr an
Ġth ree
Ġsp l
Ġgr ow
Ġpull ed
ke y
Ġw ise
Ġtre at
' re
Ġwood s
Ġbr other
Ġs ure
Ġch air
i x
in s
el y
Ġ owl
Ġse en
Ġp ink
Ġm at
and y
Ġcla pped
Ġcl oud
Ġcu p
Ġsomet imes
Ġpl ant
ie ld
Ġf ill
as k
Ġsw am
out h
Ġj ob
Ġm outh
Ġcolor ful
p e
Ġremember ed
Ġne st
Ġbig ger
ou p
O kay
Ġc re
p h
Ġjo in
Ġless on
ĠThe re
Ġwa ved
ro om
ar t
Ġgra bbed
Ġstay ed
O h
Ġcl ot
udd y
Ġpain t
Ġcon t
Th is
Ġclot hes
ow er
Ġ ve
Ġwa ited
c le
Ġquick ly
ĠA fter
Ġwor d
uck y
Ġbro ke
Ġg ames
Ġb lew
Ġg ent
Ġc ast
ri es
ĠMom my
Ġnot iced
at ion
Ġenjoy ed
Ġs et
J o
Ġlike s
Ġpicture s
Ġse a
d e
t on
Ġmu s
Ġal one
as ure
Ġhe avy
Ġg if
Ġany thing
Ġsp ot
Ġm iss
Ġwor ld
Ġturn s
Ġho pped
or m
Ġp ot
Ġy ear
Ġp at
l c
Ġb ott
d er
Ġp en
Ġb ike
H er
Ġa rm
Ġm ix
Ġt ight
Ġevery where
Ġtow er
L ucy
Ġw on
Ġhim self
Ġfollow ed
Ġth rew
m an
Ġr ide
le ss
Ġj u
ĠB uddy
Ġj e
am p
ap e
B ob
Ġcom p
Ġke y
r ow
ct or
" .
Ġwh ite
Ġwr ong
ĠD aisy
Ġmake s
are nt
ĠWh at
Ġbre ak
Ġbl ack
e e
n er
S pot
o lly
Ġmus ic
th y
Ġde ep
Ġpo l
Ġdel ic
u ed
Ġp arent
ce ss
Ġforg ot
Ġbe e
D o
ve s
Ġcast le
Ġe m
i et
Ġwe ar
Ġh it
ou n
Ġqu iet
is ter
Ġr ound
an ce
Ġwant s
Ġv is
Ġst u
Ġdanc ed
ull y
Ġmon ster
Ġle af
Ġn ap
Ġunderst and
an g
o s
ĠJo hn
r ot
Ġb owl
Ġb or
Ġcook ies
Ġd ry
Ġfast er
Ġtal ked
re n
itt en
Ġbr ought
f ully
Ġle g
Ġm um
ro ss
z z
Ġs ide
F rom
t s
ĠIn side
Ġsm art
Ġs ign
c y
Ġrock s
Ġsome one
H is
Ġfo x
Ġpo in
Ġse c
Ġhapp en
Ġsh aring
Ġwe ll
Ġre l
Ġbran ch
Ġre ally
en ce
ĠL ila
Ġbut ton
Ġre s
Ġfin ished
Ġdin ner
ard s
ed dy
Ġs ister
Ġfly ing
Ġcont in
Ġwor ried
Ġe le
Ġbe ach
Ġvis it
ĠT o
Ġ que
Ġe l
ĠM aybe
Ġsec ret
ĠSara h
g y
Ġk ing
Ġto day
Ġperf ect
Jo hn
Ġs illy
i pp
Ġri ver
Ġdan ger
Ġevery thing
Ġsh in
Ġg u
ĠJo e
Ġel se
Ġchild ren
Ġf ur
ĠSo on
Ġsmile s
Ġwe lc
Ġf ield
Ġfill ed
ĠA t
ĠE m
Ġw ish
Ġp udd
Ġg i
Ġsa ng
Wh ile
z e
Ġeat ing
Ġp ig
Ġreal ized
Ġprom ised
Ġsn ack
Ġpiece s
Ġsp r
Ġcontin ued
or d
Ġf ree
Ġb ite
e ad
Ġparent s
J ust
itt ing
Ġcare fully
Ġe ar
at ed
Ġj ar
M aybe
Ġc ow
st ead
A my
Ġmu d
Ġdra g
Ġbl ank
Ġor ange
Ġs oup
Ġcry ing
Ġroll ed
Ġen ough
ck et
Ġsa il
Ġblank et
im i
Ġy es
a le
Ġp urp
Ġb oun
Ġfair y
Ġcra b
se s
Ġdr ink
Ġsn ake
Ġlaug hing
Ġp et
Ġthr ow
Ġamaz ing
Ġword s
Ġ Z
Ġb ath
Ġwith out
Ġgra ndma
i ch
i re
Ġpurp le
ĠB illy
F in
Ġbott le
on s
Ġgif t
us ed
Ġp ast
Ġat t
Ġdo ctor
Ġwag ged
i ver
f ort
Ġbar ked
Ġm ail
Ġbr own
Ġm oney
un ch
ĠG ra
Ġask s
is es
Ġmo ved
ch ool
Ġmon key
Ġget ting
Ġclos ed
Ġwelc ome
Ġw he
Ġown er
Ġc andy
Ġs u
Ġl on
g g
Ġmor ning
ĠC h
Ġs chool
Ġs itting
Ġtre asure
Ġlon ely
Ġsm o
Ġm other
. âĢĿ
Ġhig her
Ġdanger ous
! âĢĿ
Ġli ving
Ġapp les
Ġro ad
us h
as ed
Ġstr ange
Ġsh op
Ġshin ing
Ġcre at
Ġpa w
e re
Ġr a
Ġsho es
ve l
ĠTom my
e y
un a
i ble
Ġp re
Ġ -
Ġtal king
Ġst re
al thy
Ġc aught
o l
Ġrun s
Ġe gg
Ġpa ss
Ġl ake
m e
Ġb uck
Ġl etter
Ġw ings
Ġche e
f ish
Ġm ad
ask et
Ġf an
Ġb asket
a ss
Ġst one
Ġdrag on
ck s
Ġthink s
s et
a pp
Mom my
Ġpudd le
Ġst and
Ġno se
Ġto m
ĠM imi
bo ard
Ġdelic ious
Ġbel ie
Ġt eddy
ĠB l
Ġyear s
Ġfarm er
Ġsa me
Ġb at
Ġco at
it ch
Ġm ine
is k
Ġse ar
c hes
Ġgent le
ig h
Ġday s
Ġwh ist
Ġf it
Ġstar t
Ġbr ing
Ġfin ally
Ġsc ream
Ġcr ay
ig g
Ġp ill
Ġk ite
Ġv ill
ar m
ph ant
Ġsing ing
Ġtast y
Ġch o
Ġhop ed
ell a
Ġtr ou
s w
Ġshe ll
in ed
Ġp h
Ġb en
s y
Ġw ore
Ġan sw
Ġsw ings
Ġher self
Ġbel ong
Ġh or
P lease
Ġpus h
Ġbus h
Ġar ri
aught y
b ow
isk ers
e my
Ġte ach
Ġcar rot
Ġn aughty
ra ct
s c
i er
Ġco ll
Ġele phant
Ġsh ap
Ġdro pped
b all
Ġte ac
Ġwo ke
Ġhid ing
Ġp ile
Ġc our
Ġpu ppy
is a
am a
' ll
er ry
ll ie
Ġto uc
Ġsee m
Ġm in
Ġl unch
Ġtw ins
Ġp ers
Ġsa ck
Ġb ow
Ġgre w
Ġcour se
ĠJ en
Ġshap es
Ġche ered
Ġvill age
f used
Ġju ice
Ġro pe
Ġrain bow
i pped
ir th
irth day
O K
J ack
Ġsp in
Ġf ence
Ġro b
Ġsh ook
Ġstre et
Ġcut e
Ġben ch
Ġsp oon
ĠF red
Ġpr ob
Ġchee se
Ġn ut
Ġtouc hed
id ge
co l
Ġse ed
Ġj oy
Ġarri ved
Ġcar ry
Ġc orn
Ġab le
Ġwa r
G ood
Ġfore ver
Ġfe w
Ġd es
ĠWh iskers
Ġteac her
Ġmo st
le m
Ġsound s
Ġbe ll
Ġe as
ĠBl ue
ll a
Ġsp o
Ġpl ane
Ġprob lem
um b
Ġin c
Ġb irthday
Ġp ower
Ġbug s
Ġwonder ful
at o
il k
b r
Ġbus y
Ġdoll s
Ġw ra
ir p
e b
ĠEm ma
ĠTh ank
Ġfeel s
i an
Ġprom ise
Ġbre ad
Ġne ck
Ġrob ot
et er
Fin ally
Ġre c
Ġk iss
ir t
Ġm ilk
Ġsh y
ount ain
Ġpo cket
Ġc ave
Ġhear t
Ġb and
Ġhelp ful
ump y
u b
Ġpat ient
Ġsh ake
Ġbelie ve
g ly
Ġslow ly
Ġp op
e ared
Ġo b
ar p
Ġli ve
Ġhold ing
Ġstor m
Ġtow ards
Ġup set
Ġu gly
Ġt urt
ĠR emy
Ġco ver
Ġsh r
ad ow
Ġstor ies
o st
Ġsh arp
Ġs uc
re ad
Ġdis app
Ġk itten
Ġh oney
ĠB ella
o ve
Ġno ises
ĠL e
Ġdir t
Ġball s
Ġsp ark
og gy
Ġd ist
Ġl ate
Ġgr ay
Ġc ir
Ġdri ver
Ġse at
al m
Ġyou ng
Ġsp id
Ġbuck et
Ġamaz ed
Ġme et
Ġturt le
Ġtreat s
Ġgl ow
Ġz oom
Ġsee k
Ġmagic al
um ber
Ġle m
at or
Ġm ist
Ġtri p
u nt
Ġsand w
Ġspl as
fort able
Ġm ark
Ġfo ld
our n
Ġm ach
Ġj ourn
Ġpu zz
Ġpar t
l ing
Ġhor se
pp ing
Ġcook ie
Ġw ild
Ġor gan
Ġt aking
Ġhug s
Ġprin cess
oo se
en s
Ġwhe el
ĠM ark
S ure
Ġcl oth
Ġstr ing
ĠL isa
un g
Ġin stead
Ġbu bb
ep end
Ġn et
Ġco in
il ing
Ġsp icy
Ġdro ve
Ġs ug
Ġru de
Ġstar s
Ġl ucky
B e
ĠJ im
Ġhug e
Ġfight ing
He y
O f
Ġcra w
Ġin v
or s
Ġb one
pp er
Ġwhist le
Ġfor get
Ġsa l
u p
n ot
Ġc a
ĠGra ndma
ĠFin ally
a ur
Ġd i
Ġc ou
Ġc ard
Ġs ick
Ġp ath
Ġcan not
Ġspid er
Ġsnow man
Ġw ide
Ġsong s
Ġpill ow
Ġfo ot
L ila
ul ar
ĠJ ust
Ġli fe
iz e
e st
L ater
Ġgi ant
er t
op h
Ġfix ed
ĠA nn
Ġcom es
Ġbo ss
Ġno d
ri ll
Ġla st
Ġmach ine
Ġgr umpy
Ġjo ke
Ġth in
Ġtast e
l ower
Ġwa ve
d en
Ġmo on
Ġcar t
Ġgra b
Ġdri ve
Ġs er
Ġas h
Ġdad dy
Ġpe ace
er y
ĠLe o
ere st
Ġs el
Ġ On
Ġwas n
Ġwr ite
Ġcon fused
Ġch ange
Ġs uddenly
Ġhid den
Ġshe lf
Ġland ed
Ġfruit s
oo p
Ġint erest
Ġb ark
Ġch ased
it y
Ġr ad
Ġwor m
Ġmy ster
Ġsmo oth
Ġr ing
Ġs our
op e
ĠC ome
Ġste pped
k in
Ġf le
Ġtake s
Ġadventure s
Ġmiss ed
Ġo ven
Ġshe ep
Ġv al
Ġsel fish
T o
Ġmess y
Ġac ross
Ġex p
Ġl ater
ell y
Ġte a
Ġ ent
Ġc e
Ġ N
t o
Ġt ie
irp y
e ver
S t
Ġstick s
Ġd rew
ĠL una
Ġst ep
Ġb an
Ġb ought
if e
bo x
pec t
Ġwas h
Ġp our
o se
? âĢĿ
Ġl ay
Ġbe ak
Ġgr ate
Ġf il
Ġj og
Ġdr um
Ġduck s
Ġsp e
Ġleg s
ĠB u
Ġem p
ug g
Ġemp ty
Ġfe ather
Ġhop e
Ġz oo
et h
Ġsleep y
Ġp an
Ġgrate ful
Ġsl id
Ġph one
m er
ar s
am ed
Ġf ing
Ġlem on
Ġcle ver
le t
ion s
ĠC at
ĠM olly
Ġsmell y
Ġc alm
Ġim ag
Ġspl ash
Ġsa ve
Ġinterest ing
Ġch ick
Ġwatch ing
iz z
S oon
iz zy
ĠJ ill
Ġm ed
y ard
Ġa ct
Ġban an
Ġface s
Ġcloud s
Ġb a
Ġli ft
Ġl ine
Ġ ign
Ġback yard
Ġpl ate
Ġwo lf
w el
Ġspr ay
Ġdog s
C ome
Ġpr ot
Ġth ough
Ġseem ed
Ġm ot
Ġwho le
Ġque st
ĠDad dy
w ard
Ġarm s
Ġhe althy
Ġfan cy
Ġrock et
Ġfin ish
Ġal ong
Ġpuzz le
Ġsu pp
on t
ĠCh irpy
Ġsc ar
Ġeas y
ll o
er ly
Ġj elly
Ġexpl ain
d ge
Ġje wel
Ġt id
Ġp ract
Ġf ake
Ġcray ons
Ġm aybe
ig er
ĠJ erry
Ġlong er
Ġwonder ed
Ġany one
Ġfr ont
one st
Ġp ool
Ġem b
Ġnot hing
Ġsh ip
ĠB e
u ally
Ġwor king
Ġgive s
ĠD oggy
ĠB unny
Ġp ack
o cked
ir r
Ġtrou ble
Ġs uch
Ġsa ved
m ent
Ġboss y
Ġsmell ed
Ġp in
Ġne igh
ra ss
ar ge
ar rass
Ġa v
it ing
Ġh onest
Ġv an
Ġemb arrass
Ġtid y
ur se
Ġsh irt
Ġput s
Ġforg ive
un k
ĠO llie
Ġwe ak
Ġk ick
Ġm ind
ĠW ith
Ġneigh b
Ġso l
Ġplant s
Ġco zy
m ing
or row
Ġmist ake
Ġgent ly
Ġexpl or
ĠMom o
Ġst ood
o c
s p
Ġpoin ted
Ġw ing
Ġa f
Ġwait ing
Ġjump ing
Ġon to
Ġlo ck
or k
Ġc ross
Ġprin ce
oom y
Ġy og
ĠWh y
Ġche er
ĠM ary
on es
Ġl arge
Ġque en
w e
Ġl ad
Ġs ur
Ġre t
Ġcou ch
ul t
Ġlove ly
ĠThe ir
er a
A nd
Ġde er
ĠM y
aught er
Ġb al
Ġst ret
Ġant s
Ġche w
Ġret urn
Ġplace s
oo f
ra id
Ġaf raid
Ġbuild ing
Ġtom orrow
Ġclean ed
Ġpers on
Ġd ish
n ed
Ġboun ce
Ġw ip
Ġlad der
Ġsandw ich
S ally
u ce
Ġscar f
Ġp izz
Ġri ch
ge st
Ġg ather
Ġpretend ed
Ġbor ing
Ġte eth
Ġsear ch
Ġmat ch
om an
ac ed
ĠS omet
K itty
Ġst ra
Ġw oman
M y
Ġgo es
Ġh um
Ġd aughter
Ġswim ming
ĠTo gether
Ġsplas hed
Ġtr ue
Ġfur ry
Ġlove s
Ġscream ed
Ġansw er
Ġg en
Ġp ri
Ġla w
Ġn umber
Ġpizz a
Ġla zy
Ġe ag
a w
Ġash amed
Ġapp eared
ĠS t
Ġfe ar
Ġnear by
Ġfl ag
Ġcl own
Ġha ng
Ġpower ful
v ous
Ġmot or
Ġch ase
e k
Ġsuc cess
Ġru b
Ġwa nd
Ġcreat ive
ĠT V
ĠI f
Ġcho col
Ġno isy
Ġwe aring
Ġmat ter
Ġtr ust
Ġsa f
Ġd ig
p a
ĠB ird
Ġn er
Ġso ld
Ġhe llo
el p
Ġner vous
Ġtoo l
ad o
o ppy
Ġsm iling
ic ked
m b
Ġte st
Ġtri es
Ġm ap
Ġcla ss
Ġdr ank
Ġcir cle
os aur
Ġimp ress
Ġkne e
ĠP lease
Ġchocol ate
Ġballoon s
Ġgen er
ĠT iny
Ġp ump
Ġpol ite
Ġgo ld
Ġprot ect
Ġr are
Ġdin osaur
Ġg ate
Ġcar ried
St op
ens ive
ĠBob by
in a
Ġba ld
Ġg un
Ġm irr
Ġa p
ĠD on
Ġc and
if f
ĠG o
Ġexp ensive
ar l
Ġmar ch
Ġnot e
Ġre g
Ġmyster ious
Ġher o
Ġsh adow
Ġ icy
Ġmirr or
Ġsn ee
Ġh ar
Ġwe ird
ĠS p
Ġso ap
Ġwh ale
ra g
Ġthe se
Ġres pect
Ġfe et
Ġc ri
Ġd izzy
ut e
Ġtow el
ĠBen ny
Ġpo or
Ġt ape
iss ors
Ġgener ous
Ġdis co
itt er
H elp
Ġpre s
n ic
Ġle ad
vent ually
nd pa
Ġs que
Ġpic nic
Ġt ent
Ġm ic
Ġembarrass ed
sc ape
is p
Ġjourn ey
Ġbo ot
Ġr ough
Ġpeace ful
Ġyell ed
Ġtast ed
Ġsug ar
Ġm el
Ġgl ue
ĠB ear
Ġbr ush
Ġcl ap
Ġdanc ing
Ġf at
Ġt ick
Ġclos et
Ġsc issors
Ġdec or
n ess
ot e
Ġbr idge
Tom my
Ġst ir
Ġh ur
u al
ĠH ow
um e
ow ed
Ġprin t
air s
im p
Ġsc are
Ġl amp
ĠSomet imes
Ġc ap
Ġte le
l ves
Ġg igg
Ġcr own
Ġv ase
Ġrel ie
an y
Ġwh isp
le br
Ġe ld
er ries
Ġb erries
Ġce lebr
Ġp ay
Ġbl ow
Ġw is
Ġsp read
Ġlo g
Ġpain ted
Ġbe an
Ġmix ed
ĠD ucky
Ġsc o
Ġwould n
get able
Ġm ountain
Ġad m
Ġdraw ing
Ġbec ome
r ob
as p
Ġk icked
Ġve getable
Ġkn ocked
Ġfam ous
Ġwra p
Ġc age
Ġb ake
ust r
Ġn orm
Ġlo se
Ġinc red
c ed
s er
Ġth ick
Ġ 3
Ġnorm al
Ġgr oup
Ġsh ark
Ġf ine
Ġcle ar
Ġign or
Ġte am
Ġcorn er
Ġgl ass
Ġeld erly
Ġfr ustr
Ġclo ck
Ġmight y
Ġso ck
Ġincred ible
Ġj am
ĠB r
Ġc one
on y
D ad
ig hed
rob e
Ġsp ace
Ġro ar
Ġfe ed
ĠM ama
Ġmom s
rag ile
Ġbal ance
al ous
Ġbran ches
Ġfr ight
Ġf ool
Ġwh ich
Ġje alous
ĠS ome
Ġh orn
Ġse ll
Ġpres ent
Ġorgan ized
Ġgu ess
p ort
Ġf ragile
Ġy arn
Ġsw ord
Ġt er
Ġm is
r ay
Ġunderst ood
c ient
Ġfrustr ated
W here
Ġsp ent
Ġstu bb
Ġb urn
Ġho se
Ġpump kin
Ġt aught
Ġtw ist
Ġspo iled
Ġan cient
Ġcreat ure
Ġsho e
Ġstubb orn
Ġche st
Ġrelie ved
Ġfi er
Ġc ab
Ġegg s
Ġfier ce
Ġme asure
i que
Ġb arn
or ry
Ġgo at
Ġstra w
y m
Ġter ri
Ġor d
Ġwa ke
Ġpr ay
Ġtom ato
Ġfright ened
d le
Ġun ique
Ġd ug
Ġun us
Ġbre ath
Ġfool ish
l ace
Ġdisco ver
Ġexplor ing
Ġuse ful
Ġunus ual
Ġwag on
Ġto ug
Ġcl ay
Ġcl um
Ġpol ice
Ġcom fortable
Ġwr ote
Ġwa ves
Ġfind ing
Ġde ad
Ġex am
Ġneck lace
Ġhear s
Ġcab in
Ġsqu are
ĠP e
Ġwas hed
Ġno sy
Ġclum sy
k n
Ġtell s
To gether
Ġd ull
Ġsear ched
Ġbubb les
Ġtoug h
Ġpaw s
Ġbath room
an ged
bb y
Ġsun f
kn own
un n
c il
Ġthank ful
Ġbo ard
Ġas king
Ġb itter
Ġcra zy
Ġbl oom
ber ry
f ic
Ġsw an
o nd
Ġun known
Ġp ir
Ġpen cil
Ġdif fic
al k
y al
Ġcover ed
Ġro se
Ġ ind
Ġfing er
ĠE lla
Ġdr op
Ġdiffic ult
Ġw itch
Ġh oop
al s
Ġa dd
M e
Ġj et
a pped
Ġchick en
Ġha m
l ight
c om
He re
b led
Ġend ing
Ġlo yal
Ġwe althy
Ġun l
Ġ '
Ġgl oomy
Ġc her
Ġdo ve
Ġcat s
Ġyour s
Ġsal ad
Ġterri ble
Ġjoin ed
Ġ U
Ġpot ato
sh ine
Ġt iger
Ġmo v
i ant
an ut
Ġg uit
ĠAnd y
x ible
Ġm ask
g round
Ġnut s
Ġch anged
Ġto ast
Ġbo dy
se lves
Ġz ip
ĠT r
Ġr at
Ġrec ord
ĠM any
Ġadvent ur
Ġdis g
Ġmo ving
Ġhair y
Ġexc iting
Ġval ue
ĠR ex
Ġac orn
l and
orm ous
irst y
Ġknow ing
Ġsho ot
Ġadventur ous
Ġrem ind
er p
Ġpe pper
E very
Ġbor ed
Ġche ap
ĠBr own
Ġsol ve
or y
Ġyour self
Ġen ormous
Ġfle xible
Ġdelic ate
Ġco st
Ġhat s
Ġnod s
Ġperf orm
Ġsun shine
Ġguit ar
Ġsnack s
ĠJim my
Ġsh ore
Ġseed s
Ġfr own
Ġdisg ust
Ġsmall er
Ġth irsty
Ġst uff
rill iant
re en
Ġkn ife
Ġtri ck
Ġb rilliant
Ġcount ed
Ġst ri
Ġbanan a
Ġas leep
Ġhe al
Ġmail box
Ġmark et
Ġst at
Ġneighb or
in ess
l ive
Ġcoll ect
Wh o
ung le
id ent
Ġst age
Ġsque e
Ġcu be
mb re
at es
Ġj ungle
Ġu mbre
Ġdisgust ing
f ted
Ġd ough
Ġjo lly
Ġfl ash
Ġexplain ed
Ġsunf lower
Ġsh iver
Ġla b
il t
id dle
Ġc ro
J im
Ġis land
p id
Ġfr idge
Ġh arm
c orn
Ġs uit
Ġf our
ĠA l
Ġt imes
ĠIn stead
u nd
Ġr h
Ġcr ane
Ġg em
in al
y ing
ĠWh ile
Ġsto ve
Ġstu pid
erp ill
Ġcat erpill
Ġrel ax
Ġg oose
A re
Ġmed ic
Ġspr ing
Ġcom b
Ġr ug
ĠW ill
ig inal
ic t
m ost
ed ient
I f
M um
Ġs ighed
p es
ĠYou r
H ow
Ġvegetable s
Ġst ones
In side
Ġd epend
Ġsuccess ful
Ġg ar
Ġsh ine
Ġbat ter
g u
Ġsa uce
Ġind epend
Ġmedic ine
Ġcare less
Ġc ries
Ġm iddle
Ġcarrot s
m et
Ġje ep
Ġme al
Ġal most
Ġpop corn
ĠSam my
Ġst amp
Ġsc r
Ġor iginal
S orry
Ġhel met
Ġfear ful
Ġob edient
Ġstu dy
Ġpar rot
Ġstat ue
Ġmag n
Ġeag er
The re
Ġj ack
Ġe scape
Ġindepend ent
ak en
Ġpe bb
Ġser ious
Ġcomp et
Ġdes ign
Ġcaterpill ar
Ġget s
Ġ No
Ġpe anut
Ġbed room
Ġumbre lla
Ġfil thy
Ġf ountain
Ġc am
Ġbelong ed
Ġde st
ink y
Ġra ven
Ġpast a
er able
Ġbor row
Ġhouse s
Ġjack et
Ġfor k
Ġf ig
Ġpri ze
Ġr aced
Ġimpress ive
ag es
Ġbra ce
Ġan g
i o
Ġmis erable
Ġt aken
Ġt ied
Ġstand ing
Ġch oose
Ġh ay
Ġtri ang
Ġcray on
Ġpain ting
Ġli fted
Ġspot ted
our s
Ġsl ipped
Ġdepend able
ia ble
Ġthought ful
Ġgar age
Ġbu ilt
Ġ er
Ġste al
Ġp ian
Ġmo le
l ph
d ile
en ny
Ġt ank
Ġsc ale
co dile
Ġcraw led
ip e
ber ries
Ġpian o
Ġpick s
Ġboat s
Ġbott om
Ġshow s
Ġcra ck
in ary
Ġmu sh
Ġhurt s
c ream
Ġus ing
Ġcheer ful
Ġp ant
Ġham mer
Ġdo lph
Ġmel on
Ġre f
Ġsmo ke
Ġmagn et
Ġmo der
Ġen g
Ġa unt
r n
Ġar row
Ġsqu ash
unn el
Ġho pping
o in
Ġt unnel
Ġs ink
Ġrel iable
Ġmoder n
Ġbe et
Ġg um
Ġj ug
Ġcro codile
Tim my
Ġwa ff
p ack
Ġpop ular
Ġt ax
Ġpig e
Ġcompet it
The ir
Ġmov ie
Ġfl ute
Ġli z
Ġle an
Ġp ress
Ġmush room
Ġs il
M olly
Ġtrou bled
as er
Ġon es
ip op
ll ipop
Ġcry st
op ter
ic opter
i v
Ġneed s
Ġlo llipop
Ġtri cks
Ġhel icopter
Ġkiss ed
Ġl ow
Ġr id
com fortable
a ppy
Ġlo cked
Ġwa nder
Ġplay ful
ed y
Ġtax i
Ġun comfortable
at ch
h ost
Ġhelp s
at ter
Ġan x
Ġwra pped
Ġtw ig
Ġgra ce
Ġhum ble
c les
Ġcam era
a ff
Ġanx ious
ĠS n
Ġmu ff
Ġdisapp oin
Ġf is
am ond
Ġto rn
Ġg host
Ġru ined
Ġqu ar
Ġbel t
c ident
Ġn ail
Ġang el
Ġpant s
il ty
Ġliz ard
Ġte ars
ot o
op l
er opl
ĠJen ny
Ġgu ilty
ĠE ven
Ġwalk s
Ġdi amond
Ġcoll ar
Ġb ull
c ut
Ġa eropl
Ġhelp less
Ġhapp iness
ex t
Ġde af
ce an
Ġme ant
Ġc ere
Ġfl uffy
Ġpass ed
Ġen v
Ġo cean
Ġw ire
Ġboy s
Ġharm less
z ed
Ġbeet le
Ġbe es
Ġt ire
Ġbrace let
Ġm op
Ġord inary
Ġc omet
Ġquar rel
Ġcand le
Ġrad io
Ġflash light
Ġstret ch
Ġsh ape
Ġpers ist
M ama
Ġc op
ie f
Ġpour ed
Ġto oth
Ġhard er
t t
Ġcryst al
Ġansw ered
Ġinv ited
Ġch arm
Ġeng ine
Ġoff ice
Ġcomp ut
ump et
Ġcere al
Ġt ag
Ġca ct
Ġm elt
Ġcomp ass
Ġsp ill
Ġtriang le
Ġtr umpet
Ġfig ure
Ġac cident
ut h
Ġl it
Ġbar ber
Ġsp end
Ġm ug
Ġav oc
Ġpa le
Ġsco ot
Ġdisappoin ted
Ġli cked
Ġv i
Ġreg ular
Ġgi ving
Ġwhisp ered
Ġre p
Ġb icy
Ġro de
Ġsh ade
Ġh unt
Ġshe et
Ġcre ate
ell ig
az e
Ġp ow
u be
Ġpr o
ĠTr ue
Ġint ellig
it her
Ġyog urt
c col
he tt
ag hett
co a
aghett i
Ġsa iled
J ane
ccol i
Ġth read
Ġr oof
Ġgif ted
Ġcompass ion
Ġdes k
Ġc ush
Ġhar sh
Ġp ipe
Ġpersist ent
Ġlo ad
Ġd ust
Ġra ft
Ġpige on
Ġpract iced
lc an
Ġcact us
Ġdel ight
u bby
Ġm itten
as ses
Ġcomput er
az z
Ġfor ward
Ġli br
lcan o
Bob o
Ġc oo
Ġin se
Ġquest ions
Ġri ce
Ġspe ed
Ġcar p
Ġear s
Ġfeather s
Ġstrong er
Ġsp aghetti
Ġcharm ing
g ing
umb ers
h ip
Ġgl ove
Ġen vel
Ġst ream
ul if
Ġon ion
Ġshr imp
Ġrest less
ur key
Ġt ap
Ġco ins
om es
ol in
Ġcarp et
Ġtra p
Ġbox es
Ġvo lcano
we et
Ġenv ious
Ġco coa
Ġaeropl ane
Ġtr unk
Ġkn ot
Ġintellig ent
Ġch ubby
Ġcraw l
an ger
Ġca ulif
Ġha lf
Ġdream s
Ġv ine
Ġbro ccoli
Ġth ief
Ġsp un
Ġt urkey
Ġfriends hip
Ġwhe at
Ġn umbers
Ġloo p
Ġtra ck
Ġac ce
ĠJ ake
ess ie
Ġhair cut
Ġv ide
y e
Ġs le
Ġy aw
Ġt ube
Ġinse ct
Ġm ill
Ġloud er
Ġatt ract
as ing
cy cle
Ġcaulif lower
Ġal ert
ac he
Ġpebb le
Ġe ventually
Ġexc ite
Ġdel iver
Ġtick et
ĠEm ily
Ġreturn ed
Ġc urt
Ġb ri
Ġpo em
Ġer aser
Ġgrace ful
Ġcurt ain
Ġsleep ing
Ġnice ly
Ġhappen ing
ĠTo day
ĠO K
Ġsc reen
Ġcompetit ive
Ġlearn ing
Ġdest ro
it al
Ġplan et
Ġdec ide
is ted
Ġvi olin
Ġp ony
Ġho sp
Ġattract ive
Ġbar rel
Ġhosp ital
Ġdolph in
Ġpar ade
Ġun iver
Ġsold ier
Ġwheel s
Ġsc atter
Ġcelebr ate
Ġb ase
Ġsa us
rew ork
ul u
at s
Ġquest ion
ul b
Ġbicy cle
t en
at ient
G o
Ġcompassion ate
Ġway s
Ġbubb le
Ġignor ant
Ġl ying
z zy
ter n
Ġpe ach
Ġh ook
ĠP ipp
Ġsor t
Ġtr uth
Ġle op
Ġtra vel
Ġth u
Ġb ulb
Ġd eter
Ġy ach
Ġju dge
et e
Ġenvel ope
Ġor der
Ġneed le
Ġr ag
Ġad or
el ery
Ġfi rework
Ġro d
Ġru bbed
ĠF r
Ġscoot er
d om
Ġte m
Ġdeter m
Ġh omes
Ġsp ell
Ġbus hes
Ġyach t
Sara h
Ġgr own
Ġtr ay
Ġador able
Ġcri cket
Ġsn iff
Ġcoo ked
Ġun cle
Ġso ar
Ġpr un
Ġp urse
Ġpen gu
ig ator
Ġthem selves
Ġshell s
Ġc ase
Ġsk in
Ġleop ard
Ġc elery
Ġcush ion
Ġimp atient
Ġrad ish
Ġfil m
Ġse al
Ġwall s
Ġme at
Ġch alk
Ġspe ak
Ġsay ing
Ġs end
Ġlive ly
Ġp it
Ġdist ant
Ġmotor cycle
Ġboun ced
ill a
eb ra
Ġcount ing
Ġpat tern
Ġ ed
Ġclean ing
Ġsle pt
Ġent h
ur b
Ġch ain
Ġsur f
eb ook
Ġfor th
Ġbig gest
Ġnot ebook
Ġall igator
Ġspin ning
ĠBu zz
Ġste ak
Ġmet al
Ġmar ry
us ia
Ġavoc ado
Ġenth usia
v ator
is ion
Ġbeh ave
Ġimp ro
Ġdestro y
Ġwip ed
Ġsk ip
Ġlaugh s
Ġwall et
Ġele vator
Ġd ive
Ġwe ek
Ġpo st
us ie
j ect
ch air
Ġsh ut
Ġbag s
Ġb in
Ġdi ary
de st
Ġz ebra
Ġsk ipped
Ġdist urb
ra ge
Ġunl ock
at ing
Ġband age
Ġn urse
Ġcom pl
b ul
Ġpo le
Ġstr anger
ĠS h
Ġo y
Ġgather ed
Ġfold er
ag ed
Ġshow ing
Ġen c
ĠP oppy
Ġswe ater
Ġb ump
n am
Ġarm chair
Ġmix er
bul ance
Ġam bulance
Ġcl ub
Ġjelly fish
G ive
Ġloud ly
Ġt ummy
Ġl ime
ir it
Ġtem p
Ġsc rew
Ġf ather
Ġear th
ĠP eter
Ġdecor ate
Ġin k
Ġbutton s
ent ion
Ġsk ull
Ġjourn al
Ġc ity
Ġf u
Ġmar ble
nam ent
Ġor nament
l ies
Ġpoin ting
Ġtruck s
Ġlight s
B illy
Ġsh ield
G ra
ĠBird y
Ġher b
Ġplay ground
Ġst ation
Ġpre p
Ġknow s
it o
Ġfall s
ĠF o
ĠL ulu
ĠB et
Ġmo dest
Ġgu ard
ĠP olly
Ġlibr ary
n ger
ob y
Ġatt ic
ct op
qu ito
Ġpol ish
Ġsal t
Ġy et
Ġstraw berry
Ġmo s
Ġp le
Ġwhen ever
Ġc ord
Ġres c
Ġfoot ball
ĠM um
ce ed
umb led
Ġmos quito
ctop us
Ġdisapp eared
ke le
ur ing
kele ton
Ġk ay
Ġve st
Ġpir ate
Ġon ce
Ġl ed
Ġdri ving
Ġcup board
Ġa ut
Ġcall ing
ak y
Ġspl it
Ġh ipp
Ġsupp ort
Ġbrother s
Ġc able
Ġo ctopus
Ġcomp let
us hed
Ġwis hes
Ġcompl ain
Ġtri pped
Ġcart oon
Ġit ch
Ġm ild
Ġed ge
ob ile
Ġro ot
Ġa dded
Ġkay ak
Ġsnee ze
st ic
W ell
Ġsuc ceed
?" .
om obile
Ġco al
Ġthu nder
Ġread ing
Ġri bb
Ġgr owl
p ar
Ġaut omobile
Ġenthusia stic
Ġsun g
Ġme adow
Ġtr oph
Ġdeterm ined
Ġst ack
Ġsug gest
Ġdraw er
Ġha ll
Ġs keleton
Ġkind ness
ut es
Ġg or
ht ub
Ġyog a
Ġdraw ings
Ġglow ing
Ġbat htub
Ġfle a
Ġmean s
l a
Ġve il
Ġcup s
Ġche ss
Ġtele ph
Ġm ath
Ġsp ear
Ġfl ame
w ork
Ġpo ke
Ġvide o
c ase
Ġit self
Ġre pe
Ġmat t
Ġcost ume
Ġsw itch
Ġz ipp
Ġoy ster
Ġgo lf
oph one
Ġteleph one
Ġmuff in
Ġpen ny
Ġhipp o
Ġpa cked
Ġtroph y
l asses
ĠL ittle
Ġpast ry
Ġroll ing
, âĢĿ
Ġd ess
in es
Ġmake up
Ġar g
Ġsung lasses
Ġrep air
Ġpow der
a it
Ġp un
Ġr ot
Ġm aze
Ġhand le
Ġpe ar
Ġsho cked
Ġhunt er
ĠM iss
ri c
Ġfr ame
ĠPe ople
a ving
Ġc ob
Ġp ine
Ġg ear
Ġmin utes
Ġmatt ress
Ġpack age
Ġenc ou
Ġmag az
Ġmiss ile
Ġc amp
ĠT ina
Ġkn ight
ur ch
ir on
Ġst airs
Ġwaff le
t ime
w eb
Ġgra pes
Ġw ife
Ġf ile
Ġhe dge
Ġcol our
B ye
Ġle ash
Ġman aged
Ġse par
p er
he ad
R e
Ġw ool
Ġo k
Ġbasket ball
o ld
Ġcob web
S ee
es day
Ġey e
Ġper m
ie w
Ġst aff
Ġstr ugg
Jim my
Ġho c
ist ol
Ġmic r
ĠT weet
Ġhoc key
Ġg asp
Ġte ar
Ġbanan as
Ġwe ep
Ġbark ing
Ġsp irit
ke ep
Ġv iew
ĠD an
Ġsaf ely
ro sc
c ing
Ġgigg led
Ġstep s
at ure
Ġmicr ophone
rosc ope
Ġt ask
Ġgor illa
ĠR ose
ĠP ete
Ġcool er
Ġth ose
Ġear ly
Ġmar ched
Ġsail or
ĠL ook
Ġhot el
Ġslid es
Ġp istol
J ill
Ġch urch
h ic
w as
f fe
ot ter
Ġdess ert
Ġve nd
Ġre ver
Ġmin t
Ġ otter
ffe e
Ġve hic
Ġf ive
Ġe ither
Ġrem ain
Ġof ten
Ġfl our
Ġt en
Ġpe e
was her
Ġbase ball
Ġpretend ing
Ġcook ing
Ġsaus age
Ġph oto
ch or
Ġgra ndpa
Ġwh ip
Ġthin king
Ġopen s
Ġ ow
Ġkn ock
Ġfire man
Ġorgan ize
il ot
Ġmed al
Ġs ight
Ġsand box
Ġreal ised
Ġdish washer
Ġo il
Ġtool s
Ġpat ch
Ġtemp le
Ġbatter y
Ġh ours
Ġsn e
Ġg rill
Ġr ise
n ey
Ġsh ort
Ġvend or
ctor y
Ġla ser
' d
ĠG ive
Ġan chor
Ġfa ctory
Ġ iron
ug ged
Ġcard board
Ġblack board
l oo
Ġme m
ap ers
Ġre ward
Ġc ell
ĠZ oom
in ation
Ġh ive
uc et
at ely
Ġtra sh
ĠR ob
A l
Ġtow ers
Ġm ay
az or
ĠBet ty
ĠS unny
Ġexcite ment
ĠB essie
r on
Ġmess age
ĠPipp in
re ady
Ġ ig
Ġrh in
Ġig loo
en se
ĠSn ow
keep er
pl ace
Ġval u
Ġpengu in
ail able
Ġu r
Ġset t
Ġlot ion
se um
Ġfa ucet
Ġqu it
Ġwar d
Ġcan e
ar oo
Ġall owed
Ġche ck
Ġbat he
ang aroo
Ġhang ing
Ġward robe
Ġmu seum
Ġdream ed
F luffy
Ġp ilot
im ney
Ġpick ing
Ġal ready
e er
Ġpass port
Ġnap kin
Ġfis her
Ġju icy
Ġch imney
Ġs ize
Ġav ailable
Ġo ak
E m
Ġst umbled
Ġco ffee
Ġnew sp
Ġhold s
Ġl end
Ġfing ers
ht ray
Ġk angaroo
ĠEvery where
Ġtell ing
amp oo
Ġmu le
Ġcher ries
pl ay
Ġha nger
Ġmic roscope
Ġtorn ado
Ġm ummy
Ġm en
bo dy
and a
Ġnot ice
Ġfree z
Ġimag ine
Ġcomplet e
Ġfire place
Ġpract ice
Ġmagaz ine
ĠZ ip
Ġspill ed
Ġenjoy ing
Ġno vel
Ġcow s
Ġla und
Ġfast est
Ġg ain
Ġp al
Ġcabin et
Ġlaund ry
Ġsu b
Ġsk irt
W ait
ar ian
Ġhur ry
oc er
a id
Ġshr ink
Ġre ind
Ġas htray
Ġr ake
Ġimpro ve
Ġb ill
Ġfall ing
Ġdis play
Ġdiscover ed
g en
ur ed
Ġsil ver
ac hes
Ġpal ace
Ġfisher man
I s
ĠSp ike
Jo e
Ġsh ampoo
Ġro ared
Ġmin er
c ome
ocer os
Ġt ub
Ġtall er
st airs
Ġstar ed
Ġo ats
Ġtra il
Ġf og
v ision
Ġreind eer
Ġob ject
Ġhapp ier
Ġclimb ing
Ġoff ered
ict ion
Ġho les
Ġa x
Ġvalu able
Ġboot s
Ġzipp er
Ġnam es
Ġp or
v ice
iction ary
Ġstret ched
ile t
Ġh ut
Ġfu el
ĠHe re
ie st
Ġbath robe
O w
Ġs ym
Ġrhin oceros
ale nd
Ġjump s
c u
Ġtele vision
Ġjewel ry
Ġstop s
Ġperf ume
Ġlisten ing
Ġc alend
Ġspark ly
Ġto ilet
Ġbu ry
Ġbl in
M ummy
ĠS usie
bo l
Ġpress ed
Ġjoke s
Ġop era
ĠM ar
Ġax e
ĠT oby
Ġpro v
Ġpo pped
Ġre ce
Ġatt ach
Ġt una
Ġsym bol
Ġcalend ar
Ġp apers
l u
Ġsn ap
ĠK im
M r
Ġne at
Ġgasp ed
Ġbook case
Ġsu per
Ġr azor
Ġcom fort
Ġbike s
f a
Ġsub way
ar ry
Ġpin ch
z ag
Ġcho se
af fe
Ġhelp er
Ġany way
Ġletter s
Ġd ictionary
Ġli e
ree k
ic hes
aur ant
Ġs on
Ġpor ch
Ġrest aurant
Ġsandw iches
Ġun pack
Ġtight ly
Ġc reek
Ġwe igh
Ġres ist
ĠA re
Ġspo ke
Ġsh aking
Ġbelong s
Ġsquirrel s
Ġbuck le
ig zag
Ġbutterf lies
Ġnewsp aper
Ġg ym
Ġbill board
Ġvehic le
Ġdis ag
Ġbl ouse
Ġfreez er
Ġmust ache
Ġlight ning
Ġagain st
d el
om ed
Ġswing ing
Ġp ed
Ġstick ers
Ġgrow ing
Ġn ature
Ġal arm
Ġli p
Ġhun g
Ġdist ance
Ġswam p
Ġstir red
Ġbe ep
i k
Ġex t
Ġob ser
Ġc ards
Ġinc lu
t e
Ġag ree
og n
asp oon
Ġte ase
f ast
iv al
L ittle
Ġt ut
Ġcri b
Ġblue berries
l ter
Ġad vice
Ġrub ber
Ġrec ogn
O uch
Ġhat e
Ġsweet ie
Ġfe st
Ġbooks he
Ġshe lter
Ġmusic ian
Ġbee f
Ġser ve
Ġdoes n
Ġo live
Ġbreak fast
Ġmo del
Ġgir affe
x y
Ġcir cles
st ri
Ġg as
e f
Ġsepar ate
Ġfrog s
Ġbookshe lf
Ġte aspoon
ĠT eddy
Ġrever se
as is
Ġtut or
Ġj unk
Ġso il
Ġso fa
Ġair port
Ġwip e
Ġrid ing
Ġa head
Ġple ased
Ġfest ival
rm omet
Ġr ail
Ġsquee ze
Ġpee ked
ĠMr s
Ġch ance
Ġo asis
um mer
rmomet er
Ġpain ter
Ġl umber
Ġresc ue
Ġext ra
Ġdanc er
Ġle aving
Ġsl ipp
Ġtrain s
ĠP andy
Ġdra in
Ġre fused
Ġkn ob
Ġp age
Ġhappen s
Ġin s
Ġqu iz
if orm
Ġpo ked
Ġwe ather
Ġun iform
Ġpoin t
Ġsound ed
Ġru les
re s
ĠDo lly
Ġcl iff
Ġinv ite
Ġwin ter
Ġcarry ing
Ġwas te
Ġdisapp ear
Ġthe ater
Ġbird c
Ġo stri
ĠGra ndpa
D aisy
Ġgo al
Ġbirdc age
Ġpast el
ol a
i ence
Ġlean ed
Ġtr ade
Ġre ef
Ġp anda
Ġst om
Ġlaw n
Ġadm ire
Ġaccident ally
Ġacce pt
Ġsw ung
Ġs uff
Ġli c
re nder
ang u
Ġce iling
Ġtw ir
r iger
riger ator
Ġthe rmometer
Ġb et
Ġclass room
Ġpe ek
n ight
Ġref rigerator
Ġany where
Ġl angu
Ġstar ts
Ġimag ined
Ġfor t
!" .
Ġdream ing
bb les
Ġshow er
Ġrem ove
ĠL ee
Ġblin ked
a ked
Ġab ove
n a
i um
Ġmiss ing
ĠC o
ĠW here
ec ted
Ġcar ing
Ġwar ned
Ġs ummer
ast ic
Ġch asing
Ġzoom ed
Ġst able
Ġs ent
am ber
Ġmonkey s
Ġap ron
Ġl id
Ġgra nd
Ġproblem s
Ġlic ense
Ġc udd
urn it
urnit ure
Ġbri ck
m ed
Ġmistake s
ugg age
Ġrespect ful
Ġf urniture
Ġlab el
Ġp ages
Ġfrown ed
Ġsun set
Ġb ent
Ġj ail
Ġostri ch
Ġpre vent
Ġribb on
Ġl uggage
Ġgra pe
ation s
Ġwindow s
Ġlaw y
Ġw igg
is on
Ġshout s
ĠC l
Ġdel ay
l ow
uc ture
Ġsuggest ed
Ġstr ucture
Ġch amber
Ġold er
Ġspo il
Ġfix ing
e or
Ġlion s
ĠU n
C h
Ġun ite
Ġhand ed
Ġf ought
Ġw ine
Ġfind s
ik i
Ġcho ice
D id
Ġproud ly
Ġsearch ing
Ġbright ly
Ġfav our
Ġar t
Ġpa ir
ĠE llie
pe edy
Ġsurpr ises
ad ium
Ġmeet ing
Ġst adium
Ġinc re
Ġsl ip
ĠC arl
ro d
Ġlawy er
ĠB ow
Ġpudd les
eter in
Ġchair s
eterin arian
ve al
Ġsad ly
m end
Ġadm ired
Ġr ac
Ġint rod
You r
Ġc ur
Ġv eterinarian
Ġfavour ite
Ġgrab s
Ġste am
v et
Ġarg ue
Ġ V
Ġhum an
th ank
om mend
Ġran ch
Ġsa ving
Ġexcited ly
Ġrec ommend
eor ge
ĠB oun
ĠHe l
Ġb erry
Ġre veal
s ity
Ġhar b
Ġsur render
a ul
all ey
Ġeven ing
Ġpus hing
Ġremind ed
Ġin f
Ġy ield
ĠR ed
cu ss
Ġm all
Ġput ting
Ġsnee zed
Ġapp l
Ġv alley
Ġpu p
ĠBu zzy
Ġwe ap
Ġr ushed
ol og
ec ause
el come
Ġa w
Ġharb or
Ġpl ates
Ġforg ave
Ġreg ret
Ġmat ches
Ġminer al
Ġdis cuss
Ġsniff ed
Ġpull s
Ġflo at
ĠB ig
Ġcount ry
Ġrepl ace
Ġra ise
Ġprep are
Ġpl astic
Ġign ore
Ġsupp ly
ĠB ill
ĠN ext
Ġcar ed
Ġap olog
Ġso cks
Ġme as
Ġlangu age
Ġdoor s
ĠJ azz
Ġpan ic
Ġsho vel
Ġsp ade
Ġle ak
Ġf re
Ġs udden
ĠO w
her o
Ġli ves
Ġslipp ery
Ġrest ore
Ġstri p
Ġmyster y
Ġstick er
Ġsuper hero
Ġhop ing
Ġsh one
Ġkind s
Ġplay er
id ay
Ġg ro
Ġbe g
er o
ar i
ĠM ike
ric ane
Ġdelight ed
Ġchick ens
ch an
Ġcolour ful
au d
le x
Y ay
Ġshould er
Ġp ort
Ġsoft ly
Ġrain ed
Y uck
Ġbe nd
r ise
Ġcla w
ĠAl ice
Ġbark s
Ġbre at
Ġ âĢ
Ġshiver ing
Ġho l
as on
M ary
Ġhol iday
ic er
Ġplan es
ĠBu bbles
ĠS peedy
Gra ndma
Ġthrow ing
Ġsun rise
Ġshake s
Ġt ip
Ġkne el
Ġpoin ts
Ġend ed
Ġthank s
Ġsuff er
Ġpus hes
Ġfre sh
ĠB inky
Ġgigg le
im ed
Ġkeep ing
Ġinf ant
w ards
Ġsmell s
ĠO live
Ġco pper
Ġent er
ĠFred dy
Ġde ar
chan ic
Ġ x
Ġdis hes
c ast
ĠW ould
Ġhead s
co nd
Ġth umb
Ġcher ry
N ext
Ġspray ed
Ġbright er
Ġw re
Ġfree ze
Ġme chanic
Ġappl aud
ĠE nd
Ġse cond
ĠP at
Ġsand cast
Ġlaug ht
Ġun h
Ġme owed
ĠF l
Ġmen u
Ġprov ide
Ġlaught er
W ill
Ġhur ricane
Ġe vent
Ġweap on
em ent
Ġn avy
Ġm ass
Ġlet ting
ig i
Ġsplas hing
Ġcla pping
ick y
in ce
c er
ĠO r
Ġfeel ings
ac ked
oph ie
Ġd em
Ġstick y
Ġcast les
app ing
ĠD ave
Ġr ow
Ġfl ies
Ġroom s
Ġd are
Ġunh appy
Ġsc ore
Ġuniver se
arl ie
Ġgre edy
Ġrepe at
o e
Re ady
Ġinv it
Ġen er
Ġdem and
Ġbreak s
Ġcou rage
Ġal ive
L isa
Ġsome where
Ġtrust ed
b les
Ġwre ck
Ġprun e
er c
ĠK iki
Ġthrow s
y ear
Ġsk ill
Ġeat en
Ġ Y
Ġm ention
Ġstar ting
Ġexam ine
que st
Ġr ush
Ġpar ts
Em ma
ĠHel p
Ġpir ates
A ll
Ġjog ged
Ġdrop s
Ġrain ing
B uddy
Ġbump ed
Ġcont ent
Ġfl apped
en ry
Ġs igh
Ġsp ort
Ġpo ison
Ġv ac
he art
Ġspark led
Ġyaw ned
Q u
Ġgi ven
Ġre quest
A nn
ĠZ oomy
Ġste el
Ġmy self
Ġch irp
Ġpig s
Ġto e
Ġstre ng
Ġshr ugged
Ġcoat s
Ġtra cks
M ark
Ġsco ld
ĠR u
Ġboun cing
Ġfl ood
Ġex erc
Ġpa id
Ġstreng th
Ġstu d
Ġe qu
Ġpun ish
Ġsn ugg
ĠJohn ny
Ġuniver sity
Ġcross ed
Ġup stairs
Ġscr atch
Ġwar n
Ġpray ed
Ġimpress ed
Ġbad ly
Ġt ide
ĠT ed
Ġle ather
Ġsquee zed
g es
Ġnew s
Al ice
Ġbu zz
. .
Ġex pect
Ġrabbit s
Ġbear s
Ġsett le
Ġmin ute
y th
Ġyaw n
Dad dy
Ġstraw berries
Ġn ation
Ġobser ve
S h
Ġche cked
ĠH oppy
Ġsweet heart
ĠL illy
m are
yth m
Ġexplor ed
Ġclaw s
ĠS m
ĠS que
i ally
ĠM ummy
ĠL ola
Ġbelie ved
Ġhis t
Ġvac ation
Ġto ur
Ġsandcast le
Ġhist ory
Ġhor ses
ĠM andy
ĠG igi
in king
s pec
Ġnet work
Ġhe at
Ġso ak
Ġchee k
Ġpl aced
Ġoff er
we en
ĠU nder
Ġimag ination
Ġeas ily
Ġspot s
Ġbet ween
spec ially
ĠB ee
Ġener gy
Ġblue berry
m en
Ġsnow ball
Ġwa ving
ott en
ree ze
Ġbra in
re at
Ġstom ach
Ġnight mare
Ġsaf ari
Ġrh ythm
iz es
Be fore
Ġd aisy
Ġv room
Ġprun es
Ġwr iting
Ġb aking
qu ake
Ġblow ing
Ġent ered
Ġp alm
Ġst air
Ġsc oop
Ġmass age
Ġins isted
Ġtw isted
n oon
Ġafter noon
Ġbeaut y
ĠS ee
Ġlemon ade
Ġe specially
ap a
Ġhill s
Ġb other
Ġpo ppy
ip ment
ĠSnow y
Ġcall s
ĠFo x
Ġ ing
Ġse w
Ġhear ts
Ġs ir
Ġequ ipment
Ġno body
Ġearth quake
he st
Ġp ad
m ble
Ġignor ed
Ġt ug
Ġst y
Ġincre ase
Ġing red
Ġingred ient
Ġburn ed
is ty
Ġle ar
Ġlear nt
Ġwhist led
Ġg az
Ġshop keeper
xy gen
Ġcra sh
Ġtre mble
Ġperm it
J enny
Ġy ucky
Ġback pack
Ġintrod uce
Ġmove s
F red
Ġped al
Ġlem ons
ff ic
ĠS k
Ġmail man
ill ie
Ġflo ated
Ġm ama
ang es
ed n
edn esday
W elcome
Ġbean s
Ġwis dom
Ġstri ke
ĠFin ny
Ġrac ing
ĠL ucky
Ġwag s
Ġplan ned
Ġfollow ing
res ses
Ġtra ffic
itten s
Ġsl ap
Ġpri ce
Ġwe ight
ĠG eorge
t ain
ec ting
Ġl uck
er ation
la imed
Ġinclu de
Ġbu ried
Ġp itch
und ay
ĠE lly
Ġp ur
ĠH ave
Ġmar bles
em ember
M imi
Ġcom f
L e
Ġhop es
Ġrecogn ize
Ġfold ed
Ġexc laimed
Ġfollow s
ore s
Ġcand les
ĠS unday
Ġap art
ĠWh o
ri age
Ġbel ow
uc t
ĠOw l
Ġingredient s
h ouse
ĠP aul
Ġf urt
Ġteach ing
Ġencou rage
ĠW ednesday
Ġclose ly
Ġgrowl ed
ĠS u
ĠA lex
Ġz igzag
Ġhe el
Ġpull ing
ĠFin n
Ġboun cy
W oof
Ġcon f
Ġwin ning
Ġd igg
ĠD og
Ġchew ed
Ġim age
Ġfurt her
Ġpeanut s
Ġdigg ing
Ċ Ġč
Ġshout ing
Ġd resses
c ery
W ith
Ġgro cery
re c
ĠGra ce
Ġch ores
Ġc ape
bb ing
l ook
Ġwhisp er
Ġtw isty
Ġpuzz les
Ġsp ike
Ġexp er
Ġscr at
ĠSque aky
Ġatt ention
Ġop eration
ĠI s
Ġplan ted
Ġsn ail
Ġacorn s
h ood
Ġdeep er
ec ture
ĠWhen ever
Ġexerc ise
Ġh on
Ġur ge
Ġunder ground
if i
i ppy
Ġworm s
ĠFr oggy
Ġqu ite
Ġag re
dd y
Ġwas hing
Ġl ecture
Ġcu b
Ġcreature s
Ġs imp
Ġbl ood
Ġli cks
Every one
Ġb le
Ġelephant s
Ġdress ed
Ġinvit ation
Ġgif ts
Ġsol ved
or al
ĠDan ny
Ġmar riage
g ie
Ġland scape
Ġquiet ly
Ġsnugg led
Ġhurt ing
Ġstrugg le
Ġvan ished
Ġwar ning
or ies
ĠT illy
Ġfall en
u esday
ĠM ittens
Ġbreat he
Ġj azz
rec i
Ġneighb our
Ġs izes
ĠSh aring
ĠS ophie
Ġd ried
Ġsail ing
Ġm ice
Ġapp reci
ĠP enny
Ġwor th
is ses
look ing
Ġk isses
ĠâĢ ĵ
ĠR ock
Ġre lease
Ġspr ink
Ġpa used
ĠG ood
p ted
B ecause
Ġeag erly
N ot
Ġcount er
Ġide as
ĠT uesday
ĠZ ara
Ġre aches
B ella
Ġshin ed
ĠJoe y
ip s
ĠCo co
ĠR os
s ed
Ġplay s
Ġbal an
Ġo xygen
Ġsty le
Ġin st
Ġw ob
ĠBoun ce
uc ked
Ġo h
igg ly
Ġmu ddy
ĠCh arlie
Ġacce pted
Ġfl ap
Ġbri cks
m m
Ġgl o
Ġfirework s
Ġfa sh
ĠP ip
et ch
Ġsee ing
ĠAnn ie
r ight
Ġex it
Ġmem ory
R emy
Ġbl ink
Ġtre mb
To day
The se
op s
ĠP inky
Ġtomato es
Ġcap tain
Ġwe b
ipp ing
Ġwag ging
Ġmar ried
Ġpet als
un ately
Ġd uring
Ġwander ed
Ġfash ion
Ġres p
Ġprin ter
ra ged
ĠEvery thing
Ġpillow s
Ġwater ed
Ġrece ive
Ġman age
i ved
ĠR o
Ġglo ves
Ġb ur
ĠBlue y
Ġpin ched
Ġcatch ing
ĠE ventually
Ġb ones
Ġwor se
Ġvan ish
Ġbr ings
Ġall ow
Ġtreasure s
ĠP apa
Ġdestroy ed
Ġs i
Ġsign s
Ġmem ories
S urpr
Ġsor ts
Ġscatter ed
d o
Ġdisag ree
n ce
up s
Ġher s
Ġcake s
ĠF ifi
u ry
Ġsit s
Ġve l
Ġapp ear
Ġsn apped
u x
B l
Ġhit s
Ġvel vet
Ġz ipped
Ġhad n
Ġscold ed
Ġp ies
Ġra ised
Ġgaz ed
ĠMar ia
Ġpe ars
Ġran g
Ġseat s
Ġsh ot
Ġor anges
Ġeas ier
ss ible
c cer
Ġcr ow
Ġskill s
Ġprin ts
Ġtwir led
Y um
Ġcut ting
Ġfr o
Ġforg otten
Ġclimb s
Ġba ked
ag gie
Ġbit es
e ster
Ġd ared
Ġblanket s
a h
Ġslid ing
or ted
Ġso ccer
Ġdiffere nce
ester day
Ġse ason
Ġl ux
ĠT w
st ers
Ġgold en
ĠGo d
ĠH arry
is ing
Ġst itch
Ġble ed
Ġspoon s
ch oo
Ġl ung
Ġcelebr ated
Ġnow here
Ġstra ight
Ġk itty
Ġsor ting
ch ie
ap ed
Ġcoll ected
an ny
Ġto ng
Ġunl ocked
Ġwelc omed
d ing
ĠH enry
Ġvis ited
Surpr ise
Ġru in
Ġour s
um ble
Ġpret t
Ġatt ached
med i
Ġem er
Ġis n
medi ately
Ġmarch ing
ĠSp ark
Ġwin ner
Ġjog ging
Ġweep ing
Ġsimp le
ĠE ach
Ġs ince
O k
Ġtra ve
Ġpet s
M oral
Ġflo ating
Ġguess ed
Ġwa ist
Ġshould n
ĠT ony
Ġlux ury
ĠRos ie
i ers
Ġfam il
Ġbow ed
Ġby e
Ġcre ated
r r
Ġsell ing
Ġkick ing
Ġv ict
Ġur ged
ct ion
Ġbed s
ĠW iggly
Ġpun ished
ĠSm ith
Ġtra pped
Ġolive s
Ġstuff ed
Ġgr ant
Ġjewel s
s it
Ġmus cles
Ġac ted
Ġgr in
Ġking dom
ĠS andy
Ġmel ted
Ġto es
Ġcra s
omed ay
Ġz ero
Ġsold iers
ĠK ing
in o
Ġto re
Good bye
Ġl ined
Ġunderstand ing
Ġmeas ured
ak er
Ġpattern s
Ġsl ice
Ġencou raged
' ve
fort unately
ĠB aby
Ġwe st
e ath
Ġrece ived
k ins
Ġcollect ion
ĠL iz
un e
ent s
ĠBe fore
Ġme ow
Ġb reeze
Ġmouth s
ĠRu by
Ġb ang
ĠK ate
ad ed
v a
Ġwaff les
Me ow
Ġbr us
Ġs omeday
Ġpup il
Ġfire f
Ġprin ted
r in
Ġpe aches
r ing
ĠUn cle
Ġexper ience
ĠW ally
um es
Ġpotato es
Ġdrink s
Ġvoice s
Ġsur round
e ep
Ġf etch
Ġtong ue
Ġpresent s
Ġshe d
ĠSt e
ĠM illie
Ġvict ory
iss ion
os ed
c us
Ġperm ission
Ġpaint s
Ġwhist ling
Ġbre aking
Ġdr inking
Ġhur ried
Ġn one
Ġfl at
is hing
Ġsk ipping
Ġmention ed
Ġrelax ed
Ġtw ink
Ġs ip
Ġcost umes
ake s
Ġstr o
Ġbeg ged
sh ip
Ġe sc
ĠT una
Ġdisag reed
Ġfis hing
ĠThe se
Ġte asing
Ġto night
Ġpe arl
Ġp ra
Ġop in
ve st
Ġwat ches
Ġperfect ly
Ġapp ro
ĠM ay
Ġsor ted
Ġherb s
Le o
Ġhig hest
ic ing
Ġlet s
Ġshadow s
Ġ Qu
Ġsp it
ĠB o
Ġwarm th
Ġim mediately
irr ing
Ġring ing
w alk
Bl ue
ut ter
t her
Ġremain ed
Ġhead ed
Bob by
Ġlip s
Ġkneel ed
J en
ĠIt s
Ġlady b
Ġag o
Ġside walk
Ġcartoon s
č ĊĠč
o ved
ĠFo llow
Ġsne ak
Ġcr unch
Ġcont est
Ġf ed
Ġcol ours
ĠB oo
Ġe ast
Ġli ck
Ġl ily
H a
Ġs ix
Ġstr ang
Ġsupp osed
Ġstamp s
ĠC he
Ġroot s
et y
ĠT oto
" ,
Ġl ines
Ġinst r
Ġmelt ing
Ġkn own
Ġrest ed
Ġemer gen
Ġmix ing
M andy
Ġwigg le
Ġdecor ations
Ġwork s
Ġla id
ĠG r
Ġsucceed ed
Ġsh ock
Re ally
Ġscream s
Ġgirl s
Ġcon es
Ġst irring
ĠSu zy
ĠA b
Ġfield s
Ġland s
ĠRock y
Ġm ister
Ġtheir s
Ġstud ied
Sam my
s ing
Ġmoment s
Ġstrang ers
Ġset ting
Ġplay time
Ġbr id
ĠS low
Ġr ul
b oo
Ġord ered
ĠD r
ĠCh icky
d ed
!" ,
ĠJ ul
Ġal right
Ġrest ing
p lease
Ġt ucked
ĠB oth
ĠCl ara
Ġbrave ly
Ġsteal ing
Ġtwig s
Ġri pped
Ġsett led
Ġscrat ched
Ġin vest
av id
Ġoff icer
Ġbrid ges
B ird
Ġwait s
Ġinvest ig
And y
Ġmat ched
at ie
Ġte x
! '
Ġtex ture
Ġladyb ug
or ed
ist en
Ġnail s
ab ies
Ġtremb ling
is hes
P eter
Ġburn ing
ĠJ ames
Ġadm ir
Ġa chie
H appy
Ġturn ing
Ġth reat
id s
Ġpu pp
ĠSome one
Ġesc aped
os ity
Ġso re
ĠSk y
Ġsaf ety
Ġbro om
Ġinvestig ate
Ġare a
Ġkey s
Ġdad s
Ġpile s
Ġsil ence
Ġemergen cy
Ġspark le
Ġsl apped
ĠH op
id es
B oo
Ġappreci ate
Ġb abies
Ġimport ance
Ġser ved
Ġansw ers
Ġsister s
W ould
Ġw iz
Ġs ings
Ġmuff ins
ĠL ater
iz ing
Ġhe n
ĠPe pper
Ġtouch ing
B u
Ġchew ing
all en
Ġamaz ement
ĠD ino
ache l
Ġv et
Ġso ared
Ġtw in
ant ly
b ers
Ġch allen
Ġkeep s
Ġfood s
Ġwr it
Ġhe sit
E lla
Ġrid es
Ġso aked
Mom o
ig ail
Ġd ire
z ing
Ġreveal ed
ĠM e
Ġtick le
Ġrecord ed
Ġtrip s
Ġit em
M mm
ĠZ igzag
ĠB ug
Ġqu ack
Ġin ch
Ġwiz ard
Ġdinosaur s
ĠA n
Ġh i
Ġw ink
Ġgu y
Ġsho pping
Ġglow ed
Ġmitten s
Ġeat s
an na
Ġcur led
Ġbe amed
ĠFr og
Ġspace ship
Ġha ted
ĠSomet hing
Ġwood en
Ġrul er
E ventually
Ġpra ised
Ġbring ing
Ġg ust
Ġstudy ing
Ġshoot ing
C at
Ġfl av
Ġdown stairs
Ġf ut
Ġmark s
Ġfut ure
pl ash
a ved
Ġbrus hes
Ġn apping
he llo
Ġmon sters
Ġcraw ling
Ġd ot
ĠH ope
ĠO ut
Ġfamil ies
Ġtast es
Ġo at
a les
Ġcrunch y
ĠM o
J ake
Ġcudd led
ĠH appy
Ġres ult
Ġmeas uring
Ġsprink les
Ġbleed ing
ĠSt ar
Ġcoll ecting
Ġrem em
U n
ĠF irst
Ġappro ached
ĠR abbit
Ġremem bers
Ġlead er
' .
Ġbe at
Ġth rill
Ġdisturb ed
Ġsne aky
C l
ir ts
a ct
Em ily
O r
Ġn icer
Ġsc aring
Ġgre y
h ind
u es
Ġno on
Ġyou th
Ġpe el
ĠN ot
Ġapolog ized
ĠD id
Ġticket s
Ġwe ighed
Ġpo ssible
Ġneighbor hood
Ġnap s
Ġfire men
Ġloo se
Ġmot ion
Ġswim s
S omet
Ġpr ide
Ġdog gy
unn ies
Ġcras hed
Ġpoem s
Ġscoop ed
p ed
Ġpo king
Ġzoom ing
c ious
Ġtri cked
ĠH o
f ied
Ġwant ing
Ġrecogn ized
h a
Ġwonder s
Ġstr ings
Ġdraw s
Ġopin ion
Ġsi ren
ĠBe ep
Ġsees aw
Ġgain ed
ĠSlow ly
Ġyell ing
Ġche f
Ġwork er
Ġgrin ned
. '
Ġprep ared
Ġb unnies
Ġa we
en a
Ġact ing
Ġresp ons
Ġo be
el vet
Ġe ff
Ġown ed
om ing
Ġsne aked
Ġhapp iest
Ġp ause
Ġstr uck
Ġany time
ĠAl ways
Ġped als
Ġsecret s
O llie
Ġagre ement
Ġdecor ated
ĠS qu
Ġkn elt
Ġdecid es
Ġtall est
oy s
og o
R emember
Ġhorn s
id ed
Ġbeh aved
ĠSt op
Ġt ugged
Ġfr ost
Ġw oof
H ave
all ow
Ġspark ling
l s
riend s
Ġobe y
Ġgood night
u d
aff es
Ġs ides
Ġsl im
Ġpre cious
l ier
Ġkeep er
m other
ĠL izzy
Ġchirp ed
Ġrepe ated
ĠR ay
Ġour selves
Ġwrit es
Ġgir affes
Ġsnowball s
Ġclap s
i en
T r
Ġcont ain
z en
Ġbalan cing
ay s
r s
ĠL ike
Ġbuzz ing
ind y
Ġadmir ing
ĠA m
ig gy
F irst
Ġeff ort
ĠSte ve
ĠZ oe
Ġspend ing
Ġhis sed
Ġpr op
o h
Ġbloom ed
Ġkind ly
S usie
pp ers
om as
Ġfrost ing
is dom
Ġsweet ies
Ġstrugg led
Ġslim y
Ġre le
Ġru bbing
Ġfro zen
ar th
an ted
Ġpol ished
Ġstay ing
Ġpocket s
Ġcra cked
Ġbr ushed
A h
ĠM aggie
Ġbe side
ĠV elvet
D ucky
Ġhug ging
ur ry
Ġdemand ed
Ġbo om
Ġcomf y
Ġthrill ed
Ġhon k
Ġcomp le
Ġb oo
ĠR achel
Ġspray ing
Ġy esterday
Ġpow ers
Ġmach ines
ĠJ oy
Ġseem s
ĠK eep
Ġr ust
it ies
Ġear lier
Ġopen ing
am ie
Ġrock ing
Ġsurround ed
Ġg aze
ĠSt itch
Ġcat ches
Ġcir cus
ĠG reen
ed ding
Ġpot s
Ġcuri osity
Ġhard ly
S p
Ġpebb les
Ġrem oved
Ġst ing
Ġstri pes
Ġlo ving
Ġfold ing
ĠA unt
Ġtrave led
Ġto ss
Ġload ed
Ġrad ishes
Ġe ight
Ġpet ted
ĠBird ie
Ġpaint ings
Ġzoo keeper
ĠPipp a
Ġro cked
er n
Somet imes
Ġmatch ing
Ġbe lly
Ġcomf orted
l oe
Ġst are
i bb
Ġribb ons
Y ummy
Thank s
ĠM illy
Ġwhat ever
ĠM at
D uring
Ġneighb ors
ĠD avid
Ġex pected
Ġdec ision
ĠB ree
Ġprot ected
Ġsplas hes
Ġdes er
E x
Ġsaf er
Ġsad ness
Ġhero es
Ġgr anted
Ġdi ving
ĠFr ank
Ġcr umb
Ġstrugg ling
ĠRob by
Ġroad s
Ġste ep
Ġdisco very
Ġsun light
ĠW ater
Wh iskers
Ġorgan izing
Ġapolog ize
R o
Ġpur red
w h
Ġchase s
Ġarg ued
Ġpe ered
Ġsmile y
ĠBoun cy
Ġli ed
Ġd ipped
an a
Ġgo als
low ers
Ġpart ies
Ġw edding
Ġscr u
Ġdrag ons
Ġbe ard
Ġan n
Ġpastel s
ĠCh r
Ġeag le
u se
Ġsl ed
Ġar gu
Ġbuild ings
Ġbucket s
Ġt im
Ġcrab s
Ġargu ing
Ġvill ag
Ġfa sc
Ġsaus ages
Ġfl utter
Ġwigg led
ĠG ogo
Ġplanet s
ĠJ u
Ġri p
ĠW atch
Ġte ased
Ġrele ased
ĠAb igail
u ke
Ġpol ishing
Ġtail s
Ġro aring
Ġcont ro
Ġ X
ĠR emember
Ġpad d
Ġbott les
Ġgather ing
R ex
Ġact ually
Ġl imes
ĠD are
Ġw id
Ġpretend s
Ġcontin ue
joy ed
Ġspid ers
Ġdrag ged
ĠJ ess
Ġteac hes
Ġmov ies
Ġover joyed
ĠO lly
Ġspark les
Ġcle aring
Ġsit u
Ġsh irts
ĠS plash
Ġsigh s
ĠC ar
ir a
um m
Ġdri ves
Ġtal ent
Ġsmall est
Ġpour ing
Ġair pl
n joy
Ġchallen ge
Ġun ited
Ġstretch ing
Ġshiver ed
Ġcudd le
Ġso aring
Ġman e
Ġfasc in
T iny
John ny
Ġcut s
Ġgrand mother
ĠK atie
Ġref res
Ġquarrel ing
Ġcub es
j am
i b
le y
ĠJ e
Ġc aut
ĠW isdom
Ġwonder ing
Ġdust y
Ġplay room
Ġb ank
Ġvillag ers
ĠZ ero
s ses
Ġdark er
ĠEvery day
Ġpe ppers
Ġwhere ver
Ġweek s
Ġon wards
Ġr ings
Ġreal ize
Ġkit es
ĠBe ing
A choo
Ġprett iest
Ġbe ad
ind a
F r
Ġpengu ins
Ġcomp any
Ġbed time
L una
ĠB ecause
ĠLe ave
d am
Ġgot ten
Ġknight s
Ġflag s
Ġact ions
anna h
Ġcomple ted
Ġfe ars
Ġlearn s
Ġshr ug
Ġrespons ible
Ġph ot
Ġdest ination
Ġd am
ĠSp ring
Ġm a
Ġwire s
âĢĿ .
Ġcre pt
Ġrep ly
Ġpencil s
Ġwr ist
Ġfa ult
Ġpe as
ĠF ish
Ġpat ience
Ġb aker
Ġsat is
Ġpack ing
ĠP rin
ĠA va
aw s
U h
Ġapplaud ed
Ġwin s
Ġvisit ing
Ġstick ing
Ġscru bbed
Ġinstr uct
ĠP ut
ĠE arth
Ġremind er
as hed
Ġmountain s
ĠL ou
Ġuse s
Ġheal ed
Ġh itting
Ġaw ake
Ġjo king
l er
M ar
Ġw ound
uck ily
Ġstar ing
Ġcontro l
udd les
Ġscream ing
Ġth ird
Ġbeg in
ic orn
b ie
W atch
Ġun icorn
se ek
R ob
Ġfiref ight
Ġtowel s
ĠH ippy
Ġwas ted
Ġpro ject
ent y
ĠF riends
Ġcre ation
Ġpump kins
Ġout do
Ġmask s
Gra ndpa
S illy
g o
Ġch ips
ĠM oo
ĠBe hind
Ġlollipop s
Ġhelmet s
ic a
Ġhe av
Ġforg i
Ġd ied
Ġinstruct ions
Ġsc ales
Ġper ched
Ġsw oop
Ġprot ecting
Ġvide os
Ġpract icing
Ġgun s
in ing
Ġse as
Ġarri ve
Ġac com
Ġsto le
Ġgl itter
Ġagre es
St ay
Ben ny
Ġwere n
Ġachie ve
Ġshe lves
la ire
Ġbatter ies
Ġlog s
ĠC ra
Ġpar ked
Ġpatient ly
us an
d ie
Ġact iv
Ġsnake s
Ġitem s
he e
D ave
Ġcand ies
Ġwho se
n ers
Ġro ses
jam as
Ġblow s
Ġexam ined
Ġprom ises
Ġshould ers
ĠC uddles
Ġchirp ing
D oggy
Ġbowl s
ĠJ an
P oppy
ĠBl ink
Ġex act
Ġaccom pl
Ġd ent
ant a
z es
Ġphot os
Ġdolph ins
ĠCat ty
F o
Ġb unch
Ġairpl ane
Ġreach ing
ue st
Ġbra nd
Ġtask s
ĠL ove
Ġlisten s
Ġcrumb s
Ġc ough
ĠBrown ie
Ġcop y
Ġcheer ing
Ġbead s
Ġpupp et
Ġrequest ed
P ete
B unny
Ġimpro ved
ĠHo ot
c akes
ĠB op
B ad
T ime
ir m
ĠB ye
Ġwork ers
ay la
Ġst ern
Ġcan s
ĠE njoy
Ġg uest
Ġrepl aced
il o
Ġcomplain ing
Ġmis ses
ĠB y
Ġrem ote
ĠChe w
G eorge
Ġne ither
ast er
Ġroll s
ĠS un
uct antly
M ike
Ġpass ing
ĠO l
ang led
Ġtim er
Ġben eath
Ch irpy
Ġclose s
Ġal ien
Ġoutdo ors
Ġcurtain s
Ġpa jamas
ath y
es ome
M iss
ĠS orry
ĠJul ie
Ġrub s
Ġpat ted
Ġguy s
Ġconf l
n ie
Ġdrum s
L ola
ĠSqu irrel
ĠM ouse
Ġ 1
d ies
Ġqu acked
n eath
Ġla p
Ġref use
Ġrainbow s
Ġpolice man
R un
Ġfill ing
ĠD ot
Ġresc ued
Ġt une
.. .
ĠB eth
Ġswe at
Ġc ause
Ġfair ies
P aul
b l
Ġpast ries
Ġcaut ious
Ġaw esome
ĠA bby
ist le
Ġfa ced
Ġv ent
ĠO ur
Ġins ist
Ġdoctor s
Ġmiss ion
Ġm es
Ġbalan ced
ĠPrin cess
Ġrocket s
Ġp out
ĠHow ever
Ġcur ly
Ġintrod uc
Ġconfl ict
Z oom
Ġse ven
O ops
ac ob
y ou
A n
Ġobser ved
ĠTh omas
l ay
z ie
F ine
ĠJ illy
Ġbec oming
Ġteam work
Ġsl am
Ġ Yes
Ġinclu ded
Ġremember ing
Ġst umble
ke lly
Ġsp ong
Ġexact ly
Ġstar fish
Ġru le
Ġbloom ing
Ġfascin ated
Ġfar ther
u ly
Ġwob bled
Ġneighbour hood
ĠS ad
Ġrecord ing
Ġf irm
Ġprett ier
Ġevery day
av i
Ġpray er
Ġpoin ty
H enry
Ġtr aded
Ġhelp ers
Ġrel uctantly
Ġsitu ation
Ġsight s
Ġca used
G reat
Ġstay s
Ġdot s
Ġsupp lies
Ġth ro
Ġste ady
Ġpad dle
Ġminer als
ink le
ĠCh loe
g ers
Ġtr uly
Ġornament s
a is
e ah
Ġsnow men
S ome
Ġinv iting
ara way
Ġtra ctor
Ġtable s
Ġadd ing
Ġa st
Ġval ued
o dy
Ġus ual
Ġfork s
ĠS ure
Ġf araway
ĠA lly
Ġswoop ed
Ġinsect s
Ġpan s
Ġb are
Ġth orn
Ġspong e
Ġsol ut
Ġgl asses
J ames
ĠJ amie
ĠS anta
or a
ĠG et
Ġd ar
ĠW elcome
ar ter
ĠTw o
Ġso bbed
Ġus ually
Ġgrowl ing
P olly
Ġwin ked
Ġsnee zing
Ġ Once
Ġsuperhero es
Ġsm arter
Ġscar ves
Ġload ing
Ġgem s
Ġdes ert
ag ull
Ġno ses
Ġyour selves
Ġun f
D og
Ġthro at
Ġwind y
ĠW ant
ĠSt ay
ĠS kelly
Ġunder neath
D ays
Ġhome work
Ġlibr arian
Ġunt ie
Ġkick s
ĠD uck
ĠK ids
ĠQu ick
s m
v in
c oon
Ġsurf ace
ĠD izzy
Ġknow led
ĠFo xy
Jo ey
Ġitch y
Ġconf ident
Ġknowled ge
H old
Ġsquare s
.. ."
bb ie
ĠM ix
ĠF or
O ur
Ġgigg ling
Ġcom m
Th ose
T ina
Ġyou nger
T oby
ĠJo sh
Ġjacket s
p ite
Ġwarn ings
Ġread s
Ġcomplain ed
i ar
Ġst em
Ġprince sses
Y eah
Ġwear s
Ġse agull
e ed
Ġt angled
Ġon ions
Ġtwir l
Ġch oo
Ġb umpy
Ġcrow d
Ġde al
Ġstart led
ĠUn fortunately
Tr ue
E w
Ġpadd led
Ġbad ge
Ġdi ved
D anny
ĠA nt
ul ts
Ġp ec
Ġbit ing
Ann ie
Ġclown s
Ro ar
ĠH enny
ou ch
id o
ĠJ ones
Ġpig gy
Ġbuzz ed
Gra ce
Ġro pes
Ġdeliver ed
Mr s
Ġdire ction
Ġcover s
ĠRo ver
Ġun p
cu se
Sh h
Ġtick led
Ġchoice s
s on
o ke
ĠM on
ĠS c
Bu zz
ĠQu ack
P e
ĠD ara
t uce
Ġlean ing
an es
Ġsatis fied
Ġc ous
Ġv owed
Ġnap kins
Ġguess ing
Ġseek er
Ġri pe
Ġlet tuce
Ġwip es
ĠAnn e
Ġyell s
M aggie
Ġr isk
Ġc ent
Ġspe aking
Un fortunately
ĠS usan
ĠMat t
Ġknock s
ĠJe ff
Ġslow er
Ch arlie
Ġrefres hed
ĠDo do
th ough
ĠWh istle
ĠAs h
Ġtoast er
Ex cuse
Ġhid es
S ophie
Ġtip to
in t
ĠL ion
T eddy
Ġhid er
Ġcreat ing
Ġintroduc ed
Ġexplore rs
Ġav o
f it
Ġfro ze
Ġarrow s
Ġsque al
Ġpay ing
Ġkne es
Ġsign ed
Ġjo ked
Ġst ung
ĠD ee
ad os
ang ing
Ġref le
ĠZ iggy
ĠP aws
Ġran ger
Ġdiscover ing
Ġwr itten
Ġprov ided
Ġwander ing
a a
Ġwis hing
Ġpray ing
ugg les
Ġbeh aving
ence s
rr r
Ġsing er
br ush
t le
Ġimag es
ĠBug gy
Ġmar ked
Ġbur st
Ġv ines
Ġrest ored
Ġgre et
?" ,
Ġmushroom s
Ġlead ing
Ġdance s
it ely
Ġch at
ll ed
Ġbra very
Ġbare ly
Ġrain y
ĠL inda
am b
Ġcobweb s
Ġhow ever
Ġout fit
Ġmus cle
Ġchef s
Ġch uck
Ġruin ing
ust ed
Ġcompetit ion
Ġbase ment
Ġavoc ados
Ġpen s
How ever
Ġvent ured
Ġperform ed
ĠW ink
Ġsal ty
Ġmagnet s
ĠSn uggles
k y
Ġrot ting
Ġprop erly
Ġblock ing
Ġdark ness
se qu
b ric
Ġfa bric
ĠGr umpy
Ġcon sequ
Ġmin ts
Ġmatter s
S n
Ġsc ur
Ġle ast
f l
Ġn ine
Ġscrat ches
Ġdeser ve
ol ine
Ġcl ick
ĠJen na
Ġent ire
Ġ Ġč
r ink
Ġtwir ling
Ġjob s
Ġsew ed
ĠF u
ĠL uke
l en
Ġlo sing
L isten
Ġb ak
ĠL aser
o or
st y
izz ie
Ġheav ier
T weet
Ġscur ried
Ġrelie f
Ġgear s
Ġrace s
ag ic
Ġex ha
Ġtire s
Ġsil ent
ĠC laire
ĠL ena
Ġsolut ion
Ġwrap s
Ġw ow
Ġsunf lowers
Ġnecklace s
ĠBet sy
Ġsn at
Ġlift ing
ab el
Ġpart ic
Ġfl ames
Ġcrack ers
ĠP r
Ġtrick y
r ance
ĠSk ip
Ġlight er
Ġgrowl s
Ġconsequ ences
Ġunp acked
Ġrain co
Ġneed les
Be ep
Ġsword s
Ġdecor ating
Ġbuy ing
Ġcautious ly
Fo llow
Ġfig ured
A lex
Ġst ain
ep t
Ġbow s
A b
oph ia
c her
ĠTh ose
Ġsuffer ing
Ġgrow s
ell e
J erry
Ġbump s
Ġflav or
ĠA dam
Ġtriang les
Ġaccompl ish
Ġhesit ated
Ġpur r
Ġb acked
Ġstom ped
Ġinterest ed
Ġdent ist
Ġp ins
Ġgra bbing
Ġcon n
b ly
H arry
ĠM ilo
Ġann oy
Ġown ers
Ġsweet s
Ġg ri
ĠE l
ais ies
Ġcheek s
Ġbo dies
Ġm ater
ĠGood bye
ver s
ĠC athy
Ġmater ial
Ġgroup s
Ġc ott
Ġt ies
Ġswan s
ĠR olly
v room
Ġwait er
L illy
B ig
Ġfa ct
Ġd aisies
ĠCo pper
it ches
Ġsw ept
Ġthu d
T w
Ġexha usted
Ġpec ked
Ġre pa
ĠN ana
ĠJ essie
ĠNot hing
R u
Ġfe ast
Ġdar ling
ĠT ree
Ġt apped
Ġma iled
F or
? '
Ġne ct
Ġnect ar
Ġchuck led
ind r
Ġslam med
Ġre ason
Ġle ap
Ġfore head
Ġf reed
Ġactiv ities
ĠF ido
ark y
Ġwor ries
Ġun s
n o
Ġpartic ular
Ġlung s
ĠL isten
Ġgen ie
Ġcomplet ely
Ġplay ers
ĠT ry
Ġtwink ling
Ġent rance
Ġcudd ly
Ġrepa ired
Ġpl enty
Ġbak ery
Ġč ĊĠč
Ġme als
Ġbu dge
ĠB all
Ġpee king
Ġst ool
Ġra indr
Ġsc ra
Ġpassport s
Ġm er
o ssible
Ġfu zzy
ĠChr ist
Ġforget s
ro sty
ĠM ad
ct ions
b and
Ġhand ful
Ġcolor ed
Ġtalk s
Ġmon th
Ġimp ossible
Ġfeed ing
igg ie
Ġsto len
Ġprin ting
ĠTr ust
st ep
Ġtunnel s
Ġdesign ed
ĠC ara
ĠH annah
le ts
ĠSu zie
Ġwip ing
le phant
Ġs ense
ĠB irthday
Ġfilm s
Ġbu ses
Ġnest s
ĠR e
M ay
Ġd en
Ġl amb
Ġste er
Ġbath s
Ġcow b
Ġdeterm ination
Ġfire s
W hee
Ġsuit case
Ġhon ked
bo at
Ġsew ing
Ġo pp
Ġ Q
Ġcount s
Ġt y
Ġbar s
ĠOl iver
le e
m as
ĠBl oom
Ġhop s
Ġspread ing
Ġbeh avi
Ġac he
ĠJ acob
bl ings
Ġback ward
Ġsi blings
Ġch op
ĠSo f
ĠSn ap
Ġch anging
Ġcamp ing
Ġtwink le
Ġfe ver
n ies
Ġc ash
Ġag e
y es
we ed
S unny
Ġcelebr ation
ĠTw inkle
Ġtw ice
Ġsqueal ed
ck y
h og
R ose
Ġspike s
Ġsepar ated
Ġs way
r ig
Ġsnat ched
Ġk ings
Ġshop s
ĠP up
Ġunt ied
b ut
Ġl ower
Ġcelebr ating
ĠR ain
Ġscrew s
Ġtouc hes
Ġh us
ue en
Ġshr inking
it ched
ile s
au ra
air y
Ġsea weed
S andy
Ġli qu
Ġkitten s
Ġdro pping
Ġpath s
ĠJess ica
ĠH old
ri ous
ĠM ira
Ġpan cakes
ig ning
Ġavo id
Ġstro ked
Ġsome body
Ġdoll house
c ope
ĠG ina
Ġtwist ing
ĠM el
Ġast ron
ĠJ on
ive s
c l
ĠM ic
Ġr otten
n e
ll en
Ġcalm ed
Ġsp at
Ġplay house
am my
P ipp
Ġsqu ish
Ġthr own
Ġastron aut
Ġa imed
Ġwra pping
h i
L uckily
ĠN ina
B et
Ġloop s
Ġfiref ly
Ġstud ents
Ġspark s
Ġsh oo
ĠF rosty
h o
T ake
ĠChrist mas
D an
Ġplan ning
Ġcl ues
ret ch
Ġsk unk
ĠâĢ ĺ
Ġpupp ies
ĠPe anut
p en
ĠO ther
Ġdanc ers
Ġwake s
Ġpl ain
Ġhus band
M illie
rig ued
im mer
y an
Ġliqu id
Ġincre ased
ĠJ ay
Ġhedge hog
Ġbrace lets
Ġpen nies
ri ver
are n
ĠW oof
u ppy
Ġtr amp
Ġlead s
Ġreward ed
Ġcous in
Ġpout ed
ĠRo llie
end y
Ġobject s
Ġbl ocked
Ġrefle ction
Ġdire ctions
Ġvehic les
us ing
ing o
Ġlift s
ĠWith out
Ġpo ster
Ġfrown ing
Ġslip s
âĢ Ķ
Ġdo d
Ġtipto ed
Ġsnow fl
Ġbegin ning
Ġforget ting
Ġc ust
Ġa ff
U nder
ĠB iggie
iv ity
Ġstore keeper
K ate
Ġzebra s
i very
Ġinstr um
u de
Ġmes mer
iver sity
Ġdam age
y ond
Ġswims uit
Ġbe yond
ie ce
Ġpres ses
Ġfar t
ĠY esterday
J ump
Ġwhisp ers
Ġfl apping
Ġborrow ed
Ġcold er
Ġmark er
ad es
Ġcre ations
Ġtramp oline
Ġheal th
ĠOn ly
j o
P at
Ġcust om
ĠU p
ĠRob o
ĠK ayla
ĠF ire
ĠCh irp
Z ip
Ġr ising
Ġn ibb
Ġlay ing
Ġgl ued
ĠE lephant
Ġstrong est
Ġcountry side
a el
ĠT ara
Ġy elp
Ġsto pping
Ġdoll ars
Ġstreet s
Ġsa le
Ġwarm er
itt ed
Ġrain s
Ġhear ing
Ġcreat ivity
ĠJul ia
O ut
Al ways
Ġfart hest
Ġsw ir
Ġevery body
Ġregret ted
an s
Ġsa n
ĠSnow man
Ġshap ed
Ġsniff s
Ġcash ier
ee se
Ġrust y
Ġfit s
M illy
Ġbell s
ĠQ ueen
ang le
C o
Ġe arn
Ġrob ber
ĠR ich
Ġfin s
ibb it
ĠM oon
Ġsan k
ĠMike y
Ġsuff ered
ter s
Ġinclu ding
Ġlend ing
Ġrac coon
Qu ack
Ġwob bly
Ġtremb led
ĠW oo
st ick
Ġsing le
arm er
Ġspell s
Ġhope ful
ĠSpark y
Ġrecommend ed
Ġend s
u ing
Ġbel ts
Ġaccomplish ment
Ġlabel s
ich ael
B ear
Ġsour ce
Ġcush ions
Ġart ist
e et
Ġwe e
Ġind eed
ill ed
Ġslow ed
Ġseas ons
u ess
Ġencou rag
im on
ert ain
e al
Ġguest s
Ġturt les
Ġdel ivery
Ġrainco at
ĠS w
i am
Ġg ross
ĠT ake
ob ody
ara c
Ġm oo
Ġplan s
Ġfigure s
Ġt ying
Ġpop s
il ity
N ina
ĠL izzie
B ill
Ġflav ors
ĠMiss y
Ġdraw n
M ine
Ġsurpr ising
it i
Ġg eese
Ġperform ance
ĠL arry
ch o
Ġsupp orted
Ġstand s
ĠSp irit
t he
Ġsail boat
Ġraindr ops
Ġnot es
Ġsp ins
Ġrec ipe
Ġque ens
Ġcorn ers
V room
Ġforgi ving
id ing
el ia
Ġvan illa
Cl ara
Ġc oop
Ġch arac
o ey
Ġwill ing
Ġimag ining
Ġsecond s
Ġbe am
w k
umm ies
Ġpour s
ĠB ones
Ġhall way
Ġtalent ed
Ġsail ors
Ġgri p
Ġdriver s
ipp er
Ġwid ened
it ude
Ġad ult
ĠJ une
Ġhor iz
Ġsque ak
Ġbur row
Ġd et
Ġgro cer
Ġt ipped
Ġwe pt
Ġhoriz on
ĠBe aky
ust y
Ġprep aring
ĠS ophia
Ġd ie
Ġas ide
Ġun w
ĠP am
Ġuns ure
ll ing
Ġt ummies
Ġsend ing
Ġy um
Ġsymbol s
Ġso fter
e ve
Ġrobot s
ĠRob ert
Mar ia
Ġcurious ly
Ġt iss
Ġmer ma
ĠFu zzy
ĠI zzy
Ġwater ing
Ġtoss ed
Ġro ars
Ġpupil s
Ġpige ons
Ġpass en
Ġdeliver ing
Ġband ages
Ġknot s
Ġachie ved
Ġtw eet
ig ers
E llie
umb ling
at ur
Ġr ather
Ġe cho
ĠA bbie
Ġr umble
Ġc oup
ĠSt ella
ĠE ls
u zz
Ġtree house
Ġha wk
Ġh our
Ġple asure
ĠP lay
al ph
Ru by
Ġam ong
ĠC indy
ĠCra b
L ulu
D olly
aw n
Ġm erry
M oo
Ġhot ter
Ġsurf board
Ġback wards
ight ing
Ġzipp ing
Ġfl ipped
ed s
c ited
Ġangel s
Ġscrew d
Ġbl own
ĠRu dy
V ery
Ġsc ored
Ġblin king
Ġover come
us hing
Ġm ate
Ġfirefight er
ĠDo ctor
Ġsp ed
Ġhead ing
Ġgrocer ies
Ġch ip
on ies
Ġsw all
Ġg lee
Ġswall owed
Ġint rigued
Ġdisturb ing
at y
Ġafter wards
P ut
Ġwob ble
Ġ icing
Ġshovel s
Ġrever sed
p rin
Ġslice s
Ġsquee zing
f ly
L ike
ĠJ ump
ĠB arky
B aby
Ġcent er
ĠT ia
Fr ank
Ġwa king
Ġm aker
č Ċ
S u
Ġencourag ing
Ġdesign s
Ġfirefight ers
!âĢĿ .
Qu ick
as hes
Ġd ip
Ġa ud
ĠS l
Ġcream y
b ird
Ġscrewd river
ĠZ ee
S ad
Ġmark ers
Ġfrown s
Ġpr ove
Ġcoup le
Ġa is
ĠT urt
ĠSt retch
ĠSad ly
Ġp uff
ile y
ĠT iti
Ġbr u
ĠEm my
Ġslipp ing
Ġresp ond
ĠR on
Ġjar s
Ġtiss ue
Ġgigg les
ĠK it
Ġsuit s
Ġsquish y
Ġfirm ly
R ibbit
Ġriver s
he w
ĠL aura
Ġp onies
Ġd aring
pec ting
Bet ty
os en
Ġtight er
Ġch osen
ĠE x
ĠA ng
Ġignor ing
Ġshark s
ĠR yan
Ġsh own
Ġe v
Ġc or
Ġgarden er
Ġt igers
Ġsec ure
Ġgrace fully
Ġflutter ed
ĠN ick
Ġ 2
Ġhang ers
Ġhaircut s
J ul
G et
th a
Ġbit s
Ġfamil iar
Ġde f
Ġpedal ed
Ġaud ience
ment s
Ġcross ing
Ġperform ing
r at
C ar
Ġthorn s
Ġsprink led
Ġcolour ed
ĠW o
ĠP atch
Ġdraw ers
Sp ike
B ang
Ġpay s
ĠTo ot
ĠF armer
oun ce
Ġexp ress
ĠUn iversity
Ġt il
Ġnervous ly
Ġto dd
Ġpe ck
e en
Ġmind ed
ch ild
Ġbee h
ion a
Ġyield ed
Ġcloud y
Ġdis ob
g gy
Ġcrown s
ĠS leep
ab ly
Ġstro ke
f all
B essie
a e
dd ie
ad ing
Ġsh ady
Ġres pected
Ġst itches
Ġn apped
bb led
Ġoy sters
Ġtest ed
a ven
ĠN ear
arl ings
ar row
D ear
Ġmerma id
Ġd arlings
on i
Z oomy
Ġhoop s
K atie
ĠChr is
Ġsurround ings
ĠTweet ie
Ġwis ely
B oys
Ġtemp er
Ġmix ture
Ġfill s
Ġpaint brush
ĠZ oey
Ġfle as
G uess
Ġneighb ours
Ġenthusia sm
Ġmagic ian
Ġbeeh ive
Ġsurf ing
Ġsail s
or ing
Ġbel oved
ke nd
Ġexpl o
ĠTurt le
Ġthought s
Ġmagaz ines
Ġwee kend
Ġspit s
Ġel bow
ĠB ally
Ġremind s
ver ed
Ġpan icked
Ġmel ons
Ġlesson s
Ġl ent
ra c
Ġteam s
Ġfl ip
ant ha
Al right
ĠF ighting
p arent
Ġclean er
ĠW ise
Ġli es
Ġam ount
Ġsport s
Ġlong est
K im
Ġunderstand s
Fred dy
ĠMar tha
ong rat
ongrat ul
Ġscoot ers
Ġnightmare s
ĠThank s
ild a
Ġla ce
Ġforgi ven
ĠAl ong
ll e
K eep
Ġbat hing
Ġtub es
Ġsweet est
Ġs ill
Ġc rew
Ġgrand child
c row
Ġar r
immer ing
Un cle
Ġman ners
Ġdiscuss ed
c used
Pipp in
Ġrepe ating
ĠW illy
ĠY et
u rious
Ġsp ies
Ġspr ang
ĠMay a
it a
Ġgu ide
Ġre ass
Ġn ur
Ġsheet s
Ġn ood
A m
Ġe lf
Ġwr ink
Ġgrass y
Ġgrand parent
oun ced
After wards
Ġne are
ĠH olly
ent ly
ast y
es pite
on na
Ġev il
Ġbra ver
Ġwigg ly
ĠSpark le
ce pt
ĠW ell
Ġspoon ful
Ġsp ice
Ġsol ving
Ġship s
Ġm ast
Ġwa dd
Ġc oug
Ġbulb s
J azz
Ġr ushing
rom ise
og a
Ġscatter ing
Ġscare crow
Ġpol itely
ĠP uppy
ĠGr anny
- -
Ġhesit ant
Ġgreet ed
ĠT ess
und red
step s
Ġspeed ing
ĠK ip
Ġbreat hed
am boo
Ġch anges
Ġswe ep
Ġb ully
Ġan ger
wh ile
an cy
? !"
ĠMix y
ĠN obody
ĠBu bb
Ġn uzz
Ġjoin ing
Ġfoot steps
E ven
Ġwor n
Ġmesmer ized
nt il
Le ave
K iki
Ġstor ed
Ġse als
Ġm iles
Ġtest ing
Ġfo cused
Ġmaterial s
Ġheal ing
Wh ich
Ġkn ives
Ġaeropl anes
P enny
Ġdon key
ĠChew y
Ġspill s
Ġbury ing
Ġbicy cles
Ġbasket s
z oom
Ġlick ing
ĠSh ow
ĠN ice
Sn ow
Ġpeace fully
Ġcam el
Ġd ump
Ġg onna
ĠL enny
Ġbelie ving
Ġterri fied
Ġcl ue
ĠW in
dd ing
Ġare n
is c
er m
Ġpuzz led
Ġgaz ing
Ġ1 0
re y
Ġst acked
Ġlo ses
H urry
Ġworry ing
ĠT e
Ġtemper ature
Ġtrave lled
ip es
f reeze
ab by
Ġpinch ing
ĠIs n
re ct
Ġpol ar
D avid
Ġsnowfl akes
Ġbl ast
B ee
ĠAb i
Ġsand y
Ġso aking
Ġh undred
ĠL ia
be ep
Ġfor ce
Ġdri pping
c a
ĠR oo
ĠF airy
Ġtast ing
Ġpurp ose
Ġrelax ing
ĠA na
el ie
sh m
Ġhuman s
Ġcras hing
ĠJu dy
Ġrat s
Ġb amboo
pp ies
Ġu nd
Ġdelay ed
shm allow
Ġencourage ment
ĠO kay
ĠAl i
Ġunw ra
Ġlip stick
f orm
Ġswim mer
Ġban ged
ĠL uckily
year s
and as
Ġr amp
Ġpunish ment
Ġbackpack s
ĠW endy
Ġtodd ler
Ġscra ped
Ġsniff ing
Ġg est
Ġjo ins
Tw o
Ġdress ing
Ġcor rect
or ter
K ids
Ġcover ing
T ony
O pen
an while
Bu zzy
B ow
ĠS imon
Ġcell s
Ġben ches
B y
Ġsnee zes
Ġquarrel ed
Ġbeep ed
B inky
Ġtwink led
Ġe ase
ĠJo jo
Ġmonth s
b age
Ġsc ient
ĠHer b
Ġtow ard
Ġlangu ages
Ġpost man
Ġord ers
Ġno dding
Ġres isted
Ġp uck
Ġnood les
P andy
Ġfo cus
Ġflo ats
Ġbird house
Ġscient ist
ĠChe ss
ĠC r
Ġopin ions
Ġm aster
Ġhe ight
ss ss
Ġf aded
Ġdri fted
ĠP h
Ġad ults
ri er
Ġfl own
op es
Bird y
Ġrisk s
Ġperm itted
Ġhand ing
Ġwound s
Ġfl ight
Ġfreed om
Ġdam aged
Ġannoy ed
In stead
Ġbother ing
' ."
Ġple aded
Ġinstrum ents
Ġhands ome
Ġg erm
Ġsell er
ĠMar ie
ous y
in ny
Ġres ults
Ġche ers
bb ers
B ack
Ġsl ither
Good night
Ġpot ion
un ched
id er
ĠS ay
Ġte aring
Ġcream s
ĠRob bie
ĠC ow
Ġbur nt
Ġcharac ters
ĠB ess
Ġsing ers
Ġscare s
Ġmind s
Ġsmell ing
u el
Ġexplain s
d a
Ġzoom s
ĠR azor
ĠP oor
Ġ 5
C arl
Ġon ward
Ġc ertain
b ell
Be hind
Ġremind ing
Ġeng ines
Ġp ound
Ġhis s
Ġbrave st
is ions
as hing
Ġbrus hing
ĠL oop
Ġdream t
ĠM int
it ion
Ġwith in
Ġpo ppies
Ġmar shmallow
ĠTo dd
u nder
atter ed
Ġp andas
Ġstom p
Ġstern ly
ec ca
Ġsm ashed
Ġbehavi or
Ġsque aked
Ġsc en
Ġsc amp
Ġdestro ying
ĠJan ie
T ry
Ġsn uck
Ġro bbers
Ġwas ting
ĠH ug
Ġsweat y
Ġin sp
ĠP en
Ġtal ents
Ġt uck
Ġmate y
Ġbell ies
a ver
Ġtreat ed
Ġpeel ed
Ġman ag
Ġapolog ised
ĠFl ick
Ġsw itched
ĠEvery body
prin ts
c ake
R os
Ġtil ted
Ġin j
Ġdes per
Ġb itten
Ġant ic
ĠFish y
Ġcolor ing
Ġplant ing
ĠM ake
Ġfa iled
Ġsqu aw
Ġrust ling
Ġcra cks
Ġcomb ed
Ġbus iness
r up
l ine
Ġy umm
Ġs y
Ġh oo
ĠZ ippy
Ġyelp ed
M ira
L ena
A dam
Ġdisplay ed
ĠU ntil
ĠM abel
Ġcrawl s
ig hing
e vin
Ġfile s
A unt
Ġshin es
Ġn asty
Ġed ges
Ġdoor way
S low
Ġwid er
ĠE ddie
ĠD ina
or king
Ġneat ly
Ġdes pite
Ġdec isions
ĠS e
ĠN ut
uff in
ab elle
Ġtap ed
Ġsweat ers
Ġconn ected
Ġadd ress
Ġwater fall
Ġprob ably
ĠN avy
c c
Z ara
T ed
Ġscold s
ĠG ary
pe ed
T illy
Ġresc uing
Ġmosquito es
Ġsp y
Ġgrandparent s
w ise
m ies
Ġpur rs
ul p
om p
an ie
P lay
Ġshin ier
Ġdoor bell
Ġdisob ey
i el
Ab igail
Ġse ver
ĠJu dge
Ġpl ot
Ġflap s
Ġecho ed
W ake
Ġsever al
Ġnewsp apers
ĠM indy
ĠAng el
os cope
f ound
T oo
Ġser ving
ĠM ichael
Ġdress er
Ġastronaut s
ĠSh are
Ġg ap
Ġst eth
ĠSh adow
ĠJack ie
M at
Ġt ar
Ġsh orter
Ġquiet er
Ġgo bbled
Ġg oo
Ġcare s
Ġback s
ĠTim e
Ġ ouch
ib i
R ock
F l
Ġwhist les
Ġenc ount
Sh rink
Ġsnap s
Ġo cc
Ġbreat hing
ĠM ousy
ĠB ra
ig ger
Ġcott age
m ates
v ant
o llen
Ġstud ent
Ġgest ure
ĠMe g
St eve
Ġsw ollen
Ġprop er
Ġleap t
ĠW ait
Ġpl ucked
Ġrow s
Ġs ou
Ġmagn if
ĠY oga
M agic
Ġsimp ly
ain t
L iz
Ġexplore r
Ġm ood
Ġact ion
Ġaccident s
ĠBl inky
t ock
Ġpill s
J amie
Ġgrand son
Ġuniform s
Ġthrough out
Ġsteth oscope
Ġantic ip
Ġbother ed
ĠB ad
re st
Ġteacher s
Ġsw ap
ĠC ro
H annah
Ġcowb oy
f ire
Ġwar ri
Ġlow ered
Ġjoy ful
ret ty
f ather
O live
Th omas
Ġca using
ĠR uff
og er
R ed
Ġm unch
Ġlo cks
ll as
Ġrun ner
Ġgoat s
art led
Ġunpack ing
Ġtrust ing
ĠF iona
Ġde ars
ĠPr ince
Ġsandcast les
Ġwe eds
un ity
M ad
Ġch ar
ĠT ri
Ġwh imp
Ġumbre llas
Ġeffort s
ĠT oys
Ġais le
ĠRe ady
N ice
Ġtar get
Ġpray ers
Ġcoll ap
Ġaw are
Ġfloor s
ĠB ang
om b
ail s
Some one
Ġenvel opes
ĠV room
ĠK aren
Ġstamp ed
Ġch arge
Fin n
Ġknock ing
Ġfl ips
l ied
Ġste pping
Ġdis c
Ġcon s
wh at
Ġplay d
Ġnear ly
Ġgerm s
Ġex cept
Ġtr ot
Ġshr ank
Ġin ches
Ġappreci ation
r ons
Ġwadd led
Ġne cks
Ġfin ishing
ĠR alph
Ġha ird
en ing
Ġla pt
Ġap rons
Ġmodel s
Ġgl itt
Ġghost s
oo sh
Ġstro ll
Ġstat ues
Ġset s
Ġfoot prints
Ġdiscuss ing
ĠD espite
Ġpassen gers
ĠJack y
ĠB umpy
isc uit
.' "
Ġflutter ing
iss a
ĠZ ipper
ĠAm elia
Ġnovel s
ĠH oney
iv i
D r
Ġche cks
ear s
Ġscamp ered
Ġs ens
Ġpl ug
Ġnur ses
Ġmind ing
Ġmeow s
Ġanticip ation
Ġwr igg
S peedy
Ġtool box
Ġdrive way
Ġbec omes
ĠP l
or der
L ucky
Ġscratch ing
Ġnew found
ĠG erry
Ġpri ck
Ġk illed
Ġhunt ers
Ġduck ling
r ily
Ġclos ing
Ġdod ged
Ġadd s
ĠWoo ly
allow een
H oppy
Ġsupp lied
Ġpo sit
Ġatt ack
Ġchocol ates
ĠR uth
Ġsh all
Ġlapt op
Ġfin al
Ġbat tle
ur render
Ġbounce s
ĠT aking
Ġer ase
G igi
Ġmom mies
ott e
Ġinvit es
Ġbelong ings
ĠEl iz
A rrr
Ġfor m
ĠFl utter
Ġde ed
ĠR ia
Do es
Ġsnugg le
Ġburn s
Ġrespond ed
Ġr ays
Ġforgive s
arl otte
ĠSt an
ĠH alloween
Ġdemand ing
Ġcoop er
ac y
Ġsuggest ion
Ġtwist s
Ġdes igning
ĠB ibi
Ġpresent ed
Ġmarshmallow s
Ġche ated
Ġtem pt
Ġcon vin
Ġa im
ĠC le
Co co
Ch loe
Ġr owed
Ġjet s
Ġinvit ations
ĠâĢ Ķ
Ġdr own
Ġcon c
ĠWho ever
Ġex pecting
Ġsl apping
Ġcar ries
Ġmass ages
Ġfriendship s
ir i
Ġspring ing
Ġal though
im ent
so l
ro ken
P ip
Ġcott on
ĠI m
ĠG l
ri e
Sad ly
Ġspray s
Ġrefres hing
Ġpicnic s
he l
Ġtest s
ĠDave y
f ive
Ġtravel s
Ġquestion ed
Ġco nd
ot s
Ġtravel ing
Ġhum ming
Ġde fe
Ġfight s
Ġcryst als
Ġcl icked
ĠBig gy
N ear
Ġbe aver
ĠShe lly
in ch
em ma
Ġup side
Ġsqu ir
Ġc ongratul
Ġsa cks
ĠSad ie
in ted
at ty
Ġopp os
Ġbuck led
ĠSof ty
ĠM uffin
atur day
B r
Ġcra ft
ĠP op
Ġstrip s
ĠN ever
J ess
H mm
Ġtw enty
Ġscoop s
Ġmug s
Ġfox es
ĠN e
Ġaff ord
ĠMe gan
on nie
ĠS aturday
M ouse
ĠEx cited
F ind
Ġpack ages
Ġfl ashed
ĠMad die
E lly
Ġyaw ning
Ġdef in
Ġcon vers
Ġcalm ly
ash a
Ġatt em
ĠR ita
ĠBubb a
Ġoppos ite
Ġencount ered
ĠAl though
co vered
Ġtri cycle
Ġr out
ĠY awn
st alk
Ġspr out
Ġco ach
ĠSof ia
B oth
' ,
Ġwhisper ing
Ġsw allow
Ġca fe
ĠLou ise
R achel
Ġra ising
B all
Ġmes ses
Ġdragon fly
sh adow
Ġreal izes
Ġadmir ation
qu et
Ġreturn ing
Ġgar bage
Ġdec l
ĠFl o
ver se
p o
Ġweigh s
Ġca w
Ġbean stalk
by es
Ġspice s
ĠM ina
Ġdri ft
ĠV ivi
ĠN urse
y ler
up er
Ġscr ub
Ġcup cakes
b roken
Ġweap ons
Ġsad der
Ġgood byes
Ġcl ip
ĠM an
i ens
c ie
Me anwhile
Ġjourney s
Ġhaird ress
Ġbright est
Ġyumm iest
Ġwin ners
Ġaw oke
Ġal iens
ĠO h
Tr ust
Ġgrand father
Ġdiamond s
Ġprevent ed
Ġb less
Ġaw ful
ĠSam antha
ĠPlay ing
r is
ook s
Ch oo
Ġun able
Ġstuff ing
Ġsince re
Ġopp ort
Ġbu d
ĠDot ty
em ies
B rrr
Ġen emies
Ġb uddy
ĠG ray
ri an
Jo sh
Ġst all
Ġb omb
Ġfreez ing
Ġb orn
ĠM aisy
ugg ing
Ġtrap s
Ġhon king
Ġautomobile s
ĠP o
ĠNut ty
re verse
Ġre app
Ġdefin itely
ĠQuack y
v y
Ġresp on
Ġbeet les
er k
Ġrespon se
Ġexam ining
Ġwas hes
Ġty pe
Ġcap s
eb ecca
ath an
Ġloud est
v al
ell ow
Ġgro an
ĠAn other
bb le
Ġwis er
Ġche at
H op
Ġwho ever
Ġstret ches
Ġco sy
ĠC ari
, '
Ġplayd ate
Ġbr ide
Ġreass ured
Ġarg um
ou quet
Ġb ouquet
Ġo dd
Ġhonest y
ĠR icky
ĠF el
Ġconn ect
ant astic
Ġnuzz led
Ġinsp ired
On ly
ĠTh under
y l
iv ia
ing er
Ġwelc oming
Ġhairdress er
Ġcorrect ly
ir ac
ĠS peed
ĠJ ax
S ince
Ġocc as
Ġmo ons
ĠFl appy
o ff
Fin ny
Ġvisit ors
Ġpar ted
Ġoffer ing
ren ch
f us
Ġincre asing
Ġcowb oys
ĠHe llo
elie ve
Ġcomfort ing
ĠB ub
Ġtrave lling
ĠE lle
Ġwarm ly
ĠTr uck
ĠB ingo
sh aped
ook y
R ay
Ġt umbled
ĠM other
ĠE va
Ġspo iling
Ġre wards
Ġp ipes
Ġexper ien
al th
Ġwh ales
Ġsiren s
Ġex ch
ĠM in
ĠJo lly
Ġtrou bles
Ġdecor ation
ĠM agic
Ġinsist ing
Ġcustom er
Ġact ive
or se
Ġsnow y
Ġcamp fire
J e
Ġtr igger
Ġown s
Ġcustom ers
Ġc oral
Ġbra ins
Ġwrink led
Ġpri zes
Ġcho pped
ĠS al
ĠFl op
ud ged
m ine
Ġpo ses
Ġdecl ared
Ġtown s
Ġclean s
Ġre ly
Ġenjoy able
Ġbeak s
ir l
Sh ould
Ġthan king
Ġbend s
ĠM oppy
un es
H oney
Ġwe alth
Ġrec order
ĠK evin
J oy
ĠCh ick
m unk
ap tain
Out side
Ġexerc ises
ĠK aty
ĠF e
ic i
Ġsupport ing
ĠMic roscope
Ġbru ises
T ree
Ġsteer ing
Ġf antastic
Ġcle ared
ĠPat ty
ĠO t
al f
B eth
Ġsurrender ed
Ġs igning
Ġdoll ar
ĠZ ack
ĠMiss ile
Ġshare s
Ġsc urry
Ġconvin ced
ĠC ook
Ġshoo ed
S un
Ġt ing
Ġlo c
Ġbad ger
Ġsc ent
ĠWo lf
ĠL ight
Ġun fortunately
Ġpl ugged
Ġnight s
Ġex amp
w orm
erp iece
Ġstorm s
Ġobey ed
Ġbeam ing
Ġstream ers
Ġenv iron
Ġcudd les
Ġrail s
Ġcrocodile s
sc reen
m atch
Ġvisit s
Ġsqu ished
ĠD e
g ood
G row
Ġsel f
Ġheart broken
ĠL uc
ĠP ine
Ġ ill
B o
Ġtick les
Ġshort s
Ġlace s
Ġenviron ment
Ġdan gers
ust er
Ġthread s
Ġapplaud ing
ĠJo an
Ġyou n
Ġgr at
Ġchip munk
Ġbe ast
ĠS weet
as ers
S plash
Ġyoun gest
Ġt in
ĠS il
ĠP iggy
Su zy
Ġactiv ity
ĠB aa
be e
Ġrespons ib
Ġneare st
Ġhis ses
Ġcoug hed
Ġbat hed
Ġattem pt
ĠTweet y
Ġsun screen
ĠFl oppy
Ġappreci ated
p r
ir cle
il ities
Ġgrat itude
ĠA ny
w ater
me ow
etch up
s n
Ġdisappoin t
ĠT re
Ros ie
M on
Ġju d
Ġexplo ded
Ġd ial
Ġchoo sing
Ġarr anged
Jul ie
A bby
Ġsoap y
Ġprov iding
Ġobser ving
Ġmast erpiece
Mom ma
Ġpe ep
Ġf et
Ġrip s
ĠP ick
et tle
et ah
Ġt apping
Ġcl erk
ĠEls ie
ĠA r
Snow y
Ah oy
Ġtop s
Ġso ot
Ġmanag er
Ġcongratul ated
Ġannoy ing
Pe ople
Ġpilot s
Ġemer ged
ĠA g
at ive
B aa
Ġwe ighing
Ġmess ed
Ġexamp le
Ġche etah
Ġbl ond
ort unately
S que
Ġche aper
ĠTom orrow
ĠJon ny
D anger
C laire
Ġer asers
Ġbo nd
mb ers
Ġscr am
Ġparticular ly
Ġme mbers
Ġfis hes
ĠN ancy
Ġwarri or
Ġexperien ced
ĠF ly
el ope
Ġreward ing
ĠTw ist
ide y
bo ards
Ġdig s
Ġchew s
Ġgasp s
F riends
Ġtrot ted
Ġtip s
chie vous
Ann e
Ġforgiven ess
Ġcomm on
ĠK elly
ĠHelp ing
ord inary
Ġstore s
Ġsn ug
Ġmis chievous
Ġl imp
ĠV icky
ĠJ et
Ġnibb led
Ġkind er
ĠHo pper
m ered
G r
Ġsty les
Ġearn ed
Ġargum ent
ĠMom ma
Ġgener osity
Ġaccompl ished
ĠK ay
ac ing
Ġk etchup
G ot
Ġwh ined
Ġguard ing
ĠJ umpy
Ġtr ans
Ġc ages
G ina
Ġmeow ing
Ġfin ishes
Ġcollap sed
Ġj ugg
end ing
ab ra
Ġve gg
Ġsmart est
io let
When ever
Ġstr um
Ġr umbling
Ġotter s
Ġmed als
ĠPh il
ĠI ce
ĠFred die
Ġhat ch
Ġbubb ly
Ġblue bird
Ġinst antly
Ġexpress ion
Ġth ump
Ġp asses
Ġmat s
Ġcur l
Ġr in
Ġgrass ho
Ġgarden s
ĠT ippy
ĠB erry
er ing
ad abra
Ġte les
Ġsleep s
Ġmatter ed
Ġfa ith
Ġextra ordinary
d aughter
L izzy
P inky
Ġsy rup
Ġfarm ers
ĠR ub
Ġwo lves
Ġsur v
Ġmove ments
Ġclass mates
ĠS uper
ou raged
ac ock
Ġf aint
Ġdiscover ies
ĠDo es
Ġč Ċ
C indy
Ġmean ing
o ver
Rob bie
Ġteles cope
Ġhook s
Ġatt itude
ĠM ore
J acob
Ġmo at
Ġforest s
Ġbreath s
Ġto r
Ġscram bled
Ġmom ma
Ġbehavi our
Ġaff ect
ĠF riend
p it
Ġpat ches
Ġhard est
Ġann ounced
ĠR iri
ĠF le
Ġvi br
Ġsn apping
Ġexp ert
ĠL ina
Ġunf air
Ġty pes
Ġcon qu
Ġcon cer
Ġang rily
ĠAsh ley
M other
Ġthick er
Ġspear s
ĠA pp
ho le
N ever
Ġch illy
Ġaf ar
ĠA choo
M o
Ġtooth brush
Ġexperience s
ĠMon key
ĠBe cky
Ġcost s
P apa
Ġsoon er
Ġhor ri
ĠEls a
Ġslither ed
Ġser vant
Ġoff ic
Ġgrassho pper
Ġfo am
ĠSw im
ri ck
l o
Fr og
Ġpoke s
ĠR el
ĠC ici
Ġthumb s
Ġsc ri
ĠG illy
Ġ icky
ll s
J on
Ġglitter ing
ĠJo ke
K aren
Ġf if
ĠP ig
aff le
F ire
Ġshr unk
Ġpe acock
Ġmark ing
ĠT iger
Ġto pp
Ġsquee zes
Ġha bit
Ġcour t
ĠFl ora
Ġr aking
Ġh ood
Ġco coon
Ġbe ating
ĠJ ason
ĠC aptain
ĠC ally
Ġvest s
Ġdri p
Ġa ctor
ct ric
am ma
Ġtrans form
Ġth ie
Ġjump er
ĠT ammy
ĠAm ber
r or
Ġwindows ill
Ġsk irts
ĠCl oud
Ġtid ied
Ġlunch time
ell ing
Ġprick ly
Ġbo ards
ĠMon ster
ĠDan iel
c at
se ss
Ġsque aky
Ġluck ily
ĠEliz a
r ough
an ced
Ġthie ves
Ġm irac
Ġkneel ing
ĠM ine
id ence
er ts
Ġcop s
ĠR oger
ĠE ric
ĠA c
ĠSt ep
Ġsee king
Ġact s
ĠZ og
ĠP inch
m el
Blue y
Ġtr ading
Ġb iscuit
id y
ay e
Ġwind ing
Ġr ack
ĠJ elly
âĢ ¦
rac adabra
ĠT yler
ĠMad dy
l ers
ac les
Ġtea pot
Ġmess ages
Ġlean s
ĠSil ver
Not hing
Ġzigzag s
Ġtemp ted
Ġpress ing
Ġposit ive
ĠU se
ĠRain bow
y d
J essie
Ġvegg ies
Ġfore shadow
Ġdo ck
ĠSp idey
ĠBut ter
ĠAn imal
o ot
Ġtrust s
Ġsh allow
Ġfun n
Ġfl ashing
pr il
it s
Ġmill er
ĠD ay
el ing
Ġspill ing
Ġf ade
Ġdri pped
Ġdeser ved
Ġcompet e
p op
f lowers
Z oe
F reeze
Ġsled s
Ġland ing
cream s
Ġexplain ing
Ġdisagree ing
ĠT erry
ick ing
A ny
Ġp apa
ĠH i
Ġ 4
rag on
Ġzip s
Ġscore s
Ġdisc ouraged
Ġdifference s
Ġdess erts
Ġconvers ation
Ġch ill
ĠS asha
i ving
Ow l
ĠG ill
ĠCh arlotte
Ġwater mel
Ġtidy ing
Ġfor med
Ġfor ts
Ġde v
ĠTo oth
ĠSn ake
Ġsa v
ĠY ummy
ĠM ath
Ġstructure s
Ġsitu ations
ĠY ellow
ĠL ung
ĠL ife
Ġunl o
Ġseagull s
ĠM ag
b u
Ġhe aven
ĠSt ill
Ġpuppet s
Ġkangaroo s
Ġhis sing
Ġele ctric
Ġcloth s
ĠWill iam
ĠG us
il i
if ully
Ġgrand daughter
Ġf oggy
Ġd ing
Ġcooper ate
ĠC ircle
ĠB oom
ĠAm anda
s sess
Ġpo ssess
Ġopport unity
ĠJane y
Ġcomet s
Ġapolog y
ĠP uffy
ĠFel ix
st orm
oc ular
Ġweb s
Ġsc owl
Ġpo se
Ġpizz as
Ġover w
Ġgl immering
Ġas s
âĢĿ ,
Ġbin ocular
w ar
up id
ors ie
end ed
B ug
Ġar rest
ĠOl ivia
wel come
R ain
Ġappl ause
ĠRu fus
Ġsun s
Ġche ating
B ounce
Ġwor st
Ġwood cut
Ġunwra pped
Ġquack ing
ĠW il
ĠBird s
Ġpepper oni
s ers
Ġl ump
ĠSque ak
ĠSm oke
ĠH urry
ĠC ars
F ifi
Cl imb
Ġswimsuit s
Ġoverw hel
Ġin ter
Ġam used
u ses
R abbit
Ġwatermel on
Ġscurry ing
Ġcub s
ĠPe ep
Ġvisit or
Ġstri king
Ġrepe ats
ĠSl inky
ĠB uster
Ġsn orted
Ġinch worm
ĠSh ark
ĠJe an
ss y
and ra
?âĢĿ .
Ġun z
Ġshrug s
Ġhealth ier
Ġbeaut ifully
Ġatt acked
ĠIn ky
art in
Ġdry ing
Ġcheer fully
ĠR atty
ug ar
sn ap
Ġsneak s
Ġsh h
ĠB arry
o f
Ġgroan ed
Ġf ries
Ġart work
ĠM ae
Ġwater s
Ġspeak s
Ġdisappoint ment
ic ious
Ġpadd ling
Ġle vers
Ġhonk s
Ġd ep
Ġcro aked
Ġcheck ing
Ġappro ach
ĠR ebecca
ĠGo ld
h ny
an ish
L ia
ĠT ell
ĠF ind
D eal
Ġsurf ed
ĠFrank ie
cident s
a i
Slow ly
E at
Ġwhimp ered
se y
g ar
Ġshort cut
Ġrob in
Ġribb it
Ġkey hole
Ġanswer ing
ot ion
j est
E ach
Ġwoodcut ter
Ġs ipped
Ġexam s
ĠMix ie
ĠGra nd
ĠB rian
Ġheel s
Ġcons ider
ag ine
Ġsp ooky
Ġfrustr ation
ĠM us
ĠM atch
es ses
M ilo
Ġsn ort
Ġnet s
Ġin vent
Ġg room
Ġfl ock
s ie
Ġcheck out
Ġre un
ĠTess a
ed ic
Ġsprink le
Ġshy ly
Ġkn it
Ġshoot s
Ġpet ting
Ġnumber ed
ĠWoo lly
y le
u dy
izz es
Ġnibb le
ĠMar ch
ĠGra cie
ĠBo at
e at
ĠAunt ie
L uke
Ġwild flowers
Pe pper
Ġsqu inted
Ġsh immering
Ġra ked
Ġhang s
Ġdet ails
Ġch in
ĠW affle
ĠBub u
Ġrhin o
Ġfascin ating
Ġbow ing
ĠS ince
le st
Ġw ig
Ġso bbing
Ġgu ards
Ġdirt ier
Ġbush y
ĠHel en
hing s
am il
Ġw rench
Ġmar ve
Ġflow ing
ĠPe ace
ĠOt to
ou ched
Ġple as
Ġknob s
st and
i bbles
Ġproper ty
Ġoffic ers
ĠAnd rew
Ġsway ing
Ġen emy
Ġbinocular s
Ġdrown ed
ĠH ar
Ġmic row
Ġgr umbled
Ġend ings
ulp ture
oth y
ell ie
Ġsc ulpture
Ġs uck
Ġfl ashes
ĠJen n
rac ted
Ġmicrow ave
Ġimagination s
Ġba a
ĠSee ing
ĠD eal
th at
et s
Y esterday
Sh aring
I m
Ġtexture s
Ġtable t
Ġhesit ation
Ġcr ops
Ġmyster ies
Ġmind ful
Ġmagnif ying
Ġloc al
Ġbl amed
re pe
S qu
Ġmem ber
Ġcaterpill ars
repe at
Ġquack s
Ġpo pping
Ġang rier
s aw
get ic
Ġcrow ded
ĠC urious
l t
cy cles
ĠWh ite
Ġqu izzes
Ġmap s
ven ir
Ġwh ine
Ġhunt ing
Ġdis aster
ĠR ing
ĠO xygen
ĠO ff
amil iar
Bu bbles
Ġweak er
Ġspace s
Ġsou venir
Ġpeep ed
Ġinj ured
Ġfo nd
ĠT oo
l or
Ġmoon light
Ġdesk s
Ġast on
ĠT ip
ĠAc cidents
Ġunf amiliar
Ġpo ss
Ġn iece
Ġgood ies
Ġfa cing
Ġdoor step
Je ff
Ġdisappear ing
ĠR es
ĠCo al
ĠCle an
W ant
Ġresponsib ility
Ġcar ts
Ġab ility
th is
b ank
Rob by
O O
Ġun less
Ġp ouch
Ġha ven
Ġbl ushed
ĠPe ggy
ĠG low
ĠF aye
ĠBee f
ĠB un
th s
o ll
h ow
B less
Ġoutfit s
Ġd ate
ĠCh ip
u pt
C he
Ġre bu
Ġbuild er
ĠH orsie
st r
ib ly
gu ess
S c
Ġcount ries
ĠSp icy
ĠIm mediately
Ġstack s
ĠP retty
ĠG abby
ent r
Ġste w
Ġlisten er
Ġfan s
Ġbo il
ĠR ight
Ġpalm s
Ġnot icing
ĠMat ilda
rn ie
ing ly
S usan
C ra
Ġwh oosh
Ġunt angle
Ġn atur
Ġfold s
Ġfl ick
ĠB ooks
ĠB ert
T una
F ly
Ġsw apped
ĠPen elope
ĠK n
ĠC ut
ĠO xy
ĠMel issa
Be ing
Ġtim id
Ġgl ared
Ġbump ing
ĠN ora
ĠF ix
Ġsal on
Ġconc entr
Ġcap t
ĠCl ose
re g
Ġpri v
Wh ose
Ġpr ank
ĠWo nder
ĠTri angle
ĠP ot
ĠE at
ĠCra bby
W iggly
Ex cited
Ġchat ted
ĠBob bie
A va
Ġpe cks
Ġl im
Ġconf idence
ĠB ro
M ittens
Ġstir s
Ġoverwhel med
Ġmay or
ĠT ra
ĠP et
ĠP ast
end ant
Ġsatis fa
Ġconcer ned
l ish
S m
Ġt ugging
Ġsatisfa ction
Ġm unched
Ġbend ing
ĠHel i
f ree
Cl ose
Ġsk ies
Ġmail ing
Ġfix er
ĠP ink
ĠB onnie
Ġr uff
Ġinstrum ent
Ġattach ing
ĠSt artled
ĠMo le
ic ate
cess ary
May a
Ġsh ave
Ġchallen ges
ĠAnimal s
po ison
ing ing
ch ing
Ġswir l
Ġsoft ened
Ġsn ar
Ġowl s
Ġfiref lies
Ġfact s
b ling
Ġwrigg led
Ġph ones
Ġdet ect
Ġbur ger
ĠTr ucky
m ie
Ġfet ched
Ġcut ter
ul f
sc ar
al a
Ġwrit er
Ġsand pit
Ġla va
Ġglow s
Ġcre ak
ĠJo dy
ĠFlop sy
urp le
ad ually
M ake
Ġrin se
Ġcertain ly
ĠC andy
Play ing
D ino
Ġcrack er
ĠSleep y
w ell
m ers
Ġst ings
Ġblond e
ĠS ir
H ope
Ġhoo ves
Ġclear ly
ĠFlick er
el s
Ġstain s
Ġlecture s
Ġcir c
Su zie
M ichael
Do ctor
Ġsurv ive
Ġsend s
Ġru bb
Ġcl ut
ĠR un
ĠO pen
ĠFl ap
W ally
Ġsomet ime
Ġb ound
ĠSc issors
ĠI cy
T ara
F ish
Ġmirac le
Ġlaw s
Ġdisag re
se ph
s orry
Ġtr oll
Ġtor to
Ġrever sing
Ġexplor ation
Ġdifferent ly
Ġcomp an
Ġbr akes
ĠLook ing
ĠLight ning
ĠL ots
s a
Ab racadabra
Ġt unes
Ġriver bank
Ġmotor cycles
Ġunlock ing
Ġpro d
Ġmoo ed
Ġkiss ing
ĠOr ange
ĠJohn son
Ġwarm ed
Ġold est
Ġhipp os
Ġcup cake
ĠR avi
g r
an i
Ġsm elt
Ġnatur al
Ġha lves
Ġan k
ĠCl imb
M abel
Ġrubb ish
Ġhat es
ber t
Ġtorto ise
Ġreal ise
Ġfool ed
keep ers
R ing
K ayla
Ġtopp ings
Ġsway ed
Ġbubb ling
ĠP er
ul a
Ġtent s
Ġp ounced
Ġle ver
Ġarri ves
Ġall ey
ĠUn i
ik y
M any
Is n
Ġwigg ling
Ġvibr ant
Ġp oop
ĠSte ven
ĠC D
Ġsn ip
ĠW orking
ĠCarl a
n et
Jul ia
Ġother wise
Ġle vel
Ġcap es
un o
Ġemb ra
wh y
Ġstretch y
Ġpassen ger
Ġma jest
Ġconqu ered
Ġbang ing
ĠGreen y
Ġliz ards
ĠOut side
as mine
Ġsens ation
Ġsell s
Ġro be
Ġb as
ĠWh ich
ĠSunday s
er g
Ġgoo ey
Ġcous ins
Ġcoo lest
Ġaston ished
ĠRos a
Ġostri ches
Ġgood ness
Ġgl ided
Ġdesper ate
Ġd umb
Ġcricket s
Ġbat s
ssss ssss
em on
ĠL aw
ĠE d
ĠCr usty
it es
col ored
b ed
Ew w
Ġswir ls
Ġj ing
Ġgu esses
Ġchick s
izz a
N ick
Ġvine gar
Ġtong ues
Ġpound s
Ġf ist
Ġchat ting
Ġcaut ion
ĠO f
Ġtw el
Ġsuccess fully
Ġint ently
Ġho ses
Ġh ips
Ġcro ak
Ġcl ips
ĠGr ump
ĠAnn abelle
ly n
Ġcalm er
ĠV iolet
ĠBl ack
L inda
Ġstack ing
Ġrepair ing
Ġreapp eared
Ġpops ic
Ġcr ushed
Ġcomput ers
Ġtwel ve
Ġloyal ty
Ġjud ges
Ġc uc
ĠC ammy
O oh
Mike y
Ġwind s
Ġsqu ashes
Ġscen e
Ġs us
Ġrout ine
Ġrid er
Ġdisobey ed
ĠW hee
ĠO ld
ĠL u
ĠB a
u dge
ra p
is ible
ever se
! âĢĻ
Ġreveal ing
Ġrac er
Ġqu ilt
Ġintellig ence
Ġgl ob
Ġdesper ately
Ġcomm un
ur ity
ist ory
Z igzag
Ġg ates
ĠRo ar
ĠC omet
Ġso da
Ġinv isible
Ġcop ied
d og
c on
Ġst un
Ġpark s
Ġg all
ĠS ettle
ĠPe bby
us ion
d es
Ġwh ines
Ġmo ld
Ġluck iest
Ġlearn er
Ġcr isp
Ġcompan ion
ĠS ugar
ĠA pril
w orking
sm elling
ast e
Ġspeak er
Ġsh attered
Ġr ins
Ġjoy fully
F ound
C atch
Ġhat ched
ĠM ila
ĠC oby
M ore
Ġunder water
Ġstomach s
Ġsnowfl ake
Ġsepar ating
Ġreun ited
Ġab o
ĠSo cky
nd ed
h ile
Ġwo ken
Ġt ale
Ġaw hile
ĠR h
Mat t
J an
ĠSt arry
ch ief
Ch icky
Ġwa ded
Ġle aking
Ġguit ars
Ġbloom s
Ġalligator s
Ġabo ard
ĠW inky
ĠQuick ly
ĠL i
Ġ' '
if er
f ived
Ġtick ling
Ġpeek s
Ġpearl s
Ġmel ody
Ġdisagre ement
Ġbuck les
ĠI ron
ĠH or
arn ing
Th ree
R alph
L ou
Ġtap s
Ġseas he
Ġpain ful
ĠC are
aid s
Jess ica
J une
Ġrebu ild
Ġbl ame
ĠCat s
r um
Ġsweet ly
Ġpersist ence
Ġesc ap
Ġsure ly
Ġreal izing
Ġoccas ion
Ġallow ing
ĠG iant
Ġzoo keepers
Ġwh iskers
Ġsp iky
Ġrins ed
Ġd ou
Ġchoo ses
Ġcent re
Ġadm it
ĠP ark
ĠO ver
ĠD ragon
ar ted
Sn ap
S leep
O l
Ġtour s
ĠR ace
ĠIn ch
is app
Sque aky
Ah h
Ġthr one
Ġtempt ing
Ġri pp
Ġhum med
Ġglob e
Ġener getic
Ġcre ep
Ġappear ance
st op
Sh are
Ġrag s
Ġcook s
Ġbu nd
ĠWh ale
ĠR aven
p an
igg les
Somet hing
Sh oo
Ġstroke s
Ġrod s
Ġpr og
Ġbur gers
Ġattempt s
ĠL iam
us hes
sol ut
ap s
St ill
Ġsweet er
Ġsniff led
Ġlight ing
Ġl ull
Ġcl uck
re nt
Ġt ant
Ġserious ly
Ġrac ers
Ġl ar
Ġglitt ered
Ġdefe ated
ĠSm o
ill as
Ġd edic
Ġcho pping
ĠC her
o ss
id i
Mad dy
L izzie
Ġunwra p
Ġsec urity
Ġpatient s
Ġdeep ly
Ġcr ouched
Ġcoo ed
ver ing
S ophia
Ġsquaw k
Ġnice st
Ġelectric ity
ur ricane
!' .
Ġmeadow s
Ġdeser ves
ĠT hings
ic ally
T oys
S w
Ġsquir ted
Ġob st
Ġfu rious
ĠR usty
ĠOther wise
ĠD in
as y
" !
Ġmelt s
Ġhelicopter s
Ġh udd
Ġguard ian
Ġexch ange
ĠD uke
b ang
Tw inkle
Ġimpro ving
Ġgo d
Ġbuild ers
ĠV ery
ĠK ind
ĠCl ay
ĠB ell
gg les
S weet
Ġtoss ing
Ġlar ger
Ġimag inary
Ġal oud
ĠSqu are
ĠPinch y
gg ie
Z ero
Ġbo oth
Ġank le
Every thing
C urious
Ġtant rum
Ġneare r
Ġcourage ous
ĠSh arp
ĠBr uce
Ġst ur
Ġar my
ĠA lf
w are
ort h
S urrender
Jack ie
Ġsoft est
Ġprotect ion
