Ġ t
h e
Ġ a
Ġ s
Ġ w
n d
Ġt he
e d
Ġ b
Ġt o
Ġa nd
Ġ h
Ġ f
i n
Ġ T
Ġw a
r e
i t
o u
Ġ l
Ġ d
Ġ c
Ġ p
a y
Ġ m
e r
Ġwa s
ĠT he
o m
Ġ he
i s
a r
Ġ n
i m
o n
Ġs a
i d
l l
Ġh a
Ġ g
a t
Ġ S
in g
o t
e n
a n
l e
o r
i r
a m
e t
Ġ H
Ġ it
Ġt h
i g
ĠThe y
Ġ in
i l
ĠH e
Ġp l
Ġ "
o w
v er
r i
u t
Ġb e
Ġ u
Ġsa id
Ġpl ay
it h
Ġw ith
Ġd ay
p p
O n
Ġ o
Ġ y
o o
k ed
Ġ r
Ġhe r
c e
Ġ I
ĠS he
l d
Ġh is
ĠT im
Ġs t
k e
Ġ e
Ġb ig
n t
c k
Ġy ou
ver y
s t
v e
e nd
Ġ on
u n
Ġha pp
ri end
Ġf riend
a ll
il y
Ġthe y
Ġ L
Ġw e
Ġha d
Ġn ot
Ġl i
Ġu p
Ġwa nt
he r
Ġo f
a d
it t
s e
Ġ B
Ġd o
Ġhapp y
en t
Ġ very
e s
Ġ M
Ġth at
Ġsa w
On e
' s
ou ld
Ġf or
Ġm om
Ġs h
itt le
Ġs o
Ġl ittle
Ġs he
c h
im e
Ġn e
Ġn am
. "
Ġt ime
Ġ k
ou nd
Ġthe re
Ġnam ed
Ġs m
Ġb o
ĠL ily
Ġwe re
Ġwant ed
ou t
Ġb ut
T he
Ġfriend s
h t
v ed
! "
ĠT om
ir d
e l
Ġa n
Ġb ird
a l
a ke
Ġto o
ĠI t
u g
om e
id e
Ġw ent
Ġhe l
Ġw h
Ġ is
On ce
Ġhel p
Ġa ll
u e
Ġl oo
Ġl o
t er
Ġ A
Ġup on
r y
o re
i nd
Ġf un
i ll
Ġto y
g et
am e
Ġa s
Ġa t
r a
Ġ j
Ġd id
get her
Ġ re
u r
Ġs e
Ġto gether
a ck
l y
Ġc at
Ġt re
oo d
i c
t ed
Ġdo g
Ġc ould
Ġc an
Ġthe ir
ar d
e c
ar k
Ġg ir
Ġh im
Ġb all
? "
Ġgir l
Ġplay ed
w ay
Ġg o
he d
Ġr o
Ġa re
m y
Ġ out
Ġl e
Ġf r
a in
Ġthe m
Ġk n
he n
u m
' t
a x
Ġsa d
u l
Ġbo y
Ġtre e
Ġha ve
ot her
Ġm an
Ġc l
Ġloo ked
Ġlo ved
ou g
Ġf ound
Ġs p
Ġst ar
ĠS ue
on e
h ing
Ġs c
Ġb ack
ow n
ĠM ax
a re
Ġli ke
f ul
s ide
Ġm e
Ġbe c
ig ht
Ġp ark
on g
Ġc ar
o p
el t
Ġw ould
Ġ One
Ġli ked
r ound
Ġl a
Ġf a
Ġm ake
Y ou
Ġf elt
e ll
Ġse e
Ġ W
ĠB ut
om et
Ġas ked
Ġne w
a g
ĠB en
i ce
Ġn o
ou se
ar ed
Ġstar ted
ĠS am
Ġc ame
Ġa l
Ġ other
oug ht
il ed
Ġs omet
Ġa g
Ġg ood
Ġsm all
s s
Ġb r
ri ed
Ġs ay
Ġsm iled
ad e
ing s
o b
p ot
Ġw or
Ġf ind
Ġe x
Ġ č
Ġa way
i a
Ġwh at
t y
Ġc o
Ġp ut
Ġfr om
Ġsomet hing
Ġm ade
Ġth ought
en ed
Ġh ome
Ġplay ing
oo k
Ġe very
Ġwa l
Ġm u
u c
a ch
ar n
ĠS pot
Ġr an
i le
Ġ F
i e
Ġ J
a ve
Ġag ain
Ġla ug
Ġs ome
d d
Ġh ouse
Ġd own
Ġf l
Ġsc ared
Ġtoo k
k ing
Ġp r
Ġtoy s
n y
Ġle arn
u re
Ġ You
a b
i ck
i f
Ġw ill
Ġbo x
re t
Ġa round
e p
Ġm y
Ġyou r
Ġth ings
ou d
Ġb l
Ġw hen
is h
Ġf e
Ġli ved
u ck
Ġthe n
Ġs un
, "
a s
Ġs w
Ġc h
pp ed
u s
Ġa b
ĠM ia
an k
Ġg et
uc y
um p
is t
T im
Ġl ot
T h
ot h
Ġt ried
a p
Ġsay s
Ġkn ow
Ġg ot
u st
Ġkn e
it ed
Ġwh o
Ġman y
nd er
Ġab out
Ġin t
L ily
Ġp ret
Ġ D
Ġd ec
Ġan y
i ve
Ġr ed
Ġkne w
a ce
Ġm ore
ou s
is e
Ġc are
q u
Ġp ic
a u
Ġwa ter
all y
ĠL ucy
Ġh ug
Ġlearn ed
f ter
Ġbe st
Ġp o
Ġ v
Ġbec ame
au se
Ġo p
Ġg re
way s
Ġex c
Ġlaug hed
Ġout side
Ġloo k
ur p
Ġal ways
â Ģ
an t
Ġdec id
Ġh o
Ġu n
Ġro om
Ġsh ow
Ġbec ause
f e
Ġdecid ed
ĠS o
Ġe at
Ġint o
it e
ĠB ob
Ġj ump
Ġb oth
ĠA nd
Ġp e
er s
Ġd ad
u dd
The y
Ġ ke
ĠM om
Ġon e
n n
Ġ E
Ġth is
Ġfe el
Ġexc ited
Ġr un
T om
Ġfa st
Ġn ice
Y es
Ġl ong
Ġa m
Ġto ld
Ġs k
ou r
urp r
Ġin side
u ll
Ġt r
Ġm o
Ġs urpr
in k
Ġpret ty
in y
Ġs or
Ġt ake
W h
o g
Ġs l
Ġmu ch
Ġg ave
nn a
Ġg ra
Ġe ach
Ġst r
le w
ar a
im al
Ġan imal
Ġh ow
g ed
Ġro ck
Ġne ed
B ut
Ġth an
Ġto w
v en
et ter
Ġ C
Ġu nder
Ġ or
es s
Ġo ld
g e
Ġsor ry
r o
is ed
ur t
a nd
Ġf ish
Ġc le
Ġbe ar
Ġwal ked
Ġcl o
a se
a st
f t
Ġha nd
ur n
Ġk ind
he re
ĠW e
Ġl ist
ĠH is
Ġf ood
Ġt e
Ġj ust
Ġhapp ened
Ġfl ow
Ġanimal s
p l
Ġh ig
Ġt ry
c hed
Ġwa t
Ġdid n
Ġne ar
Ġf i
Ġ ide
Ġs n
in e
Ġsk y
r om
v ing
Ġb etter
Ġb ug
Ġu s
ĠA my
Ġide a
g ry
Ġhe ard
at e
Ġt w
Ġit s
p ec
Ġl et
f f
ab le
Ġsh are
Ġcare ful
Ġ en
Th ank
Ġ if
M om
e x
Ġst or
i al
Ġf ly
Ġf lew
m ore
Ġany more
ĠT h
Ġsp ec
Ġspec ial
i on
Ġlot s
Ġc om
Ġne ver
Ġb y
l f
Ġd an
re am
Ġb u
Ġw ind
Ġd on
Ġf o
Ġcle an
or t
Ġt al
Ġlo ve
op le
Ġe nd
Ġg r
b er
r m
ĠThe n
Ġe ven
Ġm ag
Ġh ard
Ġo ver
Ġsh iny
udd en
Ġf ore
Ġc ake
a k
Ġb ook
Ġco l
Ġt urn
Ġsa fe
Ġa fter
ad y
Ġpe ople
Ġpr oud
udden ly
Ġb ad
ĠE very
ĠA nna
Ġh urt
Ġf am
Ġc u
L et
Ġhig h
Ġsurpr ised
pec ted
Ġl oud
Ġg round
Ġpic ked
ard en
Ġop ened
Ġg arden
Ġc he
Ġc ome
im b
Ġdo or
b le
Ġg l
Ġ im
Ġcl imb
ex pected
Ġun expected
il d
A s
Ġg ive
Ġwa y
Ġcol or
Ġst ill
Ġf ar
Ġthan ked
Ġe ver
Ġbl ue
a il
i p
' m
Ġc all
Ġhug ged
ĠF rom
N o
ĠH er
ĠS ara
ĠW hen
Ġ K
Ġof f
Ġmag ic
oug h
um my
ag e
Ġjump ed
i z
Ġsh ould
Ġp ar
Ġk id
oo l
Ġsm ile
Ġfam ily
he s
u ff
Ġpl ace
ĠI n
Ġn ow
Ġ qu
Ġwal k
k ay
c t
e m
Ġgre at
Ġu nt
Ġst o
a ut
t ure
Ġst ay
Ġstr ong
an e
Ġfore st
itt y
Ġb ra
Ġunt il
Ġbe aut
Ġbr o
Ġ P
Ġfr og
Ġs qu
o on
d y
le ase
Ġst ick
x t
Ġne xt
Ġbo at
n ing
Ġlist en
Ġhapp ily
t h
Ġkid s
i ful
Ġbeaut iful
b y
Ġt ra
i es
a king
b e
re l
Ġim p
Ġa pp
Ġhelp ed
Ġshow ed
Ġclo s
Ġstor y
un ny
o y
re ss
p t
Ġwh ile
Ġtow n
Ġd ra
I t
Ġr ain
Ġpic ture
Ġbe ing
Ġre m
re e
Ġha t
Ġm or
Ġevery one
Ġcall ed
Ġsto pped
ar y
Ġm et
Ġg ame
Ġa d
H e
N ow
g er
C an
Ġan gry
Ġop en
Ġtr uck
Ġke ep
Ġw o
uff y
Ġso ft
Ġy ummy
W hen
Ġb ed
Ġc ry
Ġlo st
ĠL et
Ġwa rm
Ġat e
v ent
Ġm ouse
is hed
Ġbra ve
ĠK itty
Ġho le
ĠW h
b it
ĠS ally
Ġd e
Ġdo ll
f ore
s o
Ġcould n
Ġwat ch
Ġal so
ab bit
Ġf ell
dd ed
Ġtw o
Ġle ave
Ġgre en
Ġfa ce
is s
ir st
Ġflow ers
Ġr abbit
Ġno ise
Wh at
g an
ow l
Ġ R
Ġw here
a z
o ck
se lf
Ġso on
ir rel
Ġsl ide
ill y
Ġsa t
Ġbe fore
Ġhe ar
ir ed
l uffy
Ġsqu irrel
Ġke pt
Ġu se
Ġp us
e ar
Ġp a
le s
The n
H i
Th at
Ġno dded
Ġc ook
m a
Ġex pl
Ġhand s
âĢ Ŀ
âĢ ľ
L ook
Ġbird s
Ġst ore
Ġp ain
Ġs ing
Ġfun ny
Ġgo ing
ay be
u ch
Ġe y
Ġha ving
d ay
a ug
aug ht
Ġcat ch
le ep
ĠC an
u it
Ġth ink
Ġy ell
Ġc ra
B en
b b
Ġf in
Ġb re
Ġb unny
Ġb us
ĠF luffy
Ġt ired
Ġfi x
a ir
Ġloo king
an ge
Ġus ed
Ġwor k
W e
Ġ G
Ġp ull
Ġs ound
t hing
Ġk it
Ġj o
Ġw r
Ġwa it
Ġth r
Ġ Now
Ġha s
Ġ our
Ġas k
l ed
Ġbe h
Ġme an
t ing
n g
em ber
Ġsun ny
Ġother s
Ġpo nd
Ġtal k
c hen
Ġkit chen
Ġd r
ĠJ o
re w
Ġf irst
Ġhe ad
Ġp ie
at h
Ġfl o
Ġ z
Ġey es
Ġd if
Ġimp ort
ell o
H ello
Ġfa v
Ġt ri
Ġr ight
Ġre al
or n
j oy
Ġm ess
Ġrem ember
e et
Ġmom my
Ġco ld
i ous
Ġflow er
Ġc on
Ġpar ty
Ġv o
ĠD o
Ġsa nd
Ġimport ant
a c
im es
Ġmor al
Ġcu ri
Ġbr ight
Ġr ace
Ġd ress
Ġsh ared
ou nt
Ġ own
Ġ âĢľ
ll ow
Ġo kay
Ġad vent
Ġ ice
A t
Ġen joy
z y
Ġwor ked
Ġh op
Ġh id
h n
Ġcuri ous
Ġm aking
Ġd ir
Ġt all
Ġh ill
Ġs leep
Ġd is
re ed
Ġfav or
Ġd uck
ĠJ ack
D on
W ow
Ġfavor ite
Ġ ri
Ġbe gan
Ġy ard
Ġre st
Ġth ing
Ġt ell
Ġhe re
Ġm on
Ġdra w
Ġb ag
st er
Ġcl a
q ue
Ġwat ched
Ġmo ve
Ġfo llow
ec t
Ġn ight
ĠF in
Ġbe l
Ġh un
c o
Ġag reed
Ġst op
ll y
A fter
Ġbeh ind
Ġfar m
Ġbl ock
Ġp ick
Ġh ot
i ed
Ġsh o
Ġgra ss
Ġc ut
ap er
ĠTh is
Ġwal king
Ġt able
ĠD ad
Ġsurpr ise
Ġwor ry
Ġd ark
Ġp lease
Ġtre es
Ġvo ice
Ġs ong
fe re
Ġto p
Ġt ail
Ġl ady
Ġsw eet
Ġli on
Ġdif fere
Ġsh out
M ax
Ġr u
is y
Ġre ad
Ġflo or
Ġfor g
Ġbut ter
Ġcolor s
Ġclos er
Ġc ried
Ġfi re
Ġleave s
Ġturn ed
ig n
Ġneed ed
ar ing
Ġlaug h
Ġt ast
Ġw ood
Ġd el
i ke
Wh y
Ġdiffere nt
Ġcar s
Ġpie ce
Ġc r
Ġdo es
Ġhun gry
âĢ Ļ
Ġadvent ure
ĠS uddenly
Ġpr in
S ue
Ġyell ow
Ġro ll
Ġfeel ing
er ed
A nna
Ġha ir
Ġf ull
Ġto uch
ĠA s
b o
S am
ĠM r
Ġp er
Ġp aper
c ked
o om
Ġw et
k en
Ġfriend ly
a ched
Ġfr uit
Ġl ight
i ent
Ġsw ing
Ġbro ken
w here
by e
Ġre ady
ĠBob o
Ġpret end
Ġlist ened
Ġan other
ĠTh at
Ġpr om
Ġdan ce
pp y
Ġclimb ed
Ġdan c
Ġsw im
Ġon ly
Ġrun ning
at er
Ġg one
S uddenly
ĠJ ane
Ġclo se
S ara
Ġpl an
bb ed
S he
ab y
Ġtra in
s h
a v
Ġho ld
S o
Ġsm ell
Ġwa ll
nd ma
Ġse es
Ġam az
Ġhelp ing
Ġwo nder
il a
Ġre pl
Ġblock s
one y
Ġre ached
r ed
ĠA ll
Ġsl ow
Ġfa ir
ĠTim my
Ġa c
a f
Ġl ess
Ġgood bye
Ġf ight
Ġa nt
at her
Ġgl ad
Ġd ri
Ġp u
Ġc ool
Ġbe en
Ġbutter f
M ia
ic ed
Ġ O
Ġc ream
Ġpus hed
Ġh ide
Ġmu st
Ġwa g
Ġw ished
Ġwind ow
Ġball oon
Ġb aby
Ġmom ent
Ġs it
Ġm ight
ĠEvery one
Ġsn ow
Ġch ild
Ġper f
Ġst uck
Ġst e
Ġexpl ore
ic y
Ġb ar
Ġlook s
Ġth ank
Ġqu ick
Ġnam e
Ġd one
Ġbu y
Ġa r
Ġf all
a isy
Ġtry ing
as h
Ġcom ing
Ġapp le
Ġunder st
Ġsc ary
Ġd ream
Ġbu ild
Ġb it
iz ed
Ġdir ty
Ġdo ing
Ġhe ld
Ġw in
Ġm ar
Ġd in
am es
Ġc ount
I n
Ġshout ed
Ġla nd
Ġle ft
Ġbook s
and y
Ġd ro
ot t
Ġt iny
av y
Ġrepl ied
Ġa ir
Ġsp l
Ġcu p
Ġw ise
Ġbr an
Ġre ach
Ġwh y
Ġpull ed
Ġgr ow
Ġth ree
Ġthr ough
' re
Ġf ill
Ġse en
el y
Ġwood s
Ġp ink
Ġch air
in s
Ġs ure
as k
Ġbutterf ly
Ġpl ant
Ġcolor ful
i x
out h
Ġtre at
Ġsomet imes
Ġj ob
p h
Ġm outh
Ġsw am
Ġ owl
Ġm at
Ġcla pped
ke y
Ġbr other
Ġwa ved
Ġc re
p e
Ġremember ed
Ġcl oud
Ġne st
ie ld
udd y
Ġless on
Ġjo in
Ġbig ger
ĠThe re
ar t
Ġstay ed
ou p
ro om
Ġcl ot
Th is
Ġ ve
Ġclot hes
ow er
O h
Ġquick ly
Ġgra bbed
O kay
Ġwor d
c le
Ġcon t
Ġpain t
ĠMom my
Ġbro ke
Ġwa ited
Ġc ast
ĠA fter
Ġnot iced
Ġg ent
Ġs et
ri es
Ġg ames
Ġenjoy ed
Ġb lew
Ġlike s
Ġho pped
J o
Ġwor ld
Ġal one
d e
uck y
at ion
Ġmu s
Ġany thing
Ġse a
as ure
Ġg if
Ġm iss
Ġb ike
Ġhe avy
t on
Ġpicture s
Ġsp ot
Ġb ott
Ġy ear
Ġturn s
u b
Ġp en
or m
H er
Ġp ot
l c
d er
Ġt ight
Ġevery where
Ġtow er
Ġa rm
Ġr ide
Ġth rew
Ġhim self
Ġm ix
Ġw on
Ġp at
ĠB uddy
le ss
m an
L ucy
ap e
ĠD aisy
Ġfollow ed
Ġj u
Ġcom p
Ġwh ite
Ġj e
th y
e e
Ġke y
am p
r ow
Ġde ep
Ġmake s
" .
ct or
B ob
Ġwr ong
Ġbre ak
ĠWh at
Ġmus ic
are nt
o lly
Ġpo l
Ġbl ack
n er
Ġdel ic
S pot
Ġe m
u ed
ve s
i et
Ġp arent
Ġcast le
Ġforg ot
Ġwe ar
ou n
Ġqu iet
Ġwant s
is ter
ce ss
an ce
Ġbe e
ĠJo hn
Ġr ound
Ġh it
ull y
D o
Ġunderst and
r ot
Ġst u
Ġdanc ed
Ġmon ster
Ġv is
Ġcook ies
Ġle af
Ġb owl
Ġb or
Ġn ap
Ġd ry
re n
f ully
Ġm um
o s
Ġtal ked
Ġfast er
ro ss
Ġle g
Ġsm art
Ġbr ought
itt en
z z
le ph
Ġse c
ĠIn side
t s
F rom
Ġs ide
Ġpo in
H is
an g
Ġhapp en
Ġre s
Ġfin ished
Ġk ing
Ġsh aring
Ġs ign
c y
Ġsome one
Ġbran ch
Ġwor ried
ed dy
Ġwe ll
Ġre l
Ġs ister
Ġrock s
Ġsec ret
Ġdin ner
Ġfo x
en ce
Ġbut ton
Ġcont in
ard s
Ġre ally
Ġvis it
ĠT o
Ġto day
ĠL ila
ĠM aybe
Ġe l
Ġ que
Ġg u
Ġbe ach
Ġfly ing
Ġs illy
g y
Ġsh in
Ġperf ect
Ġdan ger
Jo hn
i pp
Ġfill ed
Ġevery thing
Ġp udd
Ġri ver
ĠJo e
Ġg i
ĠA t
ĠSo on
ĠE m
Ġchild ren
Ġsa ng
Ġel se
Ġwe lc
Ġf ree
Ġsmile s
Ġw ish
ĠSara h
Ġparent s
Ġf ield
Wh ile
Ġb ite
Ġf ur
e ad
Ġj ar
Ġprom ised
Ġpiece s
Ġe ar
Ġsn ack
z e
Ġcare fully
M aybe
Ġcontin ued
at ed
Ġsp r
Ġeat ing
J ust
Ġreal ized
Ġp ig
st ead
A my
ck et
itt ing
Ġsa il
Ġbl ank
Ġsn ake
or d
Ġmu d
Ġc ow
Ġfair y
ĠB illy
Ġs oup
Ġblank et
Ġen ough
Ġcry ing
b ble
Ġb oun
i re
Ġy es
Ġroll ed
Ġor ange
Ġcra b
Ġb ath
Ġthr ow
im i
Ġ Z
Ġword s
Ġwag ged
Ġlaug hing
Ġc andy
i ch
Ġdr ink
se s
Ġamaz ing
Ġwith out
Ġbott le
Ġm oney
Ġask s
Ġp urp
Ġp et
ĠG ra
f ort
Ġw he
us ed
F in
on s
Ġdra g
Ġdo ctor
un ch
Ġgra ndma
Ġmo ved
Ġgif t
Ġown er
Ġm other
ch ool
Ġbar ked
a le
Ġget ting
i ver
is es
Ġpurp le
Ġbr own
Ġat t
Ġp ast
Ġwelc ome
Ġclos ed
Ġs chool
Ġdanger ous
Ġl on
g g
Ġl ake
Ġtre asure
Ġsm o
Ġmor ning
Ġs itting
Ġshin ing
Ġlon ely
al thy
Ġpa w
ĠC h
ĠTom my
Ġcre at
Ġli ving
Ġche e
. âĢĿ
Ġhig her
Ġapp les
Ġrun s
un a
Ġsho es
Ġstr ange
Ġ -
as ed
Ġmon key
e y
Ġro ad
i ble
Ġc aught
Ġm ail
Ġr a
! âĢĿ
e re
Ġst re
Ġtal king
Ġst one
Ġp re
Ġpa ss
Ġsh op
o l
ask et
Ġfarm er
Ġb asket
us h
a ss
Ġe gg
Mom my
Ġpudd le
leph ant
m e
bo ard
ĠB l
a pp
Ġm ad
Ġthink s
Ġb uck
ve l
Ġdelic ious
Ġt eddy
Ġwh ist
Ġf an
Ġst and
ck s
Ġyear s
Ġm ine
s et
Ġse ar
ĠM imi
f ish
Ġw ings
it ch
Ġstar t
Ġk ite
Ġgent le
ig h
Ġsa me
Ġf it
Ġtast y
Ġco at
Ġe lephant
Ġcr ay
is k
c hes
Ġp ill
Ġl etter
Ġsc ream
Ġno se
Ġfin ally
ig g
Ġhop ed
Ġbel ie
Ġh or
Ġday s
Ġbr ing
Ġch o
Ġb en
Ġsing ing
u p
Ġto m
s c
s y
Ġw ore
ell a
Ġb at
Ġtr ou
Ġsw ings
P lease
b ow
s w
Ġcar rot
in ed
Ġdrag on
Ġv ill
Ġan sw
Ġher self
ar m
Ġshe ll
Ġco ll
Ġbel ong
Ġbus h
Ġsh ap
Ġdro pped
i er
Ġpus h
Ġte ach
Ġp h
Ġc our
isk ers
Ġsa ck
e my
Ġar ri
Ġhid ing
aught y
ra ct
' ll
Ġn aughty
Ġwo ke
Ġte ac
er ry
ll ie
Ġsee m
Ġcour se
Ġto uc
Ġrain bow
Ġshap es
Ġgre w
Ġp ile
b all
Ġchee se
ĠJ en
is a
Ġm in
ir th
irth day
i pped
Ġl unch
Ġtw ins
Ġb ow
O K
Ġju ice
Ġpu ppy
ĠF red
Ġsp in
Ġp ers
Ġche ered
f used
id ge
Ġc orn
Ġro pe
Ġsound s
Ġben ch
ĠBl ue
Ġbe ll
Ġwa r
Ġvill age
e b
Ġf ence
co l
J ack
Ġw ra
Ġn um
Ġstre et
Ġsh ook
Ġcar ry
Ġtouc hed
Ġsp oon
Ġpr ob
Ġp ower
ll a
am a
Ġro b
Ġb irthday
Ġfe w
Ġd es
Ġmo st
Ġsp o
Ġj oy
Ġfeel s
ĠWh iskers
Ġe as
Ġse ed
Ġin c
Ġfore ver
Ġab le
Ġarri ved
G ood
Ġne ck
Ġcut e
le m
Ġwonder ful
Ġteac her
Ġbus y
i an
Ġprob lem
Ġn ut
ĠEm ma
Ġbug s
il k
Ġk iss
Fin ally
b r
g ly
Ġstor m
ĠTh ank
Ġpo cket
Ġpl ane
Ġsh ake
Ġprom ise
Ġdoll s
Ġp op
Ġhear t
Ġm ilk
Ġo b
Ġhelp ful
e ared
ir t
Ġsh y
Ġu gly
Ġbre ad
Ġre c
Ġb and
Ġslow ly
ount ain
Ġrob ot
urt le
et er
Ġco ver
Ġc ir
Ġhold ing
Ġtow ards
Ġsh r
at o
Ġdis app
ump y
Ġc ave
Ġbelie ve
Ġli ve
ar p
ir p
Ġno ises
Ġh oney
Ġball s
ĠR emy
Ġdir t
Ġup set
Ġse at
Ġsp ark
ad ow
Ġs uc
o st
Ġpat ient
Ġsh arp
og gy
Ġl ate
o ve
ĠB ella
Ġd ist
Ġt urtle
Ġsee k
Ġbuck et
Ġgl ow
Ġz oom
Ġgr ay
Ġstor ies
Ġyou ng
ĠL e
re ad
Ġk itten
al m
Ġme et
Ġtreat s
Ġamaz ed
Ġle m
Ġhor se
Ġdri ver
at or
fort able
Ġpar t
Ġmagic al
Ġwhe el
Ġspl as
Ġm ist
Ġtri p
u nt
our n
Ġsand w
Ġhug s
en s
Ġm ark
Ġj ourn
pp ing
S ure
Ġstr ing
Ġw ild
Ġhug e
Ġdro ve
Ġin stead
il ing
l ing
Ġc ou
Ġt aking
Ġs ug
Ġcook ie
Ġfo ld
ĠL isa
Ġm ach
Ġn et
Ġcra w
Ġpu zz
un g
O f
Ġwhist le
Ġp ath
Ġcl oth
Ġstar s
Ġfight ing
B e
Ġl ucky
Ġsp icy
He y
Ġsp id
ep end
Ġprin cess
Ġsa l
Ġbu bble
Ġfor get
Ġru de
Ġco in
Ġb one
n ot
Ġin v
Ġgi ant
Ġs ick
ĠGra ndma
Ġpill ow
Ġor gan
Ġcan not
or s
oo se
ĠFin ally
Ġsnow man
Ġjo ke
Ġd i
Ġw ide
a ur
ul ar
Ġpe ace
ĠJ ust
Ġwa ve
er t
ĠM ark
Ġfix ed
L ila
Ġli fe
Ġgra b
Ġno d
oo p
L ater
Ġfo ot
ĠJ im
er y
pp er
e st
Ġsong s
Ġch ange
Ġla st
Ġcom es
Ġc ard
iz e
Ġas h
ĠC ome
d en
Ġwas n
b led
Ġbo ss
Ġc a
Ġwor m
ĠA nn
Ġland ed
Ġr ing
op h
Ġb ri
Ġdri ve
Ġmo on
Ġth in
it y
Ġwr ite
Ġmach ine
Ġ On
Ġhid den
Ġgr umpy
Ġv al
Ġch ased
l ower
Ġspid er
Ġdad dy
Ġs er
Ġb an
Ġtast e
Ġs our
Ġs uddenly
Ġcon fused
Ġmess y
ĠLe o
Ġs el
Ġtake s
Ġsmo oth
op e
ere st
Ġmy ster
Ġb ark
Ġf le
Ġshe lf
Ġ N
Ġr ad
Ġint erest
et h
Ġcar t
Ġ ent
Ġo ven
Ġste pped
Ġp an
Ġac ross
Ġgr ate
Ġstick s
Ġadventure s
Ġc e
Ġex p
Ġte a
Ġch ick
Ġmiss ed
Ġfruit s
k in
Ġf il
Ġd rew
pec t
T o
Ġsel fish
t o
Ġhop e
Ġt ie
Ġj og
Ġz oo
Ġshe ep
S t
Ġgrate ful
Ġl ater
Ġem p
Ġemp ty
e ver
am ed
Ġp our
ell y
Ġst ep
Ġfe ather
Ġwas h
Ġban an
Ġbe ak
Ġb ought
? âĢĿ
Ġspl ash
Ġl ay
Ġb a
Ġsh ip
Ġwo lf
bo x
Ġsa ve
Ġsleep y
Ġduck s
Ġsmell y
Ġleg s
Ġlem on
Ġpl ate
ĠM olly
ĠL una
ion s
Ġsl id
S oon
Ġim ag
ug g
o se
d ge
Ġc alm
Ġt id
m er
Ġm ot
y ard
if e
Ġseem ed
Ġpr ot
Ġcle ver
Ġface s
Ġ ign
ĠJ ill
w el
Ġinterest ing
Ġdr um
ar s
Ġhe althy
C ome
Ġback yard
irp y
Ġsc ar
Ġcloud s
Ġexpl ain
iz zy
Ġm ed
Ġf ing
Ġsp e
Ġph one
ĠC at
Ġs u
le t
Ġwatch ing
Ġa ct
er ly
Ġl ine
Ġm aybe
Ġth ough
ĠDad dy
Ġspr ay
Ġem b
Ġli ft
ĠJ erry
Ġje wel
Ġeas y
Ġarm s
on t
Ġtrou ble
Ġcray ons
Ġp ack
Ġsu pp
Ġp ract
iz z
Ġtid y
Ġque st
ar ge
w ard
Ġwho le
Ġal ong
u ally
Ġgive s
ur se
Ġany one
o cked
Ġprin ce
Ġfin ish
Ġnot hing
Ġsa ved
Ġk ick
ll o
Ġfr ont
ra ss
ar rass
Ġdog s
Ġfan cy
Ġpuzz le
Ġs uch
one st
Ġwonder ed
Ġemb arrass
Ġa v
ĠO llie
Ġlong er
ĠB e
Ġpoin ted
Ġp ool
Ġne igh
ĠD oggy
Ġm ind
Ġexpl or
Ġcou ch
Ġplant s
Ġj elly
Ġwor king
ig er
Ġsmell ed
Ġforg ive
om an
Ġsh irt
s p
Ġboss y
Ġmist ake
Ġneigh b
Ġh onest
Ġl arge
Ġf ake
Ġa f
Ġw oman
m ing
o c
Ġw ing
Ġy og
Ġv an
or k
Ġrock et
Ġp in
ĠW ith
Ġjump ing
Ġco zy
Ġwe ak
it ing
ĠCh irpy
Ġput s
Ġque en
Ġche w
ĠWh y
Ġc ross
Ġwait ing
Ġche er
m ent
Ġso l
aught er
Ġgent ly
on es
un k
Ġs ur
Ġst ood
ĠM y
A nd
ir r
ĠThe ir
Ġd ish
ra id
Ġlove ly
ĠB unny
Ġlo ck
Ġaf raid
Ġre t
Ġri ch
Ġon to
or row
Ġbuild ing
Ġte eth
Ġl ad
er a
a w
Ġscar f
ul t
Ġret urn
oom y
Ġd aughter
Ġclean ed
Ġplace s
ĠMom o
ge st
Ġboun ce
ĠM ary
Ġwa nd
Ġlove s
Ġsear ch
Ġde er
Ġst ret
Ġant s
Ġscream ed
n ed
oo f
Ġswim ming
Ġb al
ĠTo gether
Ġtr ue
Ġash amed
u ce
Ġh um
Ġg ather
ĠS t
Ġgo es
ĠS omet
Ġtr ust
S ally
Ġpretend ed
Ġlad der
Ġpower ful
Ġnum ber
Ġsandw ich
Ġla w
ac ed
Ġcl own
Ġsplas hed
Ġtom orrow
Ġbor ing
Ġmat ch
Ġw ip
Ġpers on
e k
Ġapp eared
Ġmot or
Ġfur ry
Ġansw er
M y
Ġfe ar
K itty
Ġla zy
Ġp ri
Ġfl ag
Ġe ag
Ġha ng
Ġru b
Ġg en
Ġst ra
ĠI f
Ġp izz
Ġcreat ive
ad o
Ġcho col
o ppy
Ġnear by
Ġtoo l
Ġwe aring
Ġch ase
ic ked
Ġmat ter
Ġsuc cess
in a
Ġcir cle
Ġc and
Ġsa f
ĠT V
Ġc ri
ar l
Ġimp ress
Ġpizz a
Ġm ap
Ġba ld
Ġtri es
Ġso ap
el p
Ġsm iling
if f
v ous
Ġno isy
Ġso ld
Ġchocol ate
Ġt ent
Ġwe ird
Ġd ig
Ġhe llo
Ġp ump
Ġkne e
Ġballoon s
Ġprot ect
Ġdr ank
p a
Ġ icy
ens ive
Ġg ate
Ġr are
Ġres pect
Ġgo ld
Ġn er
ĠB ird
Ġgl ue
Ġexp ensive
Ġa p
Ġpol ite
m b
Ġner vous
ĠG o
Ġfe et
Ġpo or
ra g
ĠBob by
le v
Ġcar ried
ĠP lease
Ġh ar
Ġg un
Ġgen er
itt er
Ġmyster ious
Ġsh adow
St op
ĠD on
n ess
Ġsn ee
os aur
Ġte st
Ġmar ch
Ġwh ale
Ġre g
Ġembarrass ed
ĠT iny
vent ually
sc ape
Ġcla ss
Ġjourn ey
ut e
n ic
Ġnot e
iss ors
ĠB ear
um e
Ġpeace ful
ĠB u
Tom my
Ġpic nic
Ġdin osaur
Ġtow el
Ġher o
H elp
Ġt ick
Ġbr idge
ĠS p
ow ed
Ġm irr
Ġd izzy
Ġclos et
air s
Ġbo ot
Ġs que
is p
Ġsug ar
Ġm ic
ĠBen ny
Ġmirr or
Ġpre s
Ġwra p
Ġr ough
Ġc ap
Ġthe se
Ġl amp
Ġv ase
l ves
Ġst ir
r ob
Ġt ape
Ġgener ous
Ġyell ed
Ġsc issors
on y
Ġdec or
Ġle ad
Ġdanc ing
Ġdis co
Ġcl ap
u al
Ġg igg
Ġsc are
Ġh ur
Ġtast ed
Ġprin t
Ġe ld
ĠH ow
ot e
c ed
ĠSomet imes
nd pa
get able
Ġw is
Ġbl ow
im p
Ġve getable
Ġwh isp
Ġf ine
Ġlo se
s er
Ġmix ed
Ġk icked
rob e
Ġwould n
Ġth ick
Ġsc o
Ġkn ocked
Ġp ay
le br
Ġcr own
Ġdraw ing
Ġbr ush
Ġgl ass
Ġpain ted
Ġcorn er
Ġlo g
Ġce lebr
Ġinc red
an y
Ġm el
Ġso ck
as p
Ġb ake
Ġsp read
Ġcle ar
Ġbe an
Ġfam ous
Ġc age
Ġm ountain
Ġh orn
Ġmight y
er ries
Ġsp ace
Ġ 3
ust r
Ġwh ich
Ġb erries
Ġcl ay
Ġrel ie
Ġf ool
Ġf at
Ġbec ome
Ġeld erly
Ġad m
Ġincred ible
Ġgo at
D ad
Ġmom s
ig hed
Ġsh ark
Ġign or
Ġf rag
ĠD ucky
c ient
W here
r ay
Ġc one
Ġy arn
Ġfr ustr
Ġho se
Ġfrag ile
Ġro ar
Ġan cient
Ġt aught
Ġt er
Ġn orm
Ġclo ck
Ġwag on
Ġgu ess
Ġsp ent
Ġte am
Ġbran ches
Ġpol ice
p ort
al ous
Ġc ab
Ġnorm al
Ġbre ath
Ġfool ish
Ġje alous
Ġuse ful
Ġexplor ing
Ġunderst ood
Ġgr oup
Ġpr ay
Ġpres ent
Ġfrustr ated
Ġcreat ure
i que
Ġspo iled
Ġpump kin
Ġex am
Ġter ri
Ġm is
Ġb urn
Ġcab in
l ace
Ġun ique
Ġfe ed
Ġwa ke
Ġbo ard
Ġbal ance
ĠB r
Ġche st
Ġstu bb
Ġb arn
Ġh oop
Ġneck lace
ĠS ome
Ġcom fortable
Ġstubb orn
d le
Ġtell s
Ġhear s
Ġse ll
Ġp ir
Ġegg s
Ġchick en
Ġbubble s
or ry
o nd
Ġsho e
Ġun us
Ġto ug
Ġorgan ized
Ġno sy
Ġme asure
Ġfr ight
Ġwa ves
Ġsear ched
Ġunus ual
Ġsw ord
Ġbath room
Ġrelie ved
y m
Ġd ug
Ġmo v
Ġfind ing
Ġwr ote
ĠM ama
k n
Ġme al
Ġor d
Ġcl um
Ġsqu are
Ġas king
Ġde ad
Ġtoug h
Ġb itter
Ġto ast
al k
Ġwas hed
Ġtw ist
Ġthank ful
an ged
Ġclum sy
Ġsun f
Ġfi er
To gether
Ġcover ed
Ġdisco ver
Ġfier ce
Ġj am
kn own
Ġpaw s
Ġc her
Ġdis g
ĠP e
Ġstra w
Ġwe althy
an ut
Ġ ind
Ġun known
Ġfright ened
c il
Ġun l
Ġjoin ed
Ġcra zy
ĠE lla
Ġsal ad
Ġend ing
Ġpen cil
un n
Ġd ull
Ġdisg ust
Ġm ask
Ġco st
b ers
Ġtom ato
Ġyour s
Ġsho ot
He re
Ġterri ble
Ġcat s
Ġ '
f ic
M e
Ġ U
a pped
Ġdr op
Ġst uff
se lves
c om
Ġdif fic
Ġnod s
ber ry
Ġcr ane
or y
Ġdisgust ing
Ġbl oom
Ġs uit
l ive
Ġyour self
Ġhair y
Ġjo lly
Ġdiffic ult
Ġrem ind
Ġbanan a
Ġsh ore
Ġw itch
x ible
Ġknow ing
Ġgl oomy
ĠAnd y
Ġr at
p es
Ġj et
Ġval ue
irst y
Ġac orn
Ġfing er
Ġbor ed
Ġch anged
g round
Ġnut s
Ġche ap
Ġz ip
mb re
Ġt iger
Ġsmall er
Ġu mbre
Ġexc iting
i ant
Ġsto ve
Ġcu be
ĠA l
y al
Ġrec ord
Ġtri ck
Ġth irsty
Ġa dd
id ent
Ġadvent ur
ĠR ex
Ġro se
Ġbo dy
Ġfle xible
Ġst at
Ġmark et
Ġdo ve
Ġmar ble
Ġg uit
Ġfr own
Ġcount ed
Ġfr idge
Ġadventur ous
orm ous
Ġmo ving
Ġsunf lower
l ight
Ġperf orm
c orn
Ġsw an
Ġneighb or
Ġexplain ed
E very
Ġha m
ĠJim my
Ġsol ve
Ġas leep
ĠM any
ung le
Ġen ormous
ed ient
Ġlo yal
Ġj ungle
Ġcoll ect
Ġst age
Ġseed s
Ġdelic ate
sh ine
Ġst ri
ĠSam my
Ġpe anut
Ġsnack s
ll iant
Ġsque e
Ġd ough
Ġpot ato
M um
Ġbri lliant
at es
Ġhe al
er p
ack et
Ġguit ar
re en
l and
Ġf our
Ġt imes
Ġhat s
Ġcarrot s
g u
ĠWh ile
p id
Ġcare less
Wh o
id dle
Ġj acket
Ġvegetable s
Ġh arm
Ġc ries
Ġla b
u nd
Ġob edient
Ġumbre lla
m ost
Ġsh ine
Ġstu pid
A re
Ġpop corn
ĠIn stead
Ġs ighed
Ġr h
f ted
Ġc ro
ĠW ill
I f
Ġind epend
Ġc am
Ġpe pper
ĠBr own
in al
Ġ No
Ġsun shine
Ġal most
Ġg ar
Ġrel ax
Ġkn ife
Ġstu dy
ic t
J im
Ġpar rot
y ing
Ġg em
In side
Ġst ones
Ġmag n
il t
Ġstat ue
Ġe scape
Ġindepend ent
ig inal
H ow
Ġfil thy
Ġfear ful
Ġsh iver
Ġsa uce
Ġm iddle
Ġmail box
Ġbor row
Ġmed ic
Ġspr ing
Ġimpress ive
Ġfl ash
Ġcomp et
m et
in ess
M olly
Ġcom b
ĠT r
Ġcraw led
Ġwa ff
ia ble
erp ill
Ġcat erpill
Ġhel met
Ġsc r
Ġmov ie
Ġis land
ĠYou r
Ġto r
ĠT w
ak en
al s
Ġor iginal
Ġmedic ine
S orry
Ġget s
Ġser ious
our s
Ġbed room
Ġsuccess ful
Ġstand ing
Ġen g
Ġmu ff
Ġeag er
Ġd epend
Ġa unt
Ġhouse s
er able
Ġcray on
Ġde st
Ġje ep
Ġmis erable
Ġdes ign
Ġmo le
Ġh ay
Ġpain ting
en ny
Ġbat ter
Ġbelong ed
Ġan g
Ġspot ted
Ġsl ipped
Ġt aken
ag es
The re
Ġra ven
op ter
ic opter
Ġf ountain
Ġch oose
Ġmagn et
Ġt ied
Ġp ian
Ġhel icopter
Ġthought ful
Ġqu ar
Ġgar age
Ġbel t
ll ip
llip op
Ġcaterpill ar
Ġrel iable
Ġsqu ash
Ġr aced
Ġpri ze
Ġpian o
Ġcheer ful
Ġhurt s
Ġlo llipop
Ġli fted
Ġsmo ke
Ġste al
i o
d ile
co dile
Ġbe et
Ġpast a
op l
er opl
am ond
Ġpick s
o in
Ġbu ilt
Ġbra ce
Ġbott om
Ġw ire
Ġa eropl
ink y
Ġho pping
Ġfor k
in ary
Ġquar rel
Ġcam era
Ġpe bble
ber ries
Ġj ug
Ġcand le
Ġboat s
c ream
Ġsw e
Ġg oose
Ġcry st
Ġtri cks
Ġcra ck
Ġdi amond
a ff
Ġmu sh
ip e
Ġp ress
Ġmo der
Ġar row
Ġcompet it
Ġtor n
Ġpop ular
Ġhum ble
Ġdepend able
Ġst amp
Ġhelp s
Ġre f
Ġs il
Ġb ull
Ġmoder n
Ġf ig
Ġcoll ar
c les
Ġen v
Ġcro codile
p ack
Ġplay ful
Ġwra pped
Tim my
c ident
ce an
Ġneed s
Ġfl ute
Ġus ing
Ġr ug
Ġo cean
Ġkiss ed
Ġwa nder
t i
Ġl ow
Ġt ax
Ġsh ape
Ġtw ig
a ppy
Ġs ink
Ġshow s
il ty
Ġgu ilty
Ġan x
Ġdisapp oin
The ir
at ter
Ġboy s
Ġde af
Ġmush room
Ġfl uffy
l ph
Ġgra ce
Ġt ank
ed y
Ġanx ious
u be
Ġto oth
unn el
ĠS n
Ġg um
he t
com fortable
Ġun comfortable
Ġpass ed
Ġmel on
Ġeng ine
co a
Ġt unnel
Ġpers ist
Ġtrou bled
Ġwalk s
Ġtax i
Ġhelp less
Ġbeet le
Ġc ere
Ġp ant
Ġli z
c ut
Ġham mer
Ġdo lph
Ġlo cked
Ġt ur
ĠJen ny
Ġn ail
Ġli cked
Ġav oc
Ġon es
Ġru ined
Ġcryst al
Ġr id
z ed
Ġharm less
Ġf is
Ġtri ang
Ġcomp ut
Ġang el
Ġm ug
ut h
Ġcomp ass
h ost
Ġtur key
Ġgif ted
Ġco coa
het ti
ag hetti
Ġme ant
ĠE ven
Ġac cident
Ġord inary
i v
az e
Ġt ire
Ġoff ice
Ġpig e
Ġcere al
Ġsp end
Ġin se
Ġaeropl ane
Ġbar rel
Ġpersist ent
Ġear s
Ġt ube
Ġg host
at ch
Ġle an
ex t
Ġre p
Ġinv ited
Ġsc ale
Ġ er
Ġcompass ion
Ġsp aghetti
Ġte ars
an ger
Ġliz ard
Ġdel ight
it her
M ama
Ġgi ving
Ġl it
Ġdisappoin ted
ub by
J ane
Ġhard er
Ġp ow
Ġt ag
Ġb icy
Ġbe es
Ġm itten
Ġsa iled
Ġansw ered
Ġpour ed
ot o
Ġenv ious
Ġcomput er
Ġsp ill
ess ie
col i
c coli
Ġsco ot
Bob o
ie f
Ġc omet
Ġrad io
Ġbrace let
Ġwhisp ered
Ġstret ch
Ġro de
Ġnum bers
az z
Ġlo ad
Ġpr o
Ġm elt
Ġcre ate
Ġtra p
ell ig
h ip
Ġhar sh
Ġhapp iness
Ġint ellig
Ġdes k
Ġpant s
Ġquest ions
Ġinse ct
Ġst ream
Ġwhe at
cy cle
Ġtra ck
Ġm op
Ġc ase
Ġreg ular
Ġch ubby
as ses
Ġfor ward
Ġbar ber
Ġha lf
Ġp ony
Ġra ft
Ġshr imp
Ġsh ade
Ġy aw
at s
Ġlearn ing
y e
Ġp urse
Ġy ach
Ġrest less
Ġtick et
ac he
Ġyog urt
Ġv ide
Ġd ust
lc an
Ġli br
ul b
Ġflash light
Ġfriends hip
Ġc ush
Ġpa le
lcan o
Ġdec ide
as er
ct us
Ġintellig ent
Ġgl ove
Ġm ill
Ġc oo
Ġsor t
Ġhair cut
Ġyach t
Ġp ipe
Ġcri cket
ig ator
Ġpract iced
Ġbro ccoli
Ġfeather s
Ġloud er
ump et
Ġch arm
Ġcraw l
Ġr oof
Ġs le
Ġb ulb
Ġco ins
Ġhappen ing
ĠEm ily
Ġri ce
Ġth read
ĠO K
Ġcar p
Ġpige on
rew ork
Ġsp un
Ġdel iver
Ġtr umpet
Ġac ce
at ient
Ġvo lcano
Ġv ine
as ing
Ġshe et
Ġcompetit ive
Ġwall et
Ġstrong er
Ġe ventually
Ġsc reen
Ġh unt
is ted
Ġcarp et
Ġkn ot
g ing
Ġo y
Ġwheel s
Ġtr uth
Ġall igator
Ġloo p
Ġfig ure
Ġdream s
Ġca ctus
Ġun iver
it al
Ġro d
Ġho sp
Ġth ief
Ġtr unk
om es
Ġnice ly
Ġsleep ing
Ġhosp ital
Ġt ap
Ġcompassion ate
Ġfi rework
Ġgrace ful
ri ll
Ġv i
Ġreturn ed
ĠJ ake
Ġsp ell
Ġad or
Ġbicy cle
Ġpar ade
Ġsold ier
Ġdest ro
Ġcelebr ate
Ġth u
Ġsk in
Ġl ying
Ġboun ced
eb ra
Ġc urt
Ġscoot er
ĠTo day
el ery
Ġmotor cycle
Ġcharm ing
Ġcurt ain
Ġch alk
Ġfor th
Ġpen gu
b ul
Ġju dge
Ġsc atter
Ġspe ed
Ġor der
G o
Ġbox es
Ġexc ite
Ġimp atient
is ion
Ġal ert
Ġway s
Ġador able
Ġp it
bul ance
Ġam bulance
Ġgr own
Ġwall s
Ġtra vel
ĠBu zz
Ġc op
ul if
ĠP oppy
t en
Ġtriang le
Ġz ebra
Ġen vel
Ġmar ry
Ġent h
Ġte m
Ġfil m
Ġtr ay
Ġc elery
Ġstr anger
Ġplan et
us ia
ra ge
Ġshell s
Ġimp ro
Ġenth usia
Ġclean ing
Ġspin ning
Ġrad ish
Ġthem selves
at ing
Ġpo em
Ġcount ing
Ġavoc ado
Ġca ulif
Ġsa us
Ġ ed
ĠTr ue
Ġen c
ent ion
Ġband age
Ġatt ract
ol in
Ġbus hes
et e
z zy
ul u
Ġneed le
Ġru bbed
ĠF r
Ġsn iff
Ġr ag
d om
Ġsle pt
Ġcoo ked
Ġmet al
Ġpir ate
Ġdolph in
Ġignor ant
Ġattract ive
Ġon ion
Ġquest ion
Ġwe ek
Ġsk ipped
Ġd ive
Ġshow ing
Ġcaulif lower
op ard
Ġsay ing
Ġpr un
de st
Ġcush ion
ill a
Ġunl ock
Ġlaugh s
Ġb ase
Ġk ay
Ġh ook
Ġd eter
j ect
Ġf u
Ġgu ard
Ġpo le
Ġsh ut
Ġlive ly
Ġh omes
Ġdist ant
Ġst um
Ġbig gest
Ġdeter m
Ġlight s
ag ed
n am
Ġso ar
Ġs end
Sara h
Ġste ak
ĠF o
ur b
n ger
Ġsur f
ch air
Ġpe ach
Ġdestro y
Ġsk ip
Ġb in
it o
Ġvi olin
Ġt ummy
Ġbeh ave
ĠS h
Ġkay ak
ĠP ipp
Ġme at
Ġin k
Ġle opard
Ġro ot
Ġer aser
Ġoy ster
Ġdist urb
qu ito
ter n
Ġf ather
Ġspe ak
Ġcup board
nam ent
B illy
Ġun cle
Ġbutton s
Ġarm chair
eb ook
G ive
Ġloud ly
Ġor nament
Ġtem p
Ġmo s
Ġnot ebook
Ġdecor ate
Ġsk ull
Ġc ity
Ġgather ed
Ġfall s
Ġsc rew
Ġmuff in
Ġenvel ope
Ġmos quito
l ies
Ġmo dest
Ġbag s
us ie
Ġl ime
Ġwip ed
Ġpo st
ĠT ina
Ġgra pes
Ġch ain
Ġon ce
Ġtruck s
Ġplay ground
Ġve st
Ġdisapp eared
ct op
Ġst ation
Ġyog a
Ġse al
Ġknow s
Ġswe ater
Ġdri ving
Ġwhen ever
Ġfold er
ce ed
Ġm ild
Ġg ear
Ġear th
Ġy et
lev ator
Ġlibr ary
Ġed ge
Ġe levator
Ġb ump
st ic
Ġpol ish
G ra
Ġpo ke
Ġres c
ctop us
ak y
Ġpre p
ĠP eter
Ġwis hes
le ton
ke leton
Ġsh ield
Ġspl it
Ġpat tern
Ġn urse
Ġenthusia stic
ir it
Ġp le
w e
ĠM um
Ġcup s
Ġwaff le
Ġh ipp
Ġc ord
Ġfl ame
Ġte leph
Ġmix er
Ġsal t
Ġpoin ting
Ġve il
W ell
Ġkind ness
Ġcall ing
Ġjourn al
ĠL ulu
Ġz ipp
Ġsug gest
Ġha ll
Ġteleph one
Ġdi ary
l a
Ġsuc ceed
Ġcost ume
Ġatt ic
Ġc ob
Ġit ch
Ġl ed
Ġfoot ball
ur ing
Ġtri pped
Ġo ctopus
Ġjelly fish
Ġa ut
us hed
Ġhe dge
Ġcom pl
Ġenc ou
Ġs keleton
Ġbrother s
Ġmiss ile
Ġgr owl
Ġcl ub
Ġthu nder
Ġc able
Ġrep air
w eb
Ġread ing
Ġmean s
Ġd ess
Ġst ack
p ar
Ġglow ing
ĠTw eet
Ġgo lf
ob y
Ġsun g
Ġpa cked
Ġcol our
in es
B ye
Ġm aze
Ġvide o
ist ol
Ġst airs
Ġcob web
Ġsupp ort
Ġmag az
Ġm ath
Ġg or
um b
Ġit self
Ġsw itch
R e
Ġbasket ball
Ġp ine
Ġc amp
ro sc
ke ep
ĠL ittle
ob ile
?" .
Ġa dded
om obile
rosc ope
Ġpow der
Ġaut omobile
ur ch
Ġle ash
Ġhipp o
o ld
at ure
Ġpack age
t ime
Ġp istol
Ġbanan as
Ġfle a
, âĢĿ
Ġre pe
Ġme adow
Ġsho cked
Ġr ot
a it
Ġsnee ze
a ving
Ġpast ry
Ġman aged
Ġcart oon
l asses
Ġstraw berry
Ġche ss
ĠBird y
Ġan ch
Ġf ile
Ġsung lasses
Ġmat t
Ġdraw ings
ĠP olly
Ġpen ny
Ġp un
Ġsp ear
Ġsaf ely
Ġcomp let
w ork
Ġkn ight
ĠPe ople
S ee
ut es
Ġper m
Ġst aff
Jim my
Ġey e
Ġstr ugg
he ad
Ġdeterm ined
ĠB et
Ġfire man
Ġse par
Ġgigg led
Ġar g
ri c
Ġanch or
Ġroll ing
Ġmake up
Ġco al
Ġtr oph
Ġo k
Ġcool er
Ġmatt ress
Ġhot el
Ġdess ert
Ġs ight
Ġear ly
Ġtra sh
ĠZ oom
Ġte ar
Ġch urch
oph one
Ġcompl ain
Ġr ise
ht ray
ĠM iss
Ġt en
Ġc ell
Ġla ser
Ġwar d
Ġstep s
Ġward robe
Ġmin utes
Ġmin t
Ġf ive
ht ub
Ġpretend ing
Ġme m
up er
Ġo il
Ġve nd
Ġdraw er
Ġbat htub
and a
Ġfr ame
Ġg asp
ĠB essie
J ill
Ġbark ing
keep er
Ġtroph y
Ġcook ing
Ġblack board
Ġthin king
n ey
ie w
Ġgor illa
Ġe ither
' d
Ġth ose
Ġtool s
Ġv iew
Ġh ours
Ġslid es
Ġher b
Ġha nger
Ġcabin et
se um
Ġpract ice
Ġvend or
Ġopen s
Ġtemp le
Ġmed al
Ġhunt er
ap ers
Ġmic roscope
Ġfl our
Ġnew sp
ir on
ĠP ete
at ely
ĠL ook
Ġsail or
Ġt ask
ĠD an
Ġmu seum
Ġa x
im ney
Ġsn e
Ġlot ion
Ġche ck
Ġpat ch
Ġas htray
Ġhand le
Ġpe ar
Ġch imney
Ġcher ries
Ġre ver
ĠEvery where
Ġmar ched
A l
Ġ ow
Ġof ten
c ing
ĠG ive
Ġval u
ot ter
Ġset t
Ġu r
Ġsand box
Ġ otter
Ġall owed
r ophone
Ġwe ep
Ġw ife
Ġt una
Ġsp irit
Ġw ool
Ġtorn ado
Ġhold s
f fe
Ġs ize
Ġpe e
Ġax e
ffe e
Ġwh ip
re ady
en se
Ġph oto
Ġr ake
Ġsaus age
il ot
Ġo ats
pl ay
ĠS unny
Ġm ay
Ġtell ing
Ġmic rophone
ug ged
in ation
ctor y
Ġbat he
pl ace
Ġqu it
lev ision
Ġhur ry
ail able
Ġimpro ve
Ġmess age
Ġo ak
Ġreal ised
Ġkn ock
ile t
Ġte levision
Ġal ready
Ġm en
Ġhole s
Ġcow s
Ġpass port
Ġfall ing
Ġimag ine
ĠSp ike
Ġfa ctory
h ic
Ġmagaz ine
Ġtow ers
Ġre ward
uc et
Ġve hic
Ġhang ing
Ġfree z
w as
ĠK im
Ġdream ed
Ġb ill
ur ed
was her
E m
Ġto ilet
Ġsh ort
Ġpengu in
es day
Ġfu el
F luffy
Ġav ailable
Ġstum bled
Ġrh in
Ġri bb
r on
Ġh ive
Ġgra ndpa
Ġfa ucet
Ġdis play
Ġbase ball
Ġdish washer
l oo
Ġbatter y
c ase
Ġorgan ize
Ġju icy
Ġg ain
Ġzipp er
Ġrem ain
e er
Ġl end
Jo e
Ġcan e
Ġp ilot
Ġf og
Ġshr ink
Ġnot ice
Ġexcite ment
Ġho c
Ġhoc key
Ġenjoy ing
Ġbath robe
bo dy
Ġ ig
um ber
Ġig loo
Ġob ject
Ġcard board
st airs
ĠR ose
Ġ iron
Ġfast est
Ġfing ers
ar ian
Ġfire place
Ġno vel
Ġla und
Ġs uper
Ġs ub
Ġco ffee
amp oo
Ġlaund ry
W ait
Ġp al
ar oo
Ġvalu able
Ġg rill
az or
ang aroo
Ġspill ed
Ġp ed
v ice
ree k
Ġstop s
Ġfis her
Ġm ummy
Ġc reek
ĠHe re
Ġhapp ier
Ġpick ing
Ġperf ume
Ġn ature
Ġjump s
Ġpro v
Ġsil ver
Ġro ared
Ġre ind
c ome
Ġp or
a id
Ġstar ed
Ġs on
l u
Ġtall er
Ġcom fort
Ġjoke s
ĠPipp in
Ġmin er
Ġlisten ing
Ġpal ace
ict ion
Ġk angaroo
ĠM ar
Ġnewsp aper
Ġboot s
iction ary
aur ant
Ġdiscover ed
Ġpress ed
Ġbl in
Ġp apers
ĠSn ow
oc er
Ġrest aurant
L ittle
Ġreind eer
Ġne at
ĠR ob
Ġbutterf lies
O w
Ġsweet ie
f a
Ġsh ampoo
Ġspark ly
c u
ocer os
Ġli p
Ġre ce
af fe
ac hes
Ġsk irt
Ġjewel ry
i k
I s
Ġstret ched
Ġnap kin
ĠBet ty
M r
Ġcomplet e
Ġcl iff
Ġspo ke
e or
Ġrub ber
Ġfisher man
ĠA re
Ġbill board
Ġsh aking
ie st
Ġcri b
Ġbe ep
Ġo live
Ġhun g
d el
Ġd ictionary
Ġswam p
Ġrhin oceros
Ġinc lu
Ġbl ouse
z ag
g en
Ġgrow ing
ic hes
Ġli e
Ġbu ry
Ġclimb ing
Ġany way
Ġsandw iches
Ġsquirrel s
Ġpor ch
Ġgasp ed
Ġnam es
Ġfrog s
ĠZ ip
Ġsub way
Ġatt ach
Ġs ym
Ġfreez er
Ġres ist
ig zag
Ġtra il
Ġdist ance
Ġbike s
Ġun pack
Ġmusic ian
Ġad vice
Ġsn ap
Ġt ub
Ġpo pped
ĠS usie
Ġoff ered
bo l
Ġhelp er
Ġg ym
Ġcho se
Ġso fa
Ġmo del
st ri
l ter
Ġpin ch
Ġkn ob
Ġstick ers
Ġshe lter
Ġsym bol
Ġmu le
asp oon
Ġex t
Ġtight ly
om ed
Ġcir cles
eor ge
f ast
Ġag ree
M ummy
Ġletter s
Ġgir affe
Ġob ser
Ġt ut
Ġwe igh
O uch
Ġdra in
ale nd
Ġbelong s
Ġsl ipp
Ġc alend
Ġbooks he
Ġblue berries
Ġte aspoon
Ġdoes n
ĠT oby
Ġr azor
Ġdis ag
Ġbreak fast
Ġp age
Ġal arm
Ġg as
Ġair port
Ġagain st
Ġtut or
Ġstir red
Ġbookshe lf
Ġop era
ar ry
ĠP andy
iv al
Ġswing ing
Ġpain ter
um mer
Ġce iling
Ġvehic le
Ġh ut
Ġun if
og n
Ġsepar ate
ol a
Ġunif orm
Ġmust ache
Ġch ance
Ġcalend ar
Ġru les
Ġa head
Ġre fused
Ġlight ning
Ġfe st
Ġpo ked
Ġrever se
Ġfor t
Ġso il
Ġrec ogn
Ġin s
Ġhappen s
t e
Ġle aving
Ġp anda
Ġple ased
Ġdisapp ear
Ġtr ade
ĠGra ndpa
Ġhat e
Ġser ve
Ġo stri
Ġdanc er
x y
Ġtrain s
e f
Ġbri ck
D aisy
Ġwip e
Ġext ra
Ġrid ing
Ġbee f
Ġany where
re nder
Ġsquee ze
Ġpee ked
Ġc ards
ĠL ee
Ġlaw n
Ġgo al
Ġfest ival
Ġsound ed
Ġaccident ally
Ġresc ue
Ġr ail
ĠT eddy
Ġli c
ĠMr s
rm omet
Ġdream ing
Ġpoin t
a ked
rmomet er
Ġl umber
Ġj unk
n ight
as is
Ġacce pt
Ġcarry ing
i um
Ġmistake s
Ġst om
Ġcar ing
Ġwe ather
Ġmonkey s
Ġgra pe
Ġte ase
Ġinv ite
Ġblin ked
Ġbird c
Ġstar ts
Ġch asing
Ġbirdc age
i ence
Ġpe ek
Ġproblem s
Ġmeet ing
Ġbuck le
Ġs uff
Ġo asis
Ġmiss ing
Ġsw ung
Ġadm ire
re s
Ġostri ch
Ġrem ove
am ber
Ġwin ter
Ġl id
Ġimag ined
Ġb et
Ġwar ned
Ġshout s
Ġs ummer
!" .
ĠB ow
Ġp ages
ĠU n
Ġlic ense
Ġtw ir
Ġchair s
Ġre ef
Ġf urn
it ure
Ġrespect ful
Ġclass room
n a
ast ic
Ġthe rmometer
Ġst able
Ġfrown ed
Ġfurn iture
ĠW here
Ġcho ice
Ġlean ed
ble s
Ġsad ly
Ġw igg
Ġpudd les
Ġpast el
m ed
Ġsun set
Ġproud ly
Ġsuggest ed
ik i
Ġbook case
Ġwas te
Ġfind s
ad ium
Ġap ron
Ġst adium
ĠB ill
Ġthe ater
Ġab ove
ĠC l
ĠB ig
Ġpre vent
Ġspo il
Ġwindow s
Ġlab el
Ġold er
ang u
Ġsl ip
ĠC arl
Ġch amber
ĠS pe
Ġlion s
ec ted
Ġlaw y
Ġzoom ed
Ġqu iz
Ġdel ay
ĠC o
Ġbright ly
Ġsearch ing
Ġgra nd
r iger
riger ator
Ġfix ing
Ġb ent
a ul
Ġl angu
Ġref rigerator
Ġeven ing
ĠDo lly
D id
Ġgrab s
Ġc udd
ation s
Ġsupp ly
C h
Ġsur render
Ġste am
Ġremind ed
You r
Ġun ite
Ġfav our
ĠHe l
Ġcar ed
in arian
eter inarian
Ġin f
Ġplay er
Ġflo at
is on
her o
Ġran ch
Ġhand ed
Ġv eterinarian
Ġs ent
Ġpl ates
Ġsuper hero
Ġpa ir
Ġb erry
Ġap ol
ĠB ub
l ow
m end
s ity
Ġf ought
om mend
le x
Ġw ine
Ġshow er
Ġfavour ite
ĠB oun
Ġrec ommend
Ġexcited ly
Ġlawy er
Ġapol og
Ġj ail
ro d
Ġsurpr ises
Ġslipp ery
v et
Ġsa ving
Ġmat ches
Ġrepl ace
cu ss
Ġr ac
Ġhar b
Ġchick ens
Ġpan ic
ve al
Ġint rod
Ġadm ired
Ġdoor s
Ġra ise
ĠJ azz
Ġign ore
Ġminer al
Ġpu p
Ġhum an
Ġarg ue
Ġcolour ful
ĠD ave
Ġpus hing
Ġrest ore
Ġreg ret
ĠFred dy
Ġinc re
ĠAl ice
all ey
Ġdis cuss
Ġar t
Ġwe ap
el come
Ġv alley
Ġm all
th ank
Ġs udden
Ġforg ave
Ġbe g
Ġsnee zed
Ġshake s
Ġc ur
ick y
Ġharb or
Ġa w
Ġre veal
Ġmen u
c ast
ĠBu zzy
Ġ V
Ġr ushed
Ġpoin ts
Ġso cks
Y uck
Ġstri p
Ġapp l
Ġg ro
Ġpl astic
Ġsand cast
Ġme as
ec ause
Ġsniff ed
Ġbright er
uc ture
Ġn avy
Ġy ield
ĠN ext
Ġli ves
ĠO live
Ġstr ucture
Ġsh one
Ġpull s
Ġmyster y
Ġdelight ed
Ġle ak
Ġput ting
Ġstick er
Ġthank s
Ġprep are
Ġp ort
c er
Ġbark s
as on
Ġribb on
ĠO w
im ed
Ġf re
ĠR ed
Y ay
ĠW ould
Ġinf ant
Ġcount ry
Ġshould er
Ġshiver ing
Ġdis hes
er o
Ġkeep ing
Ġfree ze
Ġsoft ly
Ġbre at
Ġhop ing
Ġend ed
ĠM ike
Ġspray ed
Ġsp ade
Ġcla w
r ise
ch an
ugg age
Ġrain ed
ĠE llie
Ġt ip
Ġkind s
Ġme owed
Ġl uggage
ar i
ĠSpe edy
Ġthrow ing
ĠBub bles
id ay
Ġe vent
Ġsun rise
Ġlangu age
Ġgigg le
ic er
Ġprov ide
ĠT ed
Ġw re
Ġsho vel
Ġ âĢ
ric ane
Ġcher ry
au d
Ġsmell s
Ġhead s
ĠO r
Ġtre m
Ġstick y
co nd
Ġun h
W ill
Ġbe nd
Q u
Ġse cond
Ġpus hes
in ce
Gra ndma
Ġsplas hing
M ary
Ġsuff er
em ent
Ġho l
Ġent er
Ġhol iday
ĠF l
chan ic
Ġkne el
ĠE nd
Ġfre sh
Ġfeel ings
Ġweap on
Ġuniver se
Ġsc ore
oph ie
Ġme chanic
Ġlaug ht
ĠB inky
Ġde ar
. .
Ġunh appy
Ġlaught er
N ext
Ġd em
Ġcou rage
Ġcast les
Ġ x
ac ked
w ards
Ġroom s
Ġcla pping
Re ady
ĠK iki
Ġth umb
Ġs igh
Ġtrust ed
Ġm ention
ĠHel p
Ġwre ck
Ġr ow
er c
Ġrepe at
Ġplan es
Ġappl aud
B uddy
Ġprun e
Ġpig s
Ġd are
o e
ig i
Ġsandcast le
app ing
Ġm ass
Ġhur ricane
ĠS que
Ġsp ort
Ġen er
Ġste el
Ġfl ies
arl ie
Ġsome where
Ġbreak s
ĠJohn ny
ĠR u
y ear
Ġlet ting
Ġco pper
Ġpar ts
Ġdem and
Ġcont ent
Ġfl ood
Ġjog ged
Ġgre edy
Ġstre ng
Ġinv it
ĠP at
Ġle ather
Ġex erc
Ġstreng th
ĠG eorge
Ġrain ing
Em ma
y th
Ġsk ill
Ġcoat s
Ġsquee zed
Ġyaw ned
que st
Ġstar ting
Ġmy self
yth m
Ġup stairs
Ġr ush
Ġpo ison
m are
Ġimpress ed
Ġsco ld
Ġpa id
Ġyaw n
Ġto e
Ġthrow s
ĠM andy
Ġre quest
Ġuniver sity
Ġdrop s
Ġcross ed
Ġwar n
i ally
en ry
Ġpir ates
Ġexam ine
Ġch irp
Ġeat en
Ġal ive
he art
Ġsett le
Ġstu d
Ġgi ven
Ġped al
Ġhis t
Ġsn ugg
Ġrabbit s
Ġlemon ade
Ġshr ugged
L isa
A ll
Ġhist ory
Ġexplor ed
Ġmin ute
Ġhor ses
Ġpray ed
Ġn ation
Ġt ide
ĠL ola
s pec
Al ice
Ġspark led
Ġbear s
Ġnight mare
Ġche cked
A nn
Ġst y
Ġrh ythm
Ġfl apped
t ain
Ġwhist led
Ġtra cks
Ġpun ish
Ġbump ed
spec ially
Ġspot s
Ġpl aced
Ġex pect
Ġblue berry
Ġhill s
ĠFo x
Ġobser ve
Ġbu zz
ĠS m
Ġ Y
Ġclaw s
Ġchee k
Ġp ad
Ġboun cing
g es
Ġsweet heart
ĠZ oomy
Ġscr atch
Ġignor ed
in king
re at
we en
Ġnew s
n oon
Ġafter noon
ĠH oppy
Ġb other
Ġoff er
Ġbet ween
i b
Ġwa ving
Ġstraw berries
Ġstom ach
Ġcall s
ĠG igi
Ġhe at
Ġe specially
m en
iz es
Dad dy
Ġv ac
ĠB ee
S h
Ġtw isted
Ġbad ly
Ġener gy
Ġeas ily
F red
Ġins isted
Ġe qu
Ġbeaut y
Be fore
Ġsnow ball
Ġp alm
Ġimag ination
ĠGra ce
M ark
Ġblow ing
ree ze
Ġto ur
Ġbra in
he st
ĠA b
ott en
Ġmass age
Ġso ak
Ġburn ed
Ġv room
Ġsc oop
Ġmove s
Ġ ing
Ġno body
Ġinclu de
Ġg az
ĠS ee
ĠU nder
Ġperm it
Ġent ered
Ġbelie ved
Ġbu ried
Ġshop keeper
Ġencou rage
Ġd aisy
Ġcra sh
Ġp itch
J enny
red ient
qu ake
Ġcand les
Ġing redient
Ġy ucky
Ġnet work
ĠP ip
Ġvac ation
Ġacorn s
Ġs ir
ĠS k
Ġlem ons
Ġpri ce
ĠA lex
Ġhear ts
la imed
Ġatt ention
Ġf urt
Ġt ug
Ġincre ase
ĠP aul
W elcome
ap a
Ġflo ated
Ġsaf ari
Ġb aking
Ġse w
Ġfollow ing
Ġst air
Ġexc laimed
Ġwag s
Ġback pack
ang es
Ġearth quake
Ġtrem ble
Ġsl ap
er ation
Ġl uck
ĠM ummy
ĠL illy
Ġprun es
Ġfurt her
Ġchew ed
ill ie
Ġwe ight
Ġintrod uce
Ġle ar
Ġlear nt
ore s
c ery
Ġelephant s
ec ting
Ġgro cery
Ġgrowl ed
Ġbean s
Ġfollow s
Ġstrugg le
Ġplan ned
Ġhop es
Ġcap tain
ip ment
ĠSque aky
ff ic
ri age
L e
Ġequ ipment
Ġexerc ise
Ġshout ing
ĠFin ny
Ġmail man
Ġstri ke
Ġingredient s
Ġwis dom
Ġbel ow
M imi
Ġwr iting
Ġpeanut s
Ġteach ing
re c
Ġtra ffic
Ġcom f
ĠSnow y
Ġz igzag
Ġboun cy
W oof
W ith
Ġrac ing
Ġch ores
ĠWh o
res ses
Ġpull ing
Ġc ape
ĠFin n
Ġsp ike
or ies
Ġim age
xy gen
ec ture
Ġscr at
Ġclose ly
ĠOw l
Ġl ecture
Ġfold ed
h ouse
und ay
ĠZ ara
ĠSh aring
Ġplay s
n esday
ed nesday
igg ing
g ie
Ġworm s
Ġland scape
Ġap art
Ġplan ted
Ġcreature s
Ġwas hing
ĠS unday
Ġd igging
h ood
uc t
if i
Ġsty le
ĠI s
Ġwin ning
Ġcon f
ĠWhen ever
Ġur ge
Ġpuzz les
Ġre lease
em ember
Ġhurt ing
Ġwhisp er
Ġdress ed
Ġag re
Ċ Ġč
Ġb le
Ġrecogn ize
ĠR ock
l ook
Ġpo ppy
Ġop eration
Ġhe el
bb ing
ĠH ave
Ġqu ite
itten s
c cer
Ġp ur
Ġdeep er
Ġwar ning
Ġexp er
ĠE lly
Every one
ĠS ophie
Ġquiet ly
rec i
ĠFr oggy
Ġmarble s
Ġmar riage
ĠR o
uc ked
Ġsn ail
Ġd resses
Ġapp reci
ĠW ednesday
ĠBoun ce
dd y
Ġunder ground
Ġso ccer
Ġd ried
Ġbl ood
Ġwor th
Ġw ob
Ġsnugg led
Ġinvit ation
ĠD og
is ty
Ġli cks
Ġsol ved
Ġfall en
et ch
Ġsail ing
or al
Ġman age
Ġpa used
s ed
in o
Ġvan ished
st ers
Ġs izes
Ġneighb our
Ġeag erly
Ġspr ink
Ġprin ter
Ġj azz
Ġgif ts
Ġbreat he
ĠBlue y
ĠJoe y
Ġs imp
Ġwater ed
Ġres p
ĠT ony
Ġre aches
ipp ing
B ella
Ġvan ish
Ġmem ory
Ġcount er
Ġbr ings
ĠG ood
look ing
Ġm ama
r ight
Ġmar ried
Ġh on
Ġmem ories
un ately
Ġide as
is ses
ĠP enny
Ġk isses
p ted
ip s
ĠâĢ ĵ
Ġfl ap
up s
os ie
Ġo h
Ġm ice
Ġbl ink
Ġsit s
ra ged
Ġin st
Ġpillow s
Ġrece ive
Ġex it
Ġbal an
B ecause
The se
N ot
Ġfa sh
Ġshin ed
m m
Ġgl o
Ġdestroy ed
Ġapp ear
ĠS u
Ġfirework s
Ġacce pted
ĠDan ny
ĠCo co
ĠCh arlie
B l
Ġcatch ing
Ġcu b
Ġtomato es
Ġprin ts
ĠL ucky
Ġmu ddy
Ġfash ion
Ġd uring
ĠT illy
i ppy
To day
ĠMar ia
Ġgaz ed
ĠM ittens
Ġwag ging
Ġher s
Ġglo ves
ĠF ifi
r r
ĠEvery thing
Ġsee ing
ĠE ventually
Ġz ipped
Ġb ur
Ġsign s
Ġscold ed
Ġhit s
Ġto ng
Ġsor ts
a h
Ġtw isty
Ġve l
Ġsh ot
Ġscatter ed
Ġbri cks
ag gie
R emy
Ġvel vet
Ġb ones
u x
S urpr
Ġgold en
Ġwor se
Ġwander ed
Ġunl ocked
Ġstuff ed
Ġor anges
Ġbed s
op s
Ġpe arl
d o
Ġpet als
i ved
Ġclimb s
ĠP apa
Ġhad n
Ġo xygen
Ġeas ier
Y um
u ry
Ġd ared
Ġpin ched
n ce
ĠP inky
ĠAnn ie
Ġra ised
Ġcre ated
u esday
Ġseat s
Ġall ow
is ing
Ġnow here
ch ie
Ġse ason
Ġbit es
Ġsn apped
Ġslid ing
Ġflo ating
Ġwe b
Ġspoon s
Ġtreasure s
Ġp ies
d ing
Ġskill s
Ġblanket s
Ġsor ting
Ġstra ight
Ġwa ist
Ġran g
ap ed
Ġst itch
ch oo
ak er
ĠT uesday
Ġguess ed
Ġtra pped
Ġmarch ing
Ġble ed
Ġforg otten
Ġtwir led
Ġtra ve
Ġpret t
Ġ Qu
Ġdisag ree
Ġdiffere nce
Ġl ux
Ġfire f
ct ion
Ġpup il
Ġl ung
ĠT una
ĠK ate
Ġkick ing
Ġcr ow
Ġfr o
Ġf etch
or ted
med i
Surpr ise
Ġcake s
un e
medi ately
ake s
Ġcoll ected
Ġwaff les
Ġunderstand ing
Ġk itty
Ġcut ting
Ġwelc omed
ss ible
Ġur ged
i ers
Ġking dom
igg ly
Ġsell ing
Ġvis ited
c us
ĠH enry
iz ard
Ġis n
Ġem er
ĠRu by
ĠR osie
Ġv ict
Ġcelebr ated
Ġshould n
Ġencou raged
Ġolive s
Ġmus cles
Ġjog ging
Ġjewel s
fort unately
Ġba ked
Ġac ted
Ġru in
an ny
O k
Ġtong ue
Ġl ined
ĠS andy
Ġsold iers
Ġbow ed
Ġsimp le
Ġpe ars
ĠSt e
e ster
Ġwin ner
M oral
' ve
ĠGo d
ester day
Ġs ince
Ġgr ant
Ġdrink s
Ġprin ted
Ġpun ished
Ġfam il
Ġl ily
Ġb ang
Ġour s
Ġme ow
Ġlux ury
Ġto es
Ġsl ice
um es
Ġto re
Ġcra s
ĠB aby
Ġb reeze
Ġbre aking
Ġatt ached
Ġn one
Ġfis hing
ĠH arry
is hing
ĠE ach
Ġmention ed
Ġweep ing
s it
ad ed
Ġroot s
Ġpet s
Ġcollect ion
Ġmeas ured
r in
e ath
Ġby e
Ġmel ted
Ġpresent s
Ġcost umes
omed ay
Ġsh ock
Ġpattern s
Ġlip s
ĠBe fore
ache l
Ġs ip
ĠK ing
e ep
Ġw izard
ĠSp ark
Ġvoice s
Ġfl at
ĠD ino
k ins
Ġshe d
ĠUn cle
ent s
r ing
Ġvict ory
Ġgr in
Ġsk ipping
Bl ue
Ġs omeday
Ġring ing
Ġbeg ged
Ġapp ro
Ġrece ived
Ġcr unch
Ġsur round
ĠSm ith
Good bye
Ġdisag reed
Ġdr inking
ĠB oo
Me ow
Ġshadow s
os ed
iss ion
J en
Ġwe st
Le o
Ġr ul
Ġp ra
Ġperm ission
Ġlady b
b oo
ĠW ally
ĠM illie
Ġstr o
Ġsp it
Ġexper ience
ve st
Ġsor ted
Ġe sc
Ġz ero
Ġwhist ling
sh ip
Ġperfect ly
Ġsne ak
Ġmouth s
ĠCh icky
Ġag o
ĠFo llow
ĠB o
Ġhig hest
Ġf ed
Bob by
w alk
Re ally
Ġto night
Ġte asing
Ġstud ied
ĠThe se
ut ter
Ġhur ried
Ġbro om
av id
Ġside walk
ĠL iz
Ġs ix
et y
ĠD r
Ġlet s
Ġcartoon s
Ġare a
mb ling
Ġstr ang
Ġpe aches
o ved
Ġtre mbling
t her
Ġhead ed
ĠW iggly
Ġcol ours
Ġmelt ing
M andy
Ġpotato es
Ġscrat ched
Ġrelax ed
Ġim mediately
Ġsupp osed
Ġl ines
Ġkn own
Ġmoment s
Ġtw ink
H a
Ġgirl s
č ĊĠč
Ġwait s
Ġsucceed ed
ĠG r
Ġt ucked
Ġland s
Ġstrang ers
Ġplay time
ĠRock y
Ġli ck
Ġwigg le
Ġwat ches
Ġwarm th
ic ing
Sam my
Ġwork s
d ed
B ird
Ġmuff ins
Ġe ast
ĠJ ames
Ġscream s
Ġtheir s
Ġkneel ed
Ġbr us
Ġinst r
ab ies
Ġal right
Ġherb s
! '
Ġfield s
Ġemer gen
And y
Ġladyb ug
s ing
Ġsl apped
or ed
Ġtwig s
ĠIt s
Ġoff icer
Ġla id
Ġhe n
Ġsteal ing
Ġm ister
p lease
Ġrul er
Ġbr id
" ,
Ġop in
ĠH op
Ġw ink
Ġri pped
Ġdecor ations
W ould
Ġsett led
Ġset ting
Ġremain ed
Ġmat ched
Ġd ire
Ġappreci ate
!" ,
Ġpaint s
Ġin vest
Ġb abies
ĠS low
Ġsil ence
Ġrest ed
Ġmon sters
Ġkey s
ĠT oto
Ġinvest ig
Ġesc aped
B oo
Ġrest ing
Ġpu pp
Ġpile s
ĠB oth
os ity
ig ail
Ġcon es
Ġburn ing
Ġbrave ly
h a
ĠSome one
Ġeat s
irr ing
Ġth reat
Ġamaz ement
Ġimport ance
ist en
E ventually
Ġbrid ges
id s
Ġsaf ety
Ġinvestig ate
Ġcont est
all en
Ġfood s
an na
Ġtrip s
Ġsister s
Ġa chie
Ġgu y
Ġch allen
id es
Ġnail s
z ing
Ġmix ing
Ġkeep s
Ġwr it
Ġturn ing
x ture
v a
Ġtouch ing
Ġte xture
ĠC he
Ġso aked
Ġtw in
M mm
pl ash
ĠL ater
P eter
Ġadm ir
Ġstamp s
Ġord ered
ĠPe pper
Ġsho pping
ĠM o
Ġspark le
Ġemergen cy
Ġcrunch y
Ġpe el
ĠM ay
Ġs ings
Ġser ved
Ġst irring
ĠH ope
H appy
Ġit em
at ie
Ġansw ers
Ġso re
Ġo at
Ġyou th
u zz
ĠCl ara
Ġwood en
Ġshoot ing
Ġfl av
ĠJ ul
f ied
Ġhe sit
Ġdad s
Ġsprink les
a les
Ġmark s
C at
Ġrid es
Ġrecord ed
Ġstr ings
Ġha ted
is hes
Ġf ut
Ġbe at
ĠF irst
Ġspace ship
Ġreveal ed
Ġrem em
Ġfut ure
Ġv et
ĠSk y
Ġremem bers
Ġtick le
Ġdown stairs
ĠZ igzag
Ġpra ised
Ġmitten s
ĠSomet hing
l s
ant ly
E lla
Ġglow ed
ĠR abbit
Ġstudy ing
Ġsees aw
Ġs i
Ġin ch
Ġchew ing
Ġappro ached
ĠSu zy
he llo
Mom o
Ġqu ack
ĠR achel
Ġso ared
Ġcur led
Ġche f
ĠB ug
Ġbring ing
Ġpr ide
u es
iz ing
T w
ĠSt ar
Ġown ed
Ġbe amed
U n
ĠO ut
aff es
Ġpo king
h ind
Ġfire men
Ġwonder s
Ġmot ion
Ġdisturb ed
ĠJ oy
Ġres ult
Ġgir affes
Ġneighbor hood
i en
Ġresp ons
Ġticket s
Ġmeas uring
O r
a ved
Ġapolog ized
Ġh i
Ġwe ighed
Ġth rill
Ġn apping
unn ies
ĠD id
ĠN ot
Ġbleed ing
ĠH appy
Ġsl im
Ġdinosaur s
Ġcraw ling
C l
Ġpoem s
en a
Ġo be
Ġswim s
Ġsi ren
Ġtast es
ĠAl ways
ĠA n
Ġdraw s
Ġcoll ecting
ig gy
a ct
Ġcir cus
Ġb unnies
Ġg ust
ĠFr og
Ġe ff
' .
Ġsecret s
Ġfamil ies
ay s
Ġd ot
Em ily
Ġloo se
Ġlead er
ĠM e
ir ts
Ġhorn s
Ġyell ing
Ġgain ed
Ġstr uck
Ġn icer
om ing
H ave
Ġcudd led
Ġrecogn ized
Ġpre c
Ġsne aked
Ġany time
Ġnap s
Ġa we
Ġcras hed
S omet
Ġsne aky
Ġobe y
Ġkeep er
J ake
Ġbeh aved
ĠSt op
Ġsc aring
Ġcont ain
Ġpengu ins
ĠS qu
Ġdog gy
p ed
og o
Ġwant ing
Ġprep ared
Ġwrit es
Ġslim y
Ġzoo keeper
Ġkn elt
Ġzoom ing
Ġped als
Ġdecid es
Ġchirp ed
o h
Ġhapp iest
Ġgood night
l oe
. '
Ġgre y
ĠSlow ly
ĠR ay
O llie
ĠM aggie
Ġtri cked
Ġspark ling
n ie
Ġpr op
Ġno on
id ed
Ġour selves
Ġb oo
F irst
Ġpo ssible
Ġscoop ed
Ġre le
Ġeff ort
Ġbrus hes
Ġwork er
ĠD avid
l ier
A h
Ġagre ement
Ġclap s
ĠC ar
el vet
Ġprec ious
pp ers
Ġrepe ated
Ġfr ost
ĠA m
an ted
ĠSte ve
Ġtall est
Ġt ugged
Ġrock ing
u d
Ġopen ing
Ġbr ushed
Ġgrin ned
Ġw oof
Ġs ides
Ġdecor ated
Ġseem s
R emember
ĠH o
ĠBird ie
Ġg aze
ĠL izzy
Ġpaint ings
Ġspend ing
Ġhis sed
Ġsweet ies
ĠBe ep
Ġp ause
T r
R ex
Ġbuzz ing
Ġrem oved
Ġlo ving
Ġbloom ed
aw s
Ġro cked
Ġstay ing
Ġact ing
Ġpocket s
Ġhard ly
Ġcuri osity
Ġsnowball s
Ġe ight
Ġr ust
Ġpow ers
z en
Ġbo om
Ġpot s
S usie
Ġtrave led
Ġfrost ing
Ġcomf y
Ġopin ion
Ġkind ly
all ow
Ġear lier
ĠS plash
om as
Ġwigg led
Ġsad ness
Ġgo als
Ġfa sc
ed ding
Ġpol ished
Ġbe lly
Ġbalan cing
ĠZ oe
ĠAb igail
ĠK eep
Ġthrill ed
Ġwire s
Ġto ss
ur ry
u se
S p
Ġr ings
Ġfro zen
m other
Ġsurround ed
r s
Ġstrugg ling
Ġadmir ing
Ġpad d
Ġgr anted
Ġdec ision
Ġcra cked
Ġcat ches
w h
riend s
it ies
Ġstri pes
Ġro aring
Ġpart ies
Y ummy
Ġru bbing
Ġex pected
D ucky
Ġhon k
Ġdes er
ĠV elvet
ĠL ike
ind y
Ġsaf er
Ġload ed
Ġapolog ize
Ġspray ing
ĠFr ank
Ġste ep
Ġfold ing
R o
Ġli ed
oy s
Ġrele ased
Ġpet ted
Ġribb ons
Ġneighb ors
Ġchase s
Ġbuild ings
d am
Ġsplas hes
Ġfasc in
ĠRob by
Ġsmile y
Ġpe ered
Ġmach ines
Ġdrag ons
Ġcut s
Ġcomf orted
er n
Ġkit es
Ġcr umb
E x
Ġmov ies
Ġcomp le
Ġarg ued
ĠE n
Thank s
Ġmatch ing
u ke
Ġroad s
Ġri p
Ġdisco very
Somet imes
Ġpour ing
Ġcle aring
John ny
Ġst are
Ġpol ishing
Ġd ipped
ĠD are
Ġquarrel ing
Ġcrab s
Ġprot ected
ĠM oo
ĠLe ave
Ġw edding
Ġscr u
Ġdemand ed
M ar
Ġwhat ever
is dom
Ġbe side
ĠW atch
ĠCh r
an a
Ġsl ed
Ġgather ing
Ġeag le
Ġchallen ge
ĠG ogo
Ġw id
Ġsigh s
ĠW ater
ĠO lly
ind a
Ġspark les
Ġteac hes
Ġc aut
Ġsit u
F r
Ġman e
ĠSt itch
ĠPipp a
Ġun ited
D uring
Ġhug ging
Ġhero es
Ġdi ving
Ġbe ard
Ġsun light
ĠEvery day
Ġst ing
Ġair pl
c akes
Ġcontin ue
Ġorgan izing
Ġdrag ged
Ġcomp any
Ġm a
Ġcudd le
G eorge
Ġsaus ages
Ġpe ppers
Ġbott les
ĠZ ero
Ġstrugg led
se ek
as hed
Ġt im
Ġrespons ible
Ġplanet s
ĠL ou
Ġ X
Ġwonder ing
Ġpack ing
Ġb aker
ĠBoun cy
Ġpretend s
ĠJ u
Ġrad ishes
Ġbed time
Ġan n
ĠA unt
ic orn
Ġpencil s
joy ed
Ġwhere ver
Ġun icorn
ent y
Ġplay room
Ġover joyed
um m
D ave
Ġfl utter
Ġfa ult
Wh iskers
U h
gu ing
Ġy esterday
Ġwin s
Ġpur red
Ġdri ves
Ġbowl s
Ġar guing
ĠBe ing
Ġcre pt
Ġph ot
ĠR emember
j am
A choo
L una
s ses
Ġvill ag
Ġsat is
Ġact ually
Ġprett iest
he e
Ġvide os
Ġshr ug
ĠM at
ir a
Ġtowel s
Ġcont ro
ac ob
Ġstick ing
Ġsmall est
Ġsh irts
Ġsc ales
Ġlollipop s
Ġdest ination
Ġw ound
Ġpat ience
Ġgot ten
Ġdust y
Ġbucket s
Ġd am
Ġbatter ies
ath y
Ġte ased
Ġfe ars
ĠB eth
âĢĿ .
Ġtail s
Ġb ank
ĠBrown ie
Ġscru bbed
low ers
Ġref res
Ġpebble s
Ġmountain s
Ġfiref ight
Ġvillag ers
Ġremind er
Ġal ien
ĠB ecause
am ie
Ġwas ted
Ġl imes
uck ily
Ġlearn s
Ġex act
Ġbeg in
Ġtal ent
Ġbe ad
Ġagre es
Ġon wards
Ġheal ed
Ġfair ies
Ġuse s
Ġspid ers
Ġshiver ed
Ġpump kins
Ġd ied
ĠM illy
D oggy
Ġstretch ing
Ġflag s
la ire
Ġwr ist
Ġprot ecting
Ġblow s
ĠJ e
T iny
Ġvisit ing
Ġpupp et
Ġac com
anna h
ĠP ut
Ġshe lves
Ġreal ize
Ġinstr uct
Ġgrand mother
.. .
Ġch ips
Ġaw ake
Ġact ions
S illy
Ġweek s
Ġro ses
Ġcomple ted
Ġc ough
ĠK atie
Ġknight s
ic a
ĠB ree
in ing
ant a
B unny
Ġrep ly
ĠG reen
Ġb unch
Ġitem s
Ġth ird
Ġh itting
Ġaccom pl
Ġsnake s
Ġpar ked
Ġd ent
ĠAb by
um ble
Ġwere n
Ġval ued
T ime
Ġlog s
Ġimpro ved
Ġgl itter
ĠSp ring
ir m
Ġjo king
Ġhelmet s
Ġsto le
Ġpastel s
Ġexam ined
Ġdark er
Ġlisten s
Ġst ern
Ġso aring
Ġcre ation
Ġcontro l
Ġapplaud ed
R ob
Ġpe as
Ġinstruct ions
le y
Ġshould ers
Ġref use
ang led
L ola
Ġairpl ane
ĠJ ess
ĠW isdom
u zzy
ĠP rin
A b
Ġscream ing
Ġcrumb s
Ġru le
Ġrepl aced
Ġphot os
ĠEn joy
ĠBe hind
Ġrocket s
Ġc ause
ĠC ra
n ers
W atch
Ġforg i
Ġachie ve
Ġresc ued
Ġmask s
Ġgun s
Ġchirp ing
z es
ĠD ee
d ies
ay la
St ay
P oppy
Ġpro ject
ĠQu ack
ue st
Ġpray er
Ġfar ther
Ġv ent
Ġcub es
Ġbalan ced
ĠSqu irrel
Ġpolice man
Ġper ched
Ben ny
Ġben eath
ĠE ar
M ike
Ġwho se
Ġcurtain s
at y
Ġfascin ated
ĠCh loe
jam as
B ad
Ġtask s
Ġse as
Ġrem ote
P aul
F o
Ġrequest ed
Ġremember ing
Ġne ither
Ġcan s
ĠS un
ĠH enny
Ġg uest
Ġexact ly
Ġsnee zing
Ġsight s
Ġclose s
Ġpan s
Ġhe av
Ġfill ing
Ġstar ing
Ġreach ing
Ġguy s
ĠO ur
ĠCat ty
Gra ndpa
Ġsw oop
P ete
Ġarri ve
ĠB y
d ie
b ie
Ġpatient ly
Ġbra nd
Z oom
Ġsuperhero es
ĠL ove
M iss
Ġact iv
ĠF riends
Ġse ven
Ġla p
ĠD ot
ke lly
Ġtr aded
Ġscar ves
Ġpract icing
Ġpat ted
Ġins ist
Ġcop y
Ġbead s
Ġpass ing
Ġcomplain ing
y ou
Ġobser ved
Ġcaut ious
ĠM ix
ĠF ish
D ays
Ġstum ble
Ġp out
Ġcheer ing
il o
g o
g ers
Ġwob bled
Ġqu acked
Ġdolph ins
uct antly
u ly
ara way
Ġrub s
Ġm es
Ġf irm
Ġdes p
ĠJ an
Ġprett ier
Ġbit ing
Ġt une
Ġrainbow s
Ġmiss ion
Ġf araway
ĠEar th
Ġus ually
Ġsitu ation
Ġevery day
Ġout do
ĠB ye
Ġ 1
udd les
G reat
ĠP aws
ĠHow ever
S ome
Ġfa ced
ĠHo ot
Ġwork ers
Ġconf l
ĠTh omas
Ġgrowl ing
Ġbloom ing
Ġb are
ĠS orry
ĠDo do
n eath
R un
s m
v in
Ġtr uly
Ġgl asses
Ġca used
Ġyour selves
Ġwind y
Ġa st
e ah
H enry
Ġste ady
Ġarrow s
Ġteam work
Ġpad dle
ĠS anta
l er
Ġpa jamas
Ġinsect s
Ġdrum s
O ops
Ġmis ses
Ġjacket s
Ġintrod uc
Ġinclu ded
Ġload ing
Ġinv iting
ĠH ippy
z ie
Ġunt ie
Ġroll s
Ġhome work
Ġdot s
ĠQu ick
ĠBl ink
o dy
es ome
Ġpast ries
ugg les
ĠB op
l ay
Ġtim er
Ġconfl ict
ĠChe w
Ġrecord ing
Ġcand ies
ĠUn fortunately
i ar
Ġus ual
Ġneighbour hood
Ġhelp ers
Ġ Yes
Ġ Once
Ġwin ked
Ġprom ises
Ġdoctor s
Ġdire ction
Ġde al
Ġbec oming
th ough
a a
ast er
ĠRo ver
ĠF or
ĠD uck
Ġtable s
Ġpadd led
Ġdes ert
Ġaw esome
ĠS ure
ĠC uddles
F ine
Ġsl am
Ġcur ly
ink le
Ġcrow d
ĠW ant
ĠSt ay
ĠG et
Ch irpy
Ġun f
Ġstar fish
Ġkick s
Ġgem s
ĠA va
ĠSn uggles
ar ter
Ġth ro
Ġsnow men
Ġrel uctantly
Ġsatis fied
ĠTw o
ĠS ad
us an
T ina
Gra ce
D og
Ġsol ut
ĠS kelly
in t
Ġsm arter
ĠAnn e
ad os
E w
Ġwander ing
Ġv owed
Ġt angled
ĠL ion
bb led
J ames
Ġsurf ace
Ġsal ty
Ġhid er
Ġoutdo ors
ĠD izzy
an es
Ġwarn ings
ĠA lly
P olly
A n
.. ."
Ġstay s
Ġknow led
Ġgigg ling
Ġtoast er
Ġro pes
Ġprince sses
Ġlibr arian
Ġknowled ge
Ġpoin ty
Ġcobweb s
ĠO l
T oby
P e
Ġtwir l
Ġseek er
Ġitch y
Ġclown s
ĠJ illy
Ġpay ing
ĠK ids
Y eah
B uzz
Ġstart led
Ġcrack ers
Ġconf ident
Ġch oo
Ġunder neath
Ġsp ong
Ġrest ored
Ġcl ick
Ġdeliver ed
Ġchoice s
ĠM on
ĠJ ones
Sh h
Ġso bbed
Ġno ses
Ġc ous
Ġavoc ados
ĠPrin cess
Ġthro at
ĠZ iggy
ĠS c
Ġhid es
ĠP r
ĠP o
Ro ar
D anny
Ġth orn
Ġref le
H old
Ġslow er
Ġwis hing
c oon
Ġvent ured
Ġcreat ing
ĠS w
Ġswoop ed
Ġminer als
Ġcover s
ĠW elcome
Ġread s
Ġfork s
Ġd ar
Ġch uck
Mr s
Ġwear s
O ur
Ġb umpy
Ġbuzz ed
Ġbad ge
id o
rr r
e ed
Ġornament s
ĠM ouse
ag ull
Ġdi ved
ĠFo xy
ll ed
izz ie
ĠE l
T eddy
Ġspong e
Ġpray ing
M aggie
Ġyou nger
ĠJe ff
Ġw ow
Ġsc ur
Ġri pe
Ġent ire
Ġbare ly
ĠJul ie
Ġrain y
Ġpig gy
Th ose
Ġtra ctor
Ġmagnet s
Ġchef s
Ġbeh aving
ist le
Ġdark ness
ĠL uke
ĠD ara
ul ts
f it
ell e
Ġv ines
Ġtick led
Ġplay ers
Ġdecor ating
ĠJo sh
or a
Ġwip es
Ġtrick y
Ġscur ried
Ġdeser ve
ĠSk ip
ĠL inda
Ġst em
Ġmar ked
cu se
Un fortunately
Ġfl ames
Ġbra very
t uce
av i
ang ing
Ġsquare s
Ġse agull
Ġprov ided
ĠA dam
oph ia
Ġsupp lies
Ġadd ing
bb ie
Ġun p
Ġn ine
ĠCra b
Tr ue
Ġspe aking
Ġkne es
Ġguess ing
l ings
b ric
Ch arlie
A lex
Ġwait er
Ġscrew s
Ġknock s
Ġfa bric
Ġcom m
Ġbar s
Ġsing er
Ġown ers
Ġlet tuce
Ġdiscover ing
ust ed
s on
ou ch
k y
?" ,
Ġsque al
Ġsew ed
Ġjob s
v room
ol ine
ab el
Tw eet
Ġtip to
Ġgear s
Ġcomplain ed
Ġcautious ly
ĠJ acob
ĠGr umpy
ĠC athy
Ġsign ed
Ġout fit
ĠJ essie
ĠA nt
How ever
Ann ie
Ġlo sing
l en
Ġre ason
Ġprop erly
Ġn i
c her
Be ep
Ġperform ed
Ġp ec
Ġbo dies
Ġb ak
it ely
Ġpan cakes
Ġdance s
n ies
Ġsword s
Ġr isk
Ġforget s
Ġexplore rs
ĠRo llie
ct ar
L isten
Ġsil ent
Ġnecklace s
Ġne ctar
Ġlead ing
b ly
Ġav o
Jo ey
Ex cuse
Ġtire s
Ġrefres hed
Ġlight er
Ġfro ze
Ġch at
Ġbur st
Ġthu d
Ġpen s
Ġgrow s
o ke
F or
W hee
Ġlean ing
Ġflav or
Fo llow
Ġrace s
Ġmushroom s
Ġjo ked
f l
S ophie
Ġyell s
Ġnap kins
Ġgra bbing
ĠC laire
am b
Ġwrap s
Ġintroduc ed
Ġgre et
Ġfiref ly
Ġchuck led
Ġc ent
Ġblock ing
ĠJ amie
r ance
igg ie
ep t
Ġrot ting
um bled
h og
J erry
Ġrain co
Ġimag es
Ġb acked
ĠJen na
Ġdesign ed
ĠCo pper
B ig
Ġwr itten
Ġfig ured
Ġcompetit ion
ĠSn ap
a is
Ġst ain
Ġhow ever
Ġbase ment
ĠM ilo
Ġtwir ling
Ġtriang les
Ġsuffer ing
Ġspread ing
Ġex ha
ĠR e
th a
id ing
br ush
Ġaccompl ish
Ġsw ept
Ġmin ts
Ġlift ing
Ġgrowl s
ver s
st y
qu ence
ĠL ena
ĠGood bye
Ġ Q
ct ions
? '
Ġwor ries
Ġmeal s
Ġfore head
Ġf reed
Ġdent ist
Ġcheek s
Ġstom ped
Ġruin ing
se quence
Ġpen nies
Ġle ast
Ġfe ast
Ġcon sequence
ĠAs h
Ġplay house
Ġpart ic
ĠTh ose
Ġbuy ing
ag ic
Ġsto len
Ġsolut ion
Ġscrat ches
Ġnest s
Ġcon n
Ġcamp ing
ĠNot hing
Ġran ger
Ġpl enty
Ġmatter s
it ches
am my
L illy
K ate
Ġs ib
Ġle ap
Ġc ott
ĠB all
ue en
t le
b and
H arry
Ġst ung
ĠT ree
Ġfire s
i very
Ġfa ct
Ġcount s
Ġcolor ed
ĠR olly
Ġ Ġč
Ġbu dge
ĠH old
Ġheav ier
Ġent rance
n o
Ġwip ing
Ġpur r
Ġma iled
ĠW ink
ĠG ina
ĠBl oom
Ġunp acked
Ġt apped
Ġsn at
Ġm er
Ġlung s
Ġg ri
Ġfe ver
Ġexha usted
Ġbump s
ĠT ry
Ġwra pping
Ġun s
Ġsepar ated
Ġneed les
Ġbak ery
ĠL isten
Ġhedge hog
Ġann oy
Ġconsequence s
r ink
ck y
Ġh us
ĠT ara
u de
ipp er
Ġhand ful
ĠMat t
are n
Ġfu zzy
Ġcomplet ely
st ep
ll e
L uckily
Ġslam med
Ġrelie f
Ġpassport s
ĠSu zie
Ġste er
ater ial
Ġt y
Ġsweet s
Ġsc ra
Ġon ions
Ġm aterial
ĠB iggie
it ched
S n
Ġpartic ular
Ġcudd ly
Ġtalk s
Ġinterest ed
bo at
Ġwake s
Ġgen ie
Ġfilm s
Ġback ward
ĠF ido
le ts
Ġtwink ling
Ġsuit case
Ġmus cle
Ġcow b
Ġbath s
ĠE lephant
Ġsqueal ed
Ġmon th
Ġbu ses
ĠWh istle
ĠN ana
ri ous
b ut
R u
Ġdel ivery
Ġa imed
Ġč ĊĠč
Ġtouc hes
Ġswims uit
Ġloop s
Ġhesit ated
ĠMike y
er ate
au ra
Ġdire ctions
ĠTw inkle
ĠS usan
o ssible
le e
Ġo pp
Ġlead s
Ġfeed ing
Ġast ron
Ġprin ting
ĠR ain
ĠJ ump
ret ch
B ill
Ġl amb
Ġhus band
Ġcelebr ation
Ġtw ice
Ġst ool
Ġimp ossible
ĠQ ueen
we ed
ig ning
Ġsk unk
Ġr otten
Ġl ower
Ġforget ting
Ġdar ling
Ġtunnel s
Ġsea weed
Ġrust y
ĠC indy
ind r
Ġsp at
Ġp ins
Ġdeterm ination
Ġcelebr ating
Ġbeh avi
Ġastron aut
ĠM ic
ĠM ad
h o
Ġsib lings
Ġra indr
Ġpath s
Ġcountry side
Ġactiv ities
ĠK ayla
a el
Ġreward ed
Ġpec ked
Ġnot es
Ġch anging
Ġcalm ed
ĠBug gy
ro sty
p en
ile s
Ġre pa
Ġr ising
Ġpout ed
ĠBet sy
ĠB irthday
aw n
Ġwhisp ers
Ġstro ked
Ġspike s
Ġrefle ction
Ġpee king
Ġmes mer
ant ha
T ake
Ġs ense
Ġbegin ning
Ġac he
m as
ĠâĢ ĺ
Ġsqu ish
Ġsour ce
Ġsew ing
Ġm oo
ĠY esterday
ĠH annah
c l
Al ways
Ġhope ful
Ġheal th
Ġfar t
ĠE ls
y es
Ġc ust
r ig
iver sity
Ġtwink le
n e
c ope
J ump
Ġg ross
Ġborrow ed
Ġag e
ĠM el
ĠJ on
R ose
Ġrepa ired
Ġcust om
Ġc ash
ĠL izzie
S unny
P at
M illie
Ġt ies
Ġsuff ered
Ġd en
ĠOn ly
ĠJul ia
u ess
ive s
ich ael
ara c
Ġlift s
Ġhear ing
Ġfart hest
Ġcous in
ĠJess ica
ri ver
D an
Ġs way
Ġcre ations
Ġcl ues
ĠL aser
an s
Ġshr inking
Ġshop s
Ġbow s
ĠOl iver
ee se
S andy
Ġsnat ched
Ġhoop s
Ġgroup s
Ġa ff
ĠChr ist
j o
it ude
Ġsunf lowers
Ġevery body
ĠW oof
im mer
el ia
Ġthr own
Ġregret ted
us ing
ter s
ark y
Ġstrong est
Ġstreet s
Ġfl apping
Ġdam age
Ġd ie
Ġcold er
Ġch arac
ll en
ch o
arm er
Ġdro pping
ĠSo f
ĠC ara
rig ued
Ġtr amp
Ġswan s
Ġrobot s
Ġobject s
Ġfin s
U nder
Ġzebra s
Ġunt ied
Ġt iss
Ġsa n
g gy
Ġinstr um
Ġbl ocked
st ick
air y
Ġsw ir
ĠO ther
ĠSp irit
ĠP up
ĠF ire
C o
B ear
Ġy elp
Ġtwist ing
Ġsan k
Ġmagic ian
Ġwe pt
Ġslow ed
ĠF rosty
Ġwob bly
Ġsing le
Ġrecommend ed
ĠChrist mas
u ing
Ġtrem bled
Ġstud ents
Ġhop s
Ġdoll house
itt ed
Ġtramp oline
Ġhon ked
Ġg eese
Ġflav ors
Ġdanc ers
Ġangel s
ĠWith out
ĠTr ust
ĠSnow man
ĠN ina
ĠBe aky
Ġsniff s
ĠU p
ĠS ophia
ĠJ une
ill ed
Ġsurf board
Ġrac coon
Ġpres ses
Ġpo ster
Ġpl ain
Ġgl ued
Ġdo d
iv ity
il ity
Ġrec ipe
Ġli qu
Ġstore keeper
Ġspark s
Ġrainco at
Ġm aker
Ġe cho
Ġe arn
Ġun w
Ġtipto ed
Ġsome body
ĠS leep
y ond
it i
Ġinclu ding
Ġbe yond
ĠRu dy
on ies
Mar ia
Ġsh oo
Ġro ars
Ġdis ob
Ġcolour ed
Ġbrace lets
Ġad ult
Ġwill ing
Ġwarm er
Ġfrown ing
e ve
B et
Ġvan illa
Ġsque ak
Ġrain s
Ġpr ove
Ġk ings
Ġend s
Ġdoll ars
ĠB ones
M oo
Ġsp ins
Ġhall way
Ġcurious ly
Ġbulb s
h i
at ur
all owed
Ġsw allowed
Ġslip s
Ġpupp ies
ĠR ich
ĠK ip
ion a
Qu ack
Ġsto pping
Ġsecond s
Ġd ip
Ġcream y
ĠMar tha
u ppy
ild a
Ġso fter
Ġm ate
Ġfit s
Ġcreat ivity
und red
Ġstand s
Ġsail ors
Ġprep aring
Ġguest s
âĢ Ķ
O ut
Ġtw eet
Ġsa le
Ġch op
Ġcash ier
Ġbell s
Ġaccomplish ment
ĠEm my
ile y
Ġwater ing
Ġr umble
ĠM ira
ĠA ng
Ġwob ble
Ġp onies
Ġencou rag
ĠSt ella
P ipp
M ine
Ġsupp orted
Ġbr u
Ġavo id
ĠZ ee
ĠCh irp
ob ody
Ġtiss ue
Ġshap ed
Ġplan ning
Ġmer ma
Ġhead ing
Ġforgi ving
p rin
ing o
he w
V room
N ina
Ġsuit s
Ġliqu id
Ġdeliver ing
Ġc oup
Ġart ist
Ġa is
oun ce
M ay
Ġvehic les
ie ce
Ġt ipped
Ġimag ining
ĠRob ert
Z ip
Qu ick
Ġwid ened
Ġlay ing
Ġlabel s
Ġincre ased
ll ing
e al
Ġzipp ing
Ġt ying
Ġsurpr ising
Ġsnow fl
Ġsend ing
Ġpour s
Ġkitten s
Ġcush ions
Ġcorn ers
Ġc oop
Ġmark er
Ġfl ipped
ĠTo ot
im on
i am
ad es
Ġsh own
Ġsail boat
Ġpass en
Ġh undred
Ġafter wards
ib bit
B aby
Ġwa king
Ġtight er
Ġswe at
Ġraindr ops
Ġr ather
Ġfirefight er
Ġas ide
Ġtalent ed
Ġpedal ed
Ġind eed
Ġgrace fully
Ġfirm ly
Ġfirefight ers
Ġdriver s
ĠW oo
ĠTweet ie
ais ies
Fr ank
Ġtub es
Ġtoss ed
Ġplan s
Ġmagaz ines
Ġhot ter
ĠF armer
umm ies
a ven
V ery
Ġwis ely
Ġspell s
Ġrob ber
Ġple asure
Ġhaircut s
Ġgri p
Ġbel ts
Ġachie ved
ert ain
Ġpop s
Ġover come
Ġignor ing
Ġfle as
y an
ad ing
G uess
Ġy um
Ġseas ons
Ġpe ck
Ġoy sters
Ġd aisies
Ġbit s
ĠN ick
am boo
Ġwe e
Ġuns ure
Ġt ummies
Ġlend ing
Ġknot s
ĠW illy
ĠT ake
Ġ icing
pec ting
c ited
Ġsc ored
Ġfamil iar
Ġc rew
ĠPe anut
ĠP lay
ĠL arry
d river
c row
Fred dy
A m
- -
Ġpupil s
Ġblin king
ĠSt retch
ĠSpark y
ĠP am
ĠA bbie
is c
P ut
L ike
Ġexpl o
Ġcell s
ĠF uzzy
on i
Ġhor iz
Ġel bow
Ġd et
Ġd aring
ĠT urtle
ĠT iti
B ang
Ġhoriz on
Ġcoup le
ĠP atch
ed s
G et
Ġperform ing
Ġexp ress
Ġbe am
Ġyield ed
Ġswe ep
ĠRob o
Ġ 2
urt les
Ġslice s
Ġscrew driver
Ġperform ance
ĠChr is
Ġneighb ours
Ġe v
Ġa ud
č Ċ
or ing
E llie
Ġtree house
Ġfill s
Ġbur row
Ġam ong
Ġt urtles
Ġsquish y
Ġsec ure
Ġscare crow
Ġresp ond
Ġmind ed
Ġfigure s
ig ers
Ru by
Cl ara
Ġdraw n
Ġdisturb ing
u el
ang le
Sp ike
Ġshark s
Ġpay s
Ġint rigued
Ġc or
Ġband ages
ĠUn iversity
ĠAl ong
end y
Ġp uff
Ġmerma id
Ġgigg les
Ġenthusia sm
Ġch ip
r at
ab ly
L ulu
Ġg lee
Ġfrown s
Ġnervous ly
Ġback wards
ĠL aura
it a
ight ing
C ar
Ġrever sed
Ġencourag ing
us hing
Un cle
Ġsymbol s
Ġn apped
Ġhesit ant
Ġgro cer
ĠB ally
f ly
Al right
Ġslipp ing
Ġque ens
Ġgrass y
Ġcent er
Ġar r
ver ed
Ġsp ed
Ġaud ience
S u
M illy
D olly
Ġare n
ĠD ina
u rious
ast y
Ġterri fied
Ġgarden er
Ġdraw ers
ĠE x
dd ie
Z oomy
B essie
Ġwr ink
Ġpan icked
Ġnightmare s
Ġh our
Ġclean er
Ġriver s
Ġbee h
ĠI zzy
Ġsquee zing
Ġscatter ing
Ġs ill
Ġlick ing
Ġdesign s
ĠS l
nt il
es p
c ake
Ġswim mer
Ġsport s
Ġpost man
Ġflutter ed
Ġencourage ment
Ġbl own
rat ul
ong ratul
dd ing
K atie
Ġstro ke
Ġshovel s
Ġcross ing
Ġbreat hed
Ġam ount
ra c
ch ild
J azz
Ġt il
ĠT ia
t he
K im
Ġsp ice
Ġpaint brush
Ġli es
Ġbat hing
Ġaeropl anes
ĠW ell
ĠR on
P enny
K eep
Ġtest ed
Ġgrocer ies
Ġbeeh ive
ĠT ess
ĠN ear
er m
c used
Ġto dd
ĠSad ly
ĠB arky
os en
f orm
b age
arl ings
S ad
D ear
' ."
Ġsurround ings
Ġlong est
Ġev il
Ġd arlings
Ġch osen
Ġcam el
ĠJu dge
e en
be ep
S pe
Be hind
Ġspr ang
Ġres pected
Ġmesmer ized
ment s
ent ly
as hes
R ibbit
Ġt igers
Ġmark ers
Ġla ce
Ġd ump
Ġb amboo
ĠLou ise
ĠAng el
w k
immer ing
J ul
Ġst itches
Ġsniff ing
Ġsheet s
ĠJack y
ar row
? !"
Ġunw ra
Ġsp ies
Ġmaterial s
ĠSh adow
ĠMiss y
step s
Ġtrave lled
Ġso aking
Ġde f
Ġcloud y
Ġan ger
ĠThank s
ĠM int
ĠJ ay
ĠEl iz
ust y
o ey
Ġlo ses
Ġgrand child
Ġfoot steps
ĠDo ctor
Ġunderstand s
Ġspit s
Ġsail s
Ġmix ture
Ġm iles
Ġjar s
Ġb ully
wh ile
om p
esp ite
Ġstor ed
Ġm erry
Ġexplore r
Ġdiscuss ed
ĠF ighting
T ony
Bird y
Ġno dding
Ġlip stick
Ġfl ip
p arent
After wards
Ġthorn s
Ġsweet est
Ġsh ady
Ġrepe ating
Ġpurp ose
Ġpol itely
Ġn uzz
Ġcras hing
ĠSh ow
f all
ab elle
Good night
Ġremind s
Ġpinch ing
Ġkn ives
rom ise
L ena
Ġsnee zes
Ġman ners
Ġgreet ed
Ġfo cused
Ġdisob ey
Ġbicy cles
Ġbel oved
ĠZ ipper
ce pt
c a
Bet ty
Ġthought s
Ġquiet er
Ġcl ue
ĠIs n
ke nd
D avid
Ġwee kend
Ġsl ither
Ġhang ers
Ġflo ats
Ġban ged
ĠSpark le
Ġsprink led
Ġpuzz led
Ġforgi ven
Ġeng ines
ĠM oon
r up
Ġwor n
Ġte aring
Ġspeed ing
Ġhand ing
Ġgu ide
Ġgaz ing
Ġg est
Ġbasket s
ĠMix y
ĠK it
In stead
!âĢĿ .
Ġspoon ful
Ġjoin ing
Ġgrand parent
ĠO kay
ĠM a
ĠF iona
on na
Wh ich
Ġs y
Ġre ass
Ġdam aged
ĠR uff
ĠR ia
ĠPr ince
Ġ1 0
z oom
P andy
B inky
Ġwigg ly
Ġsol ving
Ġsc ient
Ġpeel ed
Ġne are
Ġdress ing
Ġcolor ing
Ġbra ver
ĠU ntil
ĠR yan
ĠL oop
isc uit
ab by
B ow
B ee
Ġfreed om
Ġcharac ters
Ġc oug
Ġad ults
ĠSt an
oun ced
f reeze
Ġsurf ing
Ġst acked
Ġscient ist
Ġquarrel ed
Ġha wk
ĠZ ippy
an while
Ġwa dd
Ġtemp er
Ġsn uck
Ġprop er
Ġexplain s
ĠW in
ĠG ary
is ions
Le ave
A dam
Ġres isted
Ġlesson s
Ġcover ing
Ġbury ing
Ġbu bb
umb ling
T ry
C arl
Ġsc en
Ġdelay ed
Ġcare s
Ġbur nt
ĠP h
ĠN obody
prin ts
ip es
ig hing
atter ed
E ven
Ġwound s
Ġwas ting
Ġtreat ed
Ġg erm
Ġdon key
Ġben ches
ib i
K ids
Ġteam s
Ġr ushing
Ġp ound
Ġhis s
Ġfl ight
Ġdream t
ĠW ise
ous y
op es
d a
as hing
Ġn asty
Ġmar sh
Ġch anges
ĠW o
ĠC ow
ĠA r
ac y
O pen
Ġworry ing
Ġsm ashed
Ġship s
Ġplant ing
Ġfor ce
Ġfo cus
ĠSam antha
ĠN ice
Ġ 5
M at
Ġspill s
Ġsand y
Ġpige ons
Ġg onna
Ġapolog ised
ĠEvery body
re st
og a
c c
and as
B oys
Ġwid er
Ġtow ard
Ġl ent
Ġhe ight
Ġbl ast
ĠK aren
re y
Ġscra ped
Ġm ast
Ġlangu ages
Ġdri fted
Ġdec isions
Ġbeep ed
ĠS imon
ĠE lle
re ct
b ird
an ie
K iki
Ġt uck
Ġscare s
Ġpunish ment
Ġmate y
Ġm ood
Ġheal ing
Ġe ase
Ġcoll ap
Ġbother ing
ĠQuack y
ĠPo or
ĠM ake
ĠJack ie
ĠH olly
ĠE ddie
Ġsc amp
Ġple aded
Ġbrave st
ĠZ oey
ĠP en
Z ara
B uzzy
Ġrelax ing
Ġmind s
Ġdri pping
Ġdress er
ĠM abel
ĠJo lly
H urry
Ġu nd
Ġtast ing
Ġsw itched
Ġremind ing
Ġperm itted
Ġhuman s
T ed
D r
B ack
Ġpeace fully
Ġecho ed
Ġcor rect
Ġais le
un ched
ri er
or king
ood les
l ine
it ion
ec ca
Ġtodd ler
Ġstern ly
Ġprob ably
Ġmonth s
Ġche ers
uff in
Tw o
B y
Ġy umm
Ġrow s
Ġp uck
Ġopin ions
Ġjo ins
Ġinstrum ents
Ġhands ome
Ġcra cks
Ġbother ed
ĠM ichael
S low
Pipp in
Ġ ouch
m allow
f ound
e vin
ain t
Ġsweat ers
Ġpl ucked
Ġo cc
Ġn ur
Ġfa iled
Ġe le
Ġb itten
ĠZ ack
ĠW ait
ĠMay a
R ock
Ġresc uing
Ġneat ly
Ġmarsh mallow
Ġcra ft
R achel
Ġtrust ing
Ġsnowfl akes
Ġcowb oy
Ġch arge
Ġbackpack s
ĠL uckily
W ake
Some one
P ip
Ġsmell ing
Ġsing ers
Ġse ver
Ġpot ion
Ġpol ar
Ġnewsp apers
Ġla pt
Ġfin ishing
Ġdoor way
ĠN ut
ĠGr anny
year s
ul p
om b
A unt
Ġsw ap
Ġsque aked
Ġsever al
Ġpray ers
Ġdisplay ed
Ġbehavi or
Ġant ic
ĠSpe ed
iv i
bb a
Ġyelp ed
Ġr amp
Ġleap t
Ġg ap
Ġfoot prints
ĠY awn
ĠL enny
ĠH or
ĠFl o
v y
un ity
T illy
Ch loe
Ġtwink led
Ġs ens
Ġrisk s
Ġmel ons
Ġgar bage
Ġde ars
Ġastronaut s
ĠJo jo
ott e
Sn ow
Ġdestro ying
Ġcrown s
Ġback s
ĠL ia
ĠH ug
ĠH oney
ĠBl inky
M agic
Ġwr igg
Ġthrough out
Ġswe aty
Ġsp y
Ġse als
Ġp andas
Ġlapt op
Ġfl own
Ġaccident s
ĠJan ie
ĠFl utter
bb ers
al ph
L iz
Ġtw enty
Ġtil ted
Ġrat s
Ġm unch
Ġgrand son
Ġflap s
Ġeffort s
Ġbird house
Ġbell ies
ĠS ay
ĠR ita
or ter
M ira
Ġzoom s
Ġyaw ning
Ġuniform s
Ġspr out
Ġshin ier
Ġman ag
Ġenc ount
ĠFl appy
ĠAb i
w ise
f ire
St eve
Ab igail
Ġtal ents
Ġshin es
Ġnew found
Ġgerm s
Ġfox es
Ġcar ries
Ġc ertain
Ġal though
ĠTim e
ĠB ess
Ġin sp
Ġgo bbled
Ġdesp ite
Ġde ed
Ġcrocodile s
Ġaw are
ĠMar ie
ĠM ousy
ĠG l
ig ger
el ie
Spe edy
Sh rink
Fin n
Ġstamp ed
Ġspear s
Ġplay d
Ġm aster
Ġgest ure
Ġf aded
Ġduck ling
Ġatt ack
Ġadd ress
ĠSh are
ĠI m
ĠB ibi
r ons
ear s
b ell
arl otte
Ġtemper ature
Ġsqu ir
Ġsnap s
Ġnovel s
Ġgl itt
Ġbreat hing
ĠT e
ĠN e
t ock
N ice
Ġwh imp
Ġtest ing
Ġstom p
Ġscold s
Ġmind ing
ĠY et
m ies
l ied
Ġwhist les
Ġunpack ing
Ġstat ues
Ġser ving
Ġscoot ers
Ġro bbers
Ġenvel opes
Ġdrive way
Ġclos ing
Ġap rons
Ġantic ip
ĠW endy
ĠChew y
ĠChe ss
ĠA na
oo sh
f ive
eth os
Ġwar ri
Ġstro ll
Ġst ethos
Ġsell er
Ġpl ug
Ġnear ly
Ġmeow s
Ġh oo
Ġfor m
Ġcream s
Ġconn ected
Ġcon s
ĠR oo
P lay
Ġtr ot
Ġr ays
Ġfl ips
Ġcup cakes
Ġbec omes
Ġact ion
ĠTo dd
ĠRob bie
ĠR azor
ĠP uppy
r ily
en ing
ac ock
O live
M ad
H oppy
Ġsupp lied
Ġsa cks
Ġs ou
Ġres ults
Ġk illed
Ġjoy ful
Ġdes igning
ĠC le
f ather
H annah
Ġwater fall
Ġpri ck
Ġpill s
Ġstethos cope
Ġpur rs
Ġon ward
Ġha ird
Ġgrandparent s
Ġfile s
Ġcott on
Ġca using
ĠRe ady
ĠK elly
ĠF airy
ĠD espite
og er
an cy
.' "
Ġteacher s
Ġscamp ered
Ġpassen gers
Ġin j
Ġg oo
Ġdoor bell
Ġde fe
Ġche ated
Ġbus iness
Ġb omb
Ġannoy ed
ĠV ivi
ĠAl though
v ant
atur day
T oo
A rrr
Ġsh all
Ġprov iding
Ġpe acock
Ġcott age
Ġbelie ving
ĠN avy
ĠFish y
wh at
S w
Ġtool box
Ġra ising
Ġni bble
Ġgoat s
Ġforgive s
Ġed ges
Ġcl icked
Ġbrus hing
ĠB ad
qu et
N ear
Ġwelc oming
Ġtap ed
Ġsnugg le
Ġcrawl s
Ġaff ord
ĠEls ie
ĠB aa
ook y
